{
  "version": "1.0",
  "truncation": null,
  "padding": null,
  "added_tokens": [
    {
      "id": 0,
      "content": "[UNK]",
      "single_word": false,
      "lstrip": false,
      "rstrip": false,
      "normalized": false,
      "special": true
    },
    {
      "id": 1,
      "content": "[SOS]",
      "single_word": false,
      "lstrip": false,
      "rstrip": false,
      "normalized": false,
      "special": true
    },
    {
      "id": 2,
      "content": "[EOS]",
      "single_word": false,
      "lstrip": false,
      "rstrip": false,
      "normalized": false,
      "special": true
    },
    {
      "id": 3,
      "content": "[PAD]",
      "single_word": false,
      "lstrip": false,
      "rstrip": false,
      "normalized": false,
      "special": true
    }
  ],
  "normalizer": null,
  "pre_tokenizer": {
    "type": "Whitespace"
  },
  "post_processor": null,
  "decoder": null,
  "model": {
    "type": "BPE",
    "dropout": null,
    "unk_token": null,
    "continuing_subword_prefix": null,
    "end_of_word_suffix": null,
    "fuse_unk": false,
    "byte_fallback": false,
    "ignore_merges": false,
    "vocab": {
      "[UNK]": 0,
      "[SOS]": 1,
      "[EOS]": 2,
      "[PAD]": 3,
      "!": 4,
      "\"": 5,
      "&": 6,
      "'": 7,
      "(": 8,
      ")": 9,
      "*": 10,
      "+": 11,
      ",": 12,
      "-": 13,
      ".": 14,
      "/": 15,
      "0": 16,
      "1": 17,
      "2": 18,
      "3": 19,
      "4": 20,
      "5": 21,
      "6": 22,
      "7": 23,
      "8": 24,
      "9": 25,
      ":": 26,
      ";": 27,
      "<": 28,
      "=": 29,
      ">": 30,
      "?": 31,
      "A": 32,
      "B": 33,
      "C": 34,
      "D": 35,
      "E": 36,
      "F": 37,
      "G": 38,
      "H": 39,
      "I": 40,
      "J": 41,
      "K": 42,
      "L": 43,
      "M": 44,
      "N": 45,
      "O": 46,
      "P": 47,
      "Q": 48,
      "R": 49,
      "S": 50,
      "T": 51,
      "U": 52,
      "V": 53,
      "W": 54,
      "X": 55,
      "Y": 56,
      "Z": 57,
      "[": 58,
      "]": 59,
      "_": 60,
      "a": 61,
      "b": 62,
      "c": 63,
      "d": 64,
      "e": 65,
      "f": 66,
      "g": 67,
      "h": 68,
      "i": 69,
      "j": 70,
      "k": 71,
      "l": 72,
      "m": 73,
      "n": 74,
      "o": 75,
      "p": 76,
      "q": 77,
      "r": 78,
      "s": 79,
      "t": 80,
      "u": 81,
      "v": 82,
      "w": 83,
      "x": 84,
      "y": 85,
      "z": 86,
      "": 87,
      "£": 88,
      "«": 89,
      "°": 90,
      "º": 91,
      "»": 92,
      "À": 93,
      "Â": 94,
      "Æ": 95,
      "Ç": 96,
      "È": 97,
      "É": 98,
      "Ê": 99,
      "Î": 100,
      "Ï": 101,
      "Ô": 102,
      "Ù": 103,
      "Û": 104,
      "à": 105,
      "á": 106,
      "â": 107,
      "ä": 108,
      "æ": 109,
      "ç": 110,
      "è": 111,
      "é": 112,
      "ê": 113,
      "ë": 114,
      "ì": 115,
      "î": 116,
      "ï": 117,
      "ñ": 118,
      "ò": 119,
      "ô": 120,
      "ö": 121,
      "ù": 122,
      "û": 123,
      "ü": 124,
      "Œ": 125,
      "œ": 126,
      "έ": 127,
      "ί": 128,
      "α": 129,
      "β": 130,
      "γ": 131,
      "ε": 132,
      "ι": 133,
      "κ": 134,
      "λ": 135,
      "μ": 136,
      "ν": 137,
      "ο": 138,
      "τ": 139,
      "φ": 140,
      "ϊ": 141,
      "ό": 142,
      "А": 143,
      "Г": 144,
      "Н": 145,
      "–": 146,
      "—": 147,
      "‘": 148,
      "’": 149,
      "“": 150,
      "”": 151,
      "…": 152,
      "en": 153,
      "ai": 154,
      "es": 155,
      "ou": 156,
      "on": 157,
      "re": 158,
      "le": 159,
      "de": 160,
      "an": 161,
      "qu": 162,
      "er": 163,
      "ent": 164,
      "et": 165,
      "ait": 166,
      "in": 167,
      "ar": 168,
      "la": 169,
      "is": 170,
      "il": 171,
      "it": 172,
      "ne": 173,
      "au": 174,
      "se": 175,
      "te": 176,
      "que": 177,
      "ur": 178,
      "ch": 179,
      "or": 180,
      "av": 181,
      "me": 182,
      "as": 183,
      "ce": 184,
      "ais": 185,
      "les": 186,
      "om": 187,
      "our": 188,
      "ous": 189,
      "ant": 190,
      "pr": 191,
      "un": 192,
      "ét": 193,
      "lu": 194,
      "eu": 195,
      "at": 196,
      "oi": 197,
      "lle": 198,
      "tr": 199,
      "si": 200,
      "th": 201,
      "par": 202,
      "al": 203,
      "ri": 204,
      "ment": 205,
      "ans": 206,
      "des": 207,
      "je": 208,
      "une": 209,
      "tre": 210,
      "du": 211,
      "pas": 212,
      "qui": 213,
      "con": 214,
      "est": 215,
      "li": 216,
      "ag": 217,
      "com": 218,
      "ion": 219,
      "ab": 220,
      "elle": 221,
      "and": 222,
      "son": 223,
      "out": 224,
      "ré": 225,
      "dé": 226,
      "am": 227,
      "dans": 228,
      "vous": 229,
      "--": 230,
      "ap": 231,
      "aient": 232,
      "pour": 233,
      "ouv": 234,
      "ir": 235,
      "end": 236,
      "sa": 237,
      "était": 238,
      "the": 239,
      "us": 240,
      "os": 241,
      "ie": 242,
      "sur": 243,
      "mon": 244,
      "ave": 245,
      "ain": 246,
      "lui": 247,
      "ien": 248,
      "ée": 249,
      "plu": 250,
      "dit": 251,
      "ois": 252,
      "di": 253,
      "avait": 254,
      "of": 255,
      "res": 256,
      "su": 257,
      "ort": 258,
      "eur": 259,
      "plus": 260,
      "mp": 261,
      "ac": 262,
      "tout": 263,
      "ser": 264,
      "oir": 265,
      "ut": 266,
      "ing": 267,
      "to": 268,
      "che": 269,
      "Il": 270,
      "ma": 271,
      "mes": 272,
      "ses": 273,
      "ter": 274,
      "ère": 275,
      "co": 276,
      "nous": 277,
      "don": 278,
      "gr": 279,
      "ver": 280,
      "ette": 281,
      "ff": 282,
      "vo": 283,
      "avec": 284,
      "mais": 285,
      "eux": 286,
      "ille": 287,
      "és": 288,
      "ge": 289,
      "ces": 290,
      "he": 291,
      "ci": 292,
      "ve": 293,
      "cr": 294,
      "ons": 295,
      "mo": 296,
      "vi": 297,
      "aire": 298,
      "Je": 299,
      "ex": 300,
      "pu": 301,
      "bien": 302,
      "ux": 303,
      "pe": 304,
      "dis": 305,
      "ue": 306,
      "ier": 307,
      "be": 308,
      "leur": 309,
      "lo": 310,
      "cette": 311,
      "so": 312,
      "im": 313,
      "comme": 314,
      "ard": 315,
      "cou": 316,
      "br": 317,
      "ès": 318,
      "po": 319,
      "quel": 320,
      "aux": 321,
      "ad": 322,
      "per": 323,
      "ins": 324,
      "int": 325,
      "jour": 326,
      "age": 327,
      "ure": 328,
      "fr": 329,
      "pro": 330,
      "ven": 331,
      "ation": 332,
      "no": 333,
      "ti": 334,
      "ér": 335,
      "ils": 336,
      "man": 337,
      "able": 338,
      "ite": 339,
      "éc": 340,
      "moi": 341,
      "mar": 342,
      "ble": 343,
      "ors": 344,
      "all": 345,
      "peu": 346,
      "for": 347,
      "ten": 348,
      "ine": 349,
      "aut": 350,
      "fi": 351,
      "main": 352,
      "fait": 353,
      "mi": 354,
      "être": 355,
      "der": 356,
      "tou": 357,
      "rép": 358,
      "ro": 359,
      "lon": 360,
      "ra": 361,
      "hom": 362,
      "deux": 363,
      "puis": 364,
      "cher": 365,
      "Le": 366,
      "em": 367,
      "sé": 368,
      "gn": 369,
      "té": 370,
      "sans": 371,
      "mê": 372,
      "..": 373,
      "car": 374,
      "tes": 375,
      "ité": 376,
      "ord": 377,
      "rent": 378,
      "endre": 379,
      "pos": 380,
      "tres": 381,
      "dev": 382,
      "Mais": 383,
      "cour": 384,
      "tant": 385,
      "temp": 386,
      "ance": 387,
      "cu": 388,
      "agn": 389,
      "ct": 390,
      "près": 391,
      "wh": 392,
      "ang": 393,
      "même": 394,
      "ence": 395,
      "fin": 396,
      "pen": 397,
      "trouv": 398,
      "port": 399,
      "el": 400,
      "ques": 401,
      "lais": 402,
      "min": 403,
      "ay": 404,
      "ions": 405,
      "bre": 406,
      "reg": 407,
      "aus": 408,
      "faire": 409,
      "sou": 410,
      "his": 411,
      "Et": 412,
      "endant": 413,
      "lé": 414,
      "bon": 415,
      "aine": 416,
      "ante": 417,
      "att": 418,
      "st": 419,
      "gu": 420,
      "répon": 421,
      "sait": 422,
      "ni": 423,
      "sent": 424,
      "La": 425,
      "comp": 426,
      "ret": 427,
      "été": 428,
      "ert": 429,
      "fut": 430,
      "où": 431,
      "pris": 432,
      "pouv": 433,
      "op": 434,
      "part": 435,
      "rait": 436,
      "orte": 437,
      "mer": 438,
      "sieur": 439,
      "ût": 440,
      "lait": 441,
      "autre": 442,
      "coup": 443,
      "temps": 444,
      "let": 445,
      "asse": 446,
      "jus": 447,
      "core": 448,
      "homme": 449,
      "fois": 450,
      "that": 451,
      "dou": 452,
      "Ce": 453,
      "ner": 454,
      "encore": 455,
      "ob": 456,
      "avoir": 457,
      "nu": 458,
      "là": 459,
      "jours": 460,
      "ont": 461,
      "eure": 462,
      "mé": 463,
      "pre": 464,
      "pres": 465,
      "air": 466,
      "né": 467,
      "seu": 468,
      "tu": 469,
      "vers": 470,
      "mis": 471,
      "dire": 472,
      "sem": 473,
      "ill": 474,
      "her": 475,
      "entre": 476,
      "ez": 477,
      "pet": 478,
      "ith": 479,
      "Qu": 480,
      "fer": 481,
      "vou": 482,
      "vre": 483,
      "was": 484,
      "lan": 485,
      "voy": 486,
      "avais": 487,
      "ches": 488,
      "arri": 489,
      "étaient": 490,
      "Elle": 491,
      "pendant": 492,
      "prit": 493,
      "voir": 494,
      "point": 495,
      "dont": 496,
      "pla": 497,
      "vis": 498,
      "ler": 499,
      "ête": 500,
      "men": 501,
      "sous": 502,
      "rou": 503,
      "ed": 504,
      "heure": 505,
      "eau": 506,
      "ol": 507,
      "va": 508,
      "fem": 509,
      "ôt": 510,
      "dem": 511,
      "pi": 512,
      "rais": 513,
      "long": 514,
      "heur": 515,
      "donc": 516,
      "Ar": 517,
      "grand": 518,
      "pré": 519,
      "En": 520,
      "ail": 521,
      "rien": 522,
      "ta": 523,
      "fort": 524,
      "ieu": 525,
      "èrent": 526,
      "vie": 527,
      "ly": 528,
      "quelque": 529,
      "regard": 530,
      "sion": 531,
      "quand": 532,
      "jam": 533,
      "lement": 534,
      "aussi": 535,
      "ts": 536,
      "conn": 537,
      "gh": 538,
      "tin": 539,
      "pé": 540,
      "eff": 541,
      "ca": 542,
      "ers": 543,
      "lors": 544,
      "arr": 545,
      "voi": 546,
      "tous": 547,
      "jet": 548,
      "oc": 549,
      "hu": 550,
      "emp": 551,
      "met": 552,
      "avant": 553,
      "ond": 554,
      "toute": 555,
      "had": 556,
      "aff": 557,
      "mom": 558,
      "mal": 559,
      "yeux": 560,
      "cor": 561,
      "cela": 562,
      "votre": 563,
      "cri": 564,
      "use": 565,
      "moment": 566,
      "ren": 567,
      "ld": 568,
      "rer": 569,
      "fais": 570,
      "dre": 571,
      "leurs": 572,
      "him": 573,
      "aî": 574,
      "urs": 575,
      "imp": 576,
      "ton": 577,
      "char": 578,
      "fa": 579,
      "cap": 580,
      "Les": 581,
      "jamais": 582,
      "rap": 583,
      "trois": 584,
      "ose": 585,
      "oire": 586,
      "répondit": 587,
      "rai": 588,
      "bou": 589,
      "femme": 590,
      "après": 591,
      "ées": 592,
      "enf": 593,
      "avez": 594,
      "jeu": 595,
      "cent": 596,
      "avaient": 597,
      "ande": 598,
      "gne": 599,
      "trav": 600,
      "do": 601,
      "peut": 602,
      "uli": 603,
      "tour": 604,
      "vit": 605,
      "sant": 606,
      "gar": 607,
      "lis": 608,
      "jusqu": 609,
      "cha": 610,
      "with": 611,
      "fit": 612,
      "quoi": 613,
      "ich": 614,
      "moins": 615,
      "nom": 616,
      "ments": 617,
      "quelques": 618,
      "porte": 619,
      "nes": 620,
      "suis": 621,
      "On": 622,
      "pa": 623,
      "omb": 624,
      "rest": 625,
      "lit": 626,
      "écri": 627,
      "toujours": 628,
      "you": 629,
      "semb": 630,
      "Vous": 631,
      "ass": 632,
      "aille": 633,
      "demand": 634,
      "non": 635,
      "ens": 636,
      "ente": 637,
      "ép": 638,
      "petit": 639,
      "ants": 640,
      "gé": 641,
      "mil": 642,
      "Par": 643,
      "sui": 644,
      "oy": 645,
      "Ch": 646,
      "ainsi": 647,
      "ire": 648,
      "jeune": 649,
      "contre": 650,
      "ique": 651,
      "alors": 652,
      "lar": 653,
      "monsieur": 654,
      "eût": 655,
      "tagn": 656,
      "beau": 657,
      "prendre": 658,
      "terre": 659,
      "ate": 660,
      "cham": 661,
      "pie": 662,
      "pl": 663,
      "ger": 664,
      "off": 665,
      "hab": 666,
      "go": 667,
      "anc": 668,
      "eut": 669,
      "toutes": 670,
      "sais": 671,
      "nouv": 672,
      "autres": 673,
      "cô": 674,
      "heures": 675,
      "tion": 676,
      "ph": 677,
      "Juli": 678,
      "prof": 679,
      "itu": 680,
      "sort": 681,
      "which": 682,
      "chose": 683,
      "sont": 684,
      "étais": 685,
      "Julien": 686,
      "ame": 687,
      "som": 688,
      "ru": 689,
      "tête": 690,
      "tenant": 691,
      "vé": 692,
      "onn": 693,
      "cin": 694,
      "elles": 695,
      "ui": 696,
      "notre": 697,
      "Artagn": 698,
      "Artagnan": 699,
      ".»": 700,
      "Mon": 701,
      "mat": 702,
      "ds": 703,
      "cet": 704,
      "très": 705,
      "sour": 706,
      "bi": 707,
      "my": 708,
      "allait": 709,
      "vent": 710,
      "chez": 711,
      "devant": 712,
      "ale": 713,
      "gent": 714,
      "person": 715,
      "col": 716,
      "alle": 717,
      "tel": 718,
      "tait": 719,
      "ple": 720,
      "ères": 721,
      "ég": 722,
      "pouvait": 723,
      "cer": 724,
      "cé": 725,
      "ange": 726,
      "bout": 727,
      "trop": 728,
      "Nous": 729,
      "bes": 730,
      "abri": 731,
      "cas": 732,
      "fus": 733,
      "ça": 734,
      "çon": 735,
      "cal": 736,
      "Mar": 737,
      "grande": 738,
      "ide": 739,
      "...": 740,
      "contin": 741,
      "maî": 742,
      "prés": 743,
      "chev": 744,
      "sh": 745,
      "ght": 746,
      "fu": 747,
      "iers": 748,
      "quat": 749,
      "we": 750,
      "not": 751,
      "io": 752,
      "can": 753,
      "ici": 754,
      "couv": 755,
      "cle": 756,
      "voix": 757,
      "Un": 758,
      "ature": 759,
      "mur": 760,
      "fe": 761,
      "ages": 762,
      "sible": 763,
      "illes": 764,
      "capit": 765,
      "thos": 766,
      "yr": 767,
      "nuit": 768,
      "Que": 769,
      "auc": 770,
      "cert": 771,
      "ot": 772,
      "vait": 773,
      "Oui": 774,
      "vu": 775,
      "sai": 776,
      "Mr": 777,
      "faut": 778,
      "bar": 779,
      "sus": 780,
      "vres": 781,
      "bras": 782,
      "venait": 783,
      "prom": 784,
      "assez": 785,
      "by": 786,
      "gi": 787,
      "ière": 788,
      "pren": 789,
      "vant": 790,
      "monde": 791,
      "bli": 792,
      "have": 793,
      "Mme": 794,
      "donn": 795,
      "Com": 796,
      "connais": 797,
      "dét": 798,
      "bles": 799,
      "red": 800,
      "The": 801,
      "uis": 802,
      "sau": 803,
      "Au": 804,
      "she": 805,
      "êtes": 806,
      "pli": 807,
      "esp": 808,
      "dent": 809,
      "éch": 810,
      "venir": 811,
      "but": 812,
      "depuis": 813,
      "serait": 814,
      "quatre": 815,
      "ke": 816,
      "Si": 817,
      "tement": 818,
      "mu": 819,
      "rez": 820,
      "lè": 821,
      "fou": 822,
      "capitaine": 823,
      "ole": 824,
      "instant": 825,
      "mit": 826,
      "ck": 827,
      "ction": 828,
      "roit": 829,
      "bas": 830,
      "inter": 831,
      "vais": 832,
      "sel": 833,
      "quelle": 834,
      "aper": 835,
      "hor": 836,
      "trait": 837,
      "irent": 838,
      "cur": 839,
      "ore": 840,
      "this": 841,
      "maison": 842,
      "souv": 843,
      "euse": 844,
      "onne": 845,
      "hommes": 846,
      "écria": 847,
      "ile": 848,
      "lut": 849,
      "compagn": 850,
      "chambre": 851,
      "Fabri": 852,
      "mort": 853,
      "zio": 854,
      "Fabrizio": 855,
      "pay": 856,
      "ât": 857,
      "pau": 858,
      "amis": 859,
      "tomb": 860,
      "commen": 861,
      "Con": 862,
      "Ma": 863,
      "ati": 864,
      "De": 865,
      "one": 866,
      "contr": 867,
      "appe": 868,
      "seul": 869,
      "soir": 870,
      "chant": 871,
      "uit": 872,
      "ations": 873,
      "continu": 874,
      "cl": 875,
      "déj": 876,
      "rée": 877,
      "fille": 878,
      "én": 879,
      "quit": 880,
      "prem": 881,
      "lant": 882,
      "ché": 883,
      "faisait": 884,
      "lles": 885,
      "feu": 886,
      "sil": 887,
      "urent": 888,
      "mière": 889,
      "entend": 890,
      "teur": 891,
      "ienne": 892,
      "pous": 893,
      "diff": 894,
      "ving": 895,
      "od": 896,
      "ise": 897,
      "maintenant": 898,
      "doute": 899,
      "pit": 900,
      "fond": 901,
      "art": 902,
      "Dieu": 903,
      "sée": 904,
      "comm": 905,
      "jou": 906,
      "esse": 907,
      "ber": 908,
      "quer": 909,
      "lieu": 910,
      "Gr": 911,
      "tri": 912,
      "pt": 913,
      "mille": 914,
      "idé": 915,
      "place": 916,
      "Du": 917,
      "aurait": 918,
      "mari": 919,
      "Eh": 920,
      "pri": 921,
      "peine": 922,
      "face": 923,
      "côté": 924,
      "demanda": 925,
      "vrai": 926,
      "étr": 927,
      "ables": 928,
      "ement": 929,
      "ges": 930,
      ".\"": 931,
      "ju": 932,
      "ville": 933,
      "matin": 934,
      "ze": 935,
      "app": 936,
      "personne": 937,
      "effet": 938,
      "retour": 939,
      "souff": 940,
      "Ils": 941,
      "quet": 942,
      "ures": 943,
      "aller": 944,
      "appar": 945,
      "arb": 946,
      "lad": 947,
      "petite": 948,
      "parler": 949,
      "trouver": 950,
      "bour": 951,
      "tent": 952,
      "Ah": 953,
      "ves": 954,
      "An": 955,
      "ll": 956,
      "ould": 957,
      "bonne": 958,
      "self": 959,
      "ince": 960,
      "Puis": 961,
      "eurs": 962,
      "aise": 963,
      "mains": 964,
      "cinq": 965,
      "sup": 966,
      "tra": 967,
      "ami": 968,
      "Alors": 969,
      "Une": 970,
      "ardin": 971,
      "iens": 972,
      "crois": 973,
      "Pen": 974,
      "ps": 975,
      "aires": 976,
      ",\"": 977,
      "Ne": 978,
      "dame": 979,
      "Non": 980,
      "êt": 981,
      "endu": 982,
      "sieurs": 983,
      "vér": 984,
      "suite": 985,
      "née": 986,
      "nature": 987,
      "gre": 988,
      "roi": 989,
      "île": 990,
      "mettre": 991,
      "iez": 992,
      "gros": 993,
      "ines": 994,
      "ilà": 995,
      "maître": 996,
      "donner": 997,
      "nos": 998,
      "porter": 999,
      "mor": 1000,
      "oses": 1001,
      "enfin": 1002,
      "Pour": 1003,
      "cau": 1004,
      "rie": 1005,
      "présent": 1006,
      "croff": 1007,
      "Pencroff": 1008,
      "desc": 1009,
      "from": 1010,
      "mieux": 1011,
      "devait": 1012,
      "plais": 1013,
      "dessus": 1014,
      "venu": 1015,
      "milieu": 1016,
      "éri": 1017,
      "dési": 1018,
      "déjà": 1019,
      "acc": 1020,
      "fac": 1021,
      "disait": 1022,
      "pass": 1023,
      "aître": 1024,
      "chait": 1025,
      "lot": 1026,
      "reprit": 1027,
      "soi": 1028,
      "seulement": 1029,
      "fig": 1030,
      "up": 1031,
      "semblait": 1032,
      "Cyr": 1033,
      "parti": 1034,
      "pieds": 1035,
      "attend": 1036,
      "Cyrus": 1037,
      "oin": 1038,
      "deman": 1039,
      "haut": 1040,
      "eus": 1041,
      "ath": 1042,
      "beaucoup": 1043,
      "celui": 1044,
      "ign": 1045,
      "has": 1046,
      "rit": 1047,
      "ition": 1048,
      "vint": 1049,
      "las": 1050,
      "cre": 1051,
      "pect": 1052,
      "who": 1053,
      "aud": 1054,
      "lie": 1055,
      "are": 1056,
      "lat": 1057,
      "froi": 1058,
      "dix": 1059,
      "chaque": 1060,
      "père": 1061,
      "tenir": 1062,
      "Tout": 1063,
      "Cette": 1064,
      "mot": 1065,
      "gré": 1066,
      "tru": 1067,
      "aim": 1068,
      "esprit": 1069,
      "Athos": 1070,
      "choses": 1071,
      "vingt": 1072,
      "cam": 1073,
      "fût": 1074,
      "vue": 1075,
      "occu": 1076,
      "gen": 1077,
      "if": 1078,
      "fam": 1079,
      "toi": 1080,
      "vois": 1081,
      "demain": 1082,
      "six": 1083,
      "comment": 1084,
      "abord": 1085,
      "pauvre": 1086,
      "celle": 1087,
      "loin": 1088,
      "!»": 1089,
      "ted": 1090,
      "anger": 1091,
      "meur": 1092,
      "soit": 1093,
      "cul": 1094,
      "route": 1095,
      "gens": 1096,
      "entôt": 1097,
      "pir": 1098,
      "enfant": 1099,
      "chemin": 1100,
      "sol": 1101,
      "vir": 1102,
      "jeun": 1103,
      "bat": 1104,
      "sign": 1105,
      "cy": 1106,
      "Oh": 1107,
      "trou": 1108,
      "quest": 1109,
      "oign": 1110,
      "teau": 1111,
      "Quand": 1112,
      "onde": 1113,
      "bois": 1114,
      "mith": 1115,
      "bo": 1116,
      "appro": 1117,
      "vement": 1118,
      "tran": 1119,
      "passer": 1120,
      "Smith": 1121,
      "coeur": 1122,
      "table": 1123,
      "sc": 1124,
      "mère": 1125,
      "cit": 1126,
      "blan": 1127,
      "ane": 1128,
      "bord": 1129,
      "condu": 1130,
      "amour": 1131,
      "aint": 1132,
      "travers": 1133,
      "lady": 1134,
      "na": 1135,
      "ouver": 1136,
      "bruit": 1137,
      "çait": 1138,
      "ailleurs": 1139,
      "Th": 1140,
      "marqu": 1141,
      "oncle": 1142,
      "presque": 1143,
      "dom": 1144,
      "seule": 1145,
      "habit": 1146,
      "premier": 1147,
      "rir": 1148,
      "fen": 1149,
      "said": 1150,
      "gue": 1151,
      "semble": 1152,
      "ieux": 1153,
      "itude": 1154,
      "partie": 1155,
      "arriv": 1156,
      "mois": 1157,
      "jout": 1158,
      "mir": 1159,
      "solu": 1160,
      "Char": 1161,
      "Fr": 1162,
      "iste": 1163,
      "say": 1164,
      "Vo": 1165,
      "ies": 1166,
      "dés": 1167,
      "guer": 1168,
      "idée": 1169,
      "very": 1170,
      "arrê": 1171,
      "ajout": 1172,
      "saient": 1173,
      "meme": 1174,
      "andis": 1175,
      "reste": 1176,
      "nouveau": 1177,
      "laient": 1178,
      "demi": 1179,
      "quin": 1180,
      "bé": 1181,
      "cie": 1182,
      "ow": 1183,
      "etre": 1184,
      "eaux": 1185,
      "ris": 1186,
      "âmes": 1187,
      "lez": 1188,
      "lettre": 1189,
      "put": 1190,
      "ances": 1191,
      "pare": 1192,
      "sang": 1193,
      "aute": 1194,
      "dern": 1195,
      "vos": 1196,
      "ach": 1197,
      "argent": 1198,
      "nal": 1199,
      "telle": 1200,
      "sement": 1201,
      "secon": 1202,
      "ifi": 1203,
      "sorte": 1204,
      "lorsque": 1205,
      "act": 1206,
      "Paris": 1207,
      "illa": 1208,
      "certain": 1209,
      "rom": 1210,
      "simp": 1211,
      "four": 1212,
      "lier": 1213,
      "veille": 1214,
      "bientôt": 1215,
      "would": 1216,
      "eth": 1217,
      "lou": 1218,
      "Cependant": 1219,
      "figure": 1220,
      "oubli": 1221,
      "rés": 1222,
      "ié": 1223,
      "sez": 1224,
      "tenait": 1225,
      "première": 1226,
      "aperç": 1227,
      "cep": 1228,
      "éle": 1229,
      "croy": 1230,
      "raison": 1231,
      "senti": 1232,
      "indi": 1233,
      "ray": 1234,
      "Mi": 1235,
      "dist": 1236,
      "Pr": 1237,
      "mou": 1238,
      "lam": 1239,
      "aucun": 1240,
      "len": 1241,
      "sit": 1242,
      "perdu": 1243,
      "pays": 1244,
      "sera": 1245,
      "obser": 1246,
      "belle": 1247,
      "avons": 1248,
      "anim": 1249,
      "agne": 1250,
      "furent": 1251,
      "will": 1252,
      "longtemps": 1253,
      "vieux": 1254,
      "raient": 1255,
      "heureux": 1256,
      "prise": 1257,
      "mée": 1258,
      "voit": 1259,
      "lice": 1260,
      "hi": 1261,
      "enir": 1262,
      "mau": 1263,
      "chi": 1264,
      "fallait": 1265,
      "sole": 1266,
      "moy": 1267,
      "autour": 1268,
      "aucune": 1269,
      "cation": 1270,
      "écr": 1271,
      "oth": 1272,
      "liz": 1273,
      "ayant": 1274,
      "silence": 1275,
      "tranqu": 1276,
      "Quel": 1277,
      "issait": 1278,
      "gg": 1279,
      "oie": 1280,
      "amen": 1281,
      "He": 1282,
      "enne": 1283,
      "ok": 1284,
      "besoin": 1285,
      "hors": 1286,
      "sance": 1287,
      "sec": 1288,
      "hô": 1289,
      "jo": 1290,
      "bu": 1291,
      "»,": 1292,
      "huit": 1293,
      "rière": 1294,
      "....": 1295,
      "In": 1296,
      "ade": 1297,
      "ty": 1298,
      "cependant": 1299,
      "mous": 1300,
      "passé": 1301,
      "regar": 1302,
      "Dans": 1303,
      "pied": 1304,
      "cess": 1305,
      "ème": 1306,
      "sin": 1307,
      "entendre": 1308,
      "suff": 1309,
      "rible": 1310,
      "Sa": 1311,
      "aurais": 1312,
      "Duches": 1313,
      "Eliz": 1314,
      "abeth": 1315,
      "trouvait": 1316,
      "Bon": 1317,
      "mont": 1318,
      "Milady": 1319,
      "thing": 1320,
      "grands": 1321,
      "were": 1322,
      "question": 1323,
      "mb": 1324,
      "voyait": 1325,
      "net": 1326,
      "nav": 1327,
      "parut": 1328,
      "pes": 1329,
      "tôt": 1330,
      "ceux": 1331,
      "Ro": 1332,
      "prend": 1333,
      "autant": 1334,
      "force": 1335,
      "Monsieur": 1336,
      "position": 1337,
      "Elizabeth": 1338,
      "madame": 1339,
      "cours": 1340,
      "Harb": 1341,
      "laquelle": 1342,
      "been": 1343,
      "possible": 1344,
      "consi": 1345,
      "Harbert": 1346,
      "âme": 1347,
      "rend": 1348,
      "sions": 1349,
      "affaire": 1350,
      "ience": 1351,
      "sei": 1352,
      "ention": 1353,
      "ilus": 1354,
      "tard": 1355,
      "chercher": 1356,
      "découv": 1357,
      "heureuse": 1358,
      "eng": 1359,
      "corps": 1360,
      "Naut": 1361,
      "dor": 1362,
      "extr": 1363,
      "Nautilus": 1364,
      "tandis": 1365,
      "préci": 1366,
      "noir": 1367,
      "imag": 1368,
      "antes": 1369,
      "fo": 1370,
      "voilà": 1371,
      "day": 1372,
      "savoir": 1373,
      "parais": 1374,
      "énie": 1375,
      "vol": 1376,
      "Duchessa": 1377,
      "pâ": 1378,
      "expli": 1379,
      "impos": 1380,
      "Fo": 1381,
      "fs": 1382,
      "way": 1383,
      "trans": 1384,
      "fran": 1385,
      "ingénie": 1386,
      "lorsqu": 1387,
      "enfants": 1388,
      "sal": 1389,
      "préc": 1390,
      "cheval": 1391,
      "pou": 1392,
      "veux": 1393,
      "see": 1394,
      "reconn": 1395,
      "pression": 1396,
      "aband": 1397,
      "ong": 1398,
      "indre": 1399,
      "iles": 1400,
      "façon": 1401,
      "souvent": 1402,
      "sû": 1403,
      "reux": 1404,
      "minut": 1405,
      "cardin": 1406,
      "déli": 1407,
      "déci": 1408,
      "sul": 1409,
      "Jane": 1410,
      "aime": 1411,
      "they": 1412,
      "crain": 1413,
      "plaisir": 1414,
      "Son": 1415,
      "sub": 1416,
      "visage": 1417,
      "ordin": 1418,
      "dez": 1419,
      "prouv": 1420,
      "lendemain": 1421,
      "Ph": 1422,
      "pat": 1423,
      "sitôt": 1424,
      "ents": 1425,
      "faite": 1426,
      "ingénieur": 1427,
      "Rê": 1428,
      "donné": 1429,
      "pensée": 1430,
      "Rênal": 1431,
      "mos": 1432,
      "entra": 1433,
      "himself": 1434,
      "cardinal": 1435,
      "cré": 1436,
      "its": 1437,
      "II": 1438,
      "Saint": 1439,
      "oles": 1440,
      "const": 1441,
      "sembla": 1442,
      "inqui": 1443,
      "seil": 1444,
      "lig": 1445,
      "étu": 1446,
      "Fogg": 1447,
      "écout": 1448,
      "forme": 1449,
      "nd": 1450,
      "plusieurs": 1451,
      "_Nautilus": 1452,
      "bais": 1453,
      "famille": 1454,
      "_Nautilus_": 1455,
      "now": 1456,
      "parce": 1457,
      "péri": 1458,
      "ras": 1459,
      "allu": 1460,
      "Charles": 1461,
      "ierre": 1462,
      "femmes": 1463,
      "gén": 1464,
      "cause": 1465,
      "œur": 1466,
      "ouse": 1467,
      "inte": 1468,
      "réf": 1469,
      "douce": 1470,
      "dence": 1471,
      "RE": 1472,
      "inf": 1473,
      "ather": 1474,
      "ciel": 1475,
      "ester": 1476,
      "travail": 1477,
      "épau": 1478,
      "Ét": 1479,
      "geait": 1480,
      "mots": 1481,
      "partout": 1482,
      "suc": 1483,
      "él": 1484,
      "lus": 1485,
      "mour": 1486,
      "litt": 1487,
      "pourtant": 1488,
      "low": 1489,
      "soleil": 1490,
      "minutes": 1491,
      "garçon": 1492,
      "bal": 1493,
      "derrière": 1494,
      "cir": 1495,
      "partir": 1496,
      "Re": 1497,
      "ablement": 1498,
      "servi": 1499,
      "laisser": 1500,
      "lég": 1501,
      "adres": 1502,
      "èce": 1503,
      "Por": 1504,
      "entendu": 1505,
      "exis": 1506,
      "descend": 1507,
      "sing": 1508,
      "connu": 1509,
      "voulait": 1510,
      "bri": 1511,
      "vas": 1512,
      "your": 1513,
      "cents": 1514,
      "clo": 1515,
      "cons": 1516,
      "déc": 1517,
      "rendre": 1518,
      "Porthos": 1519,
      "fils": 1520,
      "peur": 1521,
      "fix": 1522,
      "more": 1523,
      "lée": 1524,
      "mouv": 1525,
      "inci": 1526,
      "produ": 1527,
      "droit": 1528,
      "lai": 1529,
      "salle": 1530,
      "frère": 1531,
      "promen": 1532,
      "val": 1533,
      "ira": 1534,
      "form": 1535,
      "dam": 1536,
      "atta": 1537,
      "Enfin": 1538,
      "any": 1539,
      "them": 1540,
      "fé": 1541,
      "ham": 1542,
      "pourquoi": 1543,
      "bris": 1544,
      "nouvelle": 1545,
      "rue": 1546,
      "ême": 1547,
      "nées": 1548,
      "sat": 1549,
      "demander": 1550,
      "offi": 1551,
      "cab": 1552,
      "sommes": 1553,
      "envir": 1554,
      "trouva": 1555,
      "leva": 1556,
      "ig": 1557,
      "ordre": 1558,
      "considé": 1559,
      "sens": 1560,
      "livres": 1561,
      "somme": 1562,
      "dernier": 1563,
      "ho": 1564,
      "ron": 1565,
      "when": 1566,
      "reç": 1567,
      "ancs": 1568,
      "certaine": 1569,
      "continua": 1570,
      "aie": 1571,
      "atte": 1572,
      "ussi": 1573,
      "rappe": 1574,
      "uni": 1575,
      "cs": 1576,
      "dur": 1577,
      "Comme": 1578,
      "qué": 1579,
      "there": 1580,
      "donne": 1581,
      "marin": 1582,
      "paroles": 1583,
      "Ang": 1584,
      "tranquille": 1585,
      "pouvais": 1586,
      "tw": 1587,
      "convers": 1588,
      "dî": 1589,
      "Prince": 1590,
      "ards": 1591,
      "Pendant": 1592,
      "âce": 1593,
      "It": 1594,
      "gran": 1595,
      "gues": 1596,
      "Conte": 1597,
      "Nemo": 1598,
      "regardait": 1599,
      "quant": 1600,
      "bonheur": 1601,
      "pent": 1602,
      "ajouta": 1603,
      "imagin": 1604,
      "trom": 1605,
      "hist": 1606,
      "fortune": 1607,
      "derni": 1608,
      "côte": 1609,
      "qua": 1610,
      "èse": 1611,
      "ément": 1612,
      "vient": 1613,
      "voyage": 1614,
      "aign": 1615,
      "roite": 1616,
      "court": 1617,
      "différ": 1618,
      "vérité": 1619,
      "lequel": 1620,
      "ains": 1621,
      "longue": 1622,
      "guerite": 1623,
      "large": 1624,
      "pap": 1625,
      "surtout": 1626,
      "assis": 1627,
      "Marguerite": 1628,
      "Comment": 1629,
      "froid": 1630,
      "maîtres": 1631,
      "prenait": 1632,
      "moyen": 1633,
      "da": 1634,
      "gal": 1635,
      "hon": 1636,
      "Sir": 1637,
      "Aramis": 1638,
      "nait": 1639,
      "sed": 1640,
      "alement": 1641,
      "joie": 1642,
      "oui": 1643,
      "quement": 1644,
      "prim": 1645,
      "état": 1646,
      "nombre": 1647,
      "petits": 1648,
      "gagn": 1649,
      "chap": 1650,
      "rê": 1651,
      "onneur": 1652,
      "loy": 1653,
      "rece": 1654,
      "ded": 1655,
      "dres": 1656,
      "ît": 1657,
      "orge": 1658,
      "Roch": 1659,
      "viol": 1660,
      "prison": 1661,
      "barr": 1662,
      "cru": 1663,
      "Cela": 1664,
      "har": 1665,
      "envoy": 1666,
      "situ": 1667,
      "wn": 1668,
      "lir": 1669,
      "ém": 1670,
      "étant": 1671,
      "iere": 1672,
      "lop": 1673,
      "ordinaire": 1674,
      "endroit": 1675,
      "étrange": 1676,
      "croire": 1677,
      "venue": 1678,
      "aussitôt": 1679,
      "coups": 1680,
      "parole": 1681,
      "garde": 1682,
      "quait": 1683,
      "étions": 1684,
      "profonde": 1685,
      "occup": 1686,
      "oux": 1687,
      "francs": 1688,
      "compte": 1689,
      "Étienne": 1690,
      "vain": 1691,
      "sées": 1692,
      "rester": 1693,
      "essay": 1694,
      "Des": 1695,
      "emport": 1696,
      "import": 1697,
      "compagnons": 1698,
      "Ces": 1699,
      "doi": 1700,
      "manière": 1701,
      "ley": 1702,
      "agit": 1703,
      "impossible": 1704,
      "rég": 1705,
      "conversation": 1706,
      "afin": 1707,
      "racon": 1708,
      "Dar": 1709,
      "van": 1710,
      "bâ": 1711,
      "occas": 1712,
      "seigne": 1713,
      "Nab": 1714,
      "ey": 1715,
      "sept": 1716,
      "irait": 1717,
      "ak": 1718,
      "lâ": 1719,
      "avantage": 1720,
      "dait": 1721,
      "mè": 1722,
      "rons": 1723,
      "lev": 1724,
      "arriver": 1725,
      "savait": 1726,
      "vieille": 1727,
      "rapide": 1728,
      "génér": 1729,
      "batt": 1730,
      "into": 1731,
      "Après": 1732,
      "vin": 1733,
      "ete": 1734,
      "manger": 1735,
      "oh": 1736,
      "Conseil": 1737,
      "assi": 1738,
      "alité": 1739,
      "èrement": 1740,
      "Darcy": 1741,
      "rire": 1742,
      "jeunes": 1743,
      "histoire": 1744,
      "Lau": 1745,
      "cti": 1746,
      "tirer": 1747,
      "plutôt": 1748,
      "propre": 1749,
      "éloign": 1750,
      "gla": 1751,
      "por": 1752,
      "esti": 1753,
      "remp": 1754,
      "avent": 1755,
      "cier": 1756,
      "Est": 1757,
      "fter": 1758,
      "iz": 1759,
      "tend": 1760,
      "here": 1761,
      "voulu": 1762,
      "affe": 1763,
      "fenêtre": 1764,
      "Lond": 1765,
      "voiture": 1766,
      "Londres": 1767,
      "vite": 1768,
      "viend": 1769,
      "No": 1770,
      "reuse": 1771,
      "erne": 1772,
      "some": 1773,
      "lett": 1774,
      "bres": 1775,
      "iller": 1776,
      "what": 1777,
      "ache": 1778,
      "spe": 1779,
      "avions": 1780,
      "passion": 1781,
      "satis": 1782,
      "fri": 1783,
      "quar": 1784,
      "ilité": 1785,
      "lumière": 1786,
      "terrible": 1787,
      "châ": 1788,
      "sure": 1789,
      "trouvé": 1790,
      "great": 1791,
      "little": 1792,
      "ats": 1793,
      "Ned": 1794,
      "Tu": 1795,
      "tap": 1796,
      "ved": 1797,
      "pouvoir": 1798,
      "malgré": 1799,
      "ls": 1800,
      "pus": 1801,
      "ager": 1802,
      "Spi": 1803,
      "lin": 1804,
      "vage": 1805,
      "ry": 1806,
      "thou": 1807,
      "volon": 1808,
      "courage": 1809,
      "colons": 1810,
      "cœur": 1811,
      "pense": 1812,
      "camp": 1813,
      "Laurent": 1814,
      "ues": 1815,
      "passa": 1816,
      "montre": 1817,
      "vérit": 1818,
      "bus": 1819,
      "nant": 1820,
      "portait": 1821,
      "plein": 1822,
      "Spilett": 1823,
      "nage": 1824,
      "lever": 1825,
      "déf": 1826,
      "Rochester": 1827,
      "itié": 1828,
      "uns": 1829,
      "poser": 1830,
      "chet": 1831,
      "urer": 1832,
      "calme": 1833,
      "Quant": 1834,
      "chac": 1835,
      "gea": 1836,
      "rouge": 1837,
      "souvenir": 1838,
      "heu": 1839,
      "pain": 1840,
      "îmes": 1841,
      "avou": 1842,
      "hui": 1843,
      "ram": 1844,
      "remarqu": 1845,
      "conf": 1846,
      "déses": 1847,
      "jourd": 1848,
      "érèse": 1849,
      "Thérèse": 1850,
      "glis": 1851,
      "plan": 1852,
      "cris": 1853,
      "Jean": 1854,
      "lots": 1855,
      "most": 1856,
      "pru": 1857,
      "Wh": 1858,
      "hér": 1859,
      "agré": 1860,
      "savez": 1861,
      "uses": 1862,
      "fini": 1863,
      "Maheu": 1864,
      "quitter": 1865,
      "every": 1866,
      "mait": 1867,
      "ese": 1868,
      "neu": 1869,
      "apper": 1870,
      "grâce": 1871,
      "regarda": 1872,
      "cell": 1873,
      "monter": 1874,
      "pis": 1875,
      "sons": 1876,
      "pourrait": 1877,
      "acieux": 1878,
      "bor": 1879,
      "journée": 1880,
      "voulez": 1881,
      "dès": 1882,
      "larmes": 1883,
      "Mrs": 1884,
      "Mlle": 1885,
      "honneur": 1886,
      "rant": 1887,
      "amin": 1888,
      "cla": 1889,
      "mus": 1890,
      "tice": 1891,
      "lèvres": 1892,
      "?\"": 1893,
      "oe": 1894,
      "than": 1895,
      "ellement": 1896,
      "juste": 1897,
      "dîner": 1898,
      "var": 1899,
      "soci": 1900,
      "attention": 1901,
      "eusement": 1902,
      "far": 1903,
      "?»": 1904,
      "mise": 1905,
      "pal": 1906,
      "str": 1907,
      "deur": 1908,
      "ombre": 1909,
      "salon": 1910,
      "fis": 1911,
      "ga": 1912,
      "haute": 1913,
      "résolu": 1914,
      "cria": 1915,
      "Voilà": 1916,
      "dispar": 1917,
      "sortir": 1918,
      "Passe": 1919,
      "fati": 1920,
      "lang": 1921,
      "ute": 1922,
      "vag": 1923,
      "ène": 1924,
      "parfait": 1925,
      "bran": 1926,
      "march": 1927,
      "attendre": 1928,
      "voud": 1929,
      "espér": 1930,
      "ack": 1931,
      "tence": 1932,
      "milles": 1933,
      "mousquet": 1934,
      "ensemble": 1935,
      "vivre": 1936,
      "admir": 1937,
      "command": 1938,
      "paraissait": 1939,
      "demeur": 1940,
      "made": 1941,
      "bouche": 1942,
      "den": 1943,
      "fai": 1944,
      "ième": 1945,
      "condit": 1946,
      "content": 1947,
      "dos": 1948,
      "confi": 1949,
      "répondre": 1950,
      "environ": 1951,
      "prob": 1952,
      "propos": 1953,
      "nécess": 1954,
      "sourire": 1955,
      "ban": 1956,
      "obs": 1957,
      "occasion": 1958,
      "Passepartout": 1959,
      "cro": 1960,
      "could": 1961,
      "entrer": 1962,
      "arris": 1963,
      "llement": 1964,
      "empê": 1965,
      "restait": 1966,
      "aperce": 1967,
      "shall": 1968,
      "mét": 1969,
      "tor": 1970,
      "èle": 1971,
      "êtres": 1972,
      "obli": 1973,
      "CH": 1974,
      "veu": 1975,
      "étab": 1976,
      "églis": 1977,
      "other": 1978,
      "reconnais": 1979,
      "fur": 1980,
      "édé": 1981,
      "ell": 1982,
      "Harris": 1983,
      "aujourd": 1984,
      "front": 1985,
      "suivre": 1986,
      "Votre": 1987,
      "Em": 1988,
      "gau": 1989,
      "évi": 1990,
      "change": 1991,
      "immen": 1992,
      "Pourquoi": 1993,
      "ume": 1994,
      "lour": 1995,
      "simple": 1996,
      "chée": 1997,
      "osse": 1998,
      "puisque": 1999,
      "regarder": 2000,
      "flot": 2001,
      "alla": 2002,
      "passait": 2003,
      "mons": 2004,
      "foule": 2005,
      "navire": 2006,
      "hand": 2007,
      "projet": 2008,
      "sujet": 2009,
      "quels": 2010,
      "séri": 2011,
      "Alice": 2012,
      "chau": 2013,
      "chien": 2014,
      "filles": 2015,
      "ites": 2016,
      "marche": 2017,
      "even": 2018,
      "insi": 2019,
      "chir": 2020,
      "meille": 2021,
      "parmi": 2022,
      "appu": 2023,
      "passage": 2024,
      "extrême": 2025,
      "IT": 2026,
      "ôle": 2027,
      "reur": 2028,
      "ars": 2029,
      "ish": 2030,
      "liers": 2031,
      "arm": 2032,
      "vez": 2033,
      "courant": 2034,
      "faisant": 2035,
      "dents": 2036,
      "désir": 2037,
      "secret": 2038,
      "aval": 2039,
      "murmur": 2040,
      "arbres": 2041,
      "dernière": 2042,
      "Sur": 2043,
      "dites": 2044,
      "brus": 2045,
      "penser": 2046,
      "lets": 2047,
      "fie": 2048,
      "intéri": 2049,
      "particu": 2050,
      "ba": 2051,
      "voyant": 2052,
      "doit": 2053,
      "oeil": 2054,
      "basse": 2055,
      "sentait": 2056,
      "miss": 2057,
      "donnait": 2058,
      "cat": 2059,
      "gouver": 2060,
      "ul": 2061,
      "éprouv": 2062,
      "ask": 2063,
      "diri": 2064,
      "acle": 2065,
      "faites": 2066,
      "existence": 2067,
      "étend": 2068,
      "mala": 2069,
      "tort": 2070,
      "çons": 2071,
      "venaient": 2072,
      "Or": 2073,
      "after": 2074,
      "lnes": 2075,
      "pois": 2076,
      "lex": 2077,
      "ités": 2078,
      "tez": 2079,
      "exc": 2080,
      "cuis": 2081,
      "rencontr": 2082,
      "doig": 2083,
      "colon": 2084,
      "traver": 2085,
      "camar": 2086,
      "faute": 2087,
      "traî": 2088,
      "thé": 2089,
      "duc": 2090,
      "trouve": 2091,
      "effort": 2092,
      "hasard": 2093,
      "mment": 2094,
      "seau": 2095,
      "absolu": 2096,
      "mouvement": 2097,
      "Ge": 2098,
      "fré": 2099,
      "fore": 2100,
      "aisse": 2101,
      "Sans": 2102,
      "andide": 2103,
      "sentiment": 2104,
      "Es": 2105,
      "présence": 2106,
      "donna": 2107,
      "barras": 2108,
      "tomber": 2109,
      "land": 2110,
      "avis": 2111,
      "!\"": 2112,
      "ète": 2113,
      "siè": 2114,
      "parlait": 2115,
      "velop": 2116,
      "médi": 2117,
      "ennu": 2118,
      "ensuite": 2119,
      "entière": 2120,
      "Candide": 2121,
      "Gédé": 2122,
      "Ly": 2123,
      "Lors": 2124,
      "aît": 2125,
      "Gédéon": 2126,
      "illé": 2127,
      "publi": 2128,
      "écla": 2129,
      "upon": 2130,
      "grandes": 2131,
      "cée": 2132,
      "pend": 2133,
      "quelqu": 2134,
      "Emma": 2135,
      "Math": 2136,
      "çant": 2137,
      "ailles": 2138,
      "suivant": 2139,
      "demande": 2140,
      "église": 2141,
      "Cather": 2142,
      "these": 2143,
      "accep": 2144,
      "obscur": 2145,
      "Catherine": 2146,
      "Tré": 2147,
      "ades": 2148,
      "escal": 2149,
      "quante": 2150,
      "second": 2151,
      "die": 2152,
      "annon": 2153,
      "trente": 2154,
      "respect": 2155,
      "Tou": 2156,
      "ity": 2157,
      "signe": 2158,
      "sud": 2159,
      "arrière": 2160,
      "Joh": 2161,
      "Meau": 2162,
      "jur": 2163,
      "dement": 2164,
      "unes": 2165,
      "riez": 2166,
      "arriva": 2167,
      "malheur": 2168,
      "gauche": 2169,
      "Meaulnes": 2170,
      "Aussi": 2171,
      "Hol": 2172,
      "lent": 2173,
      "avan": 2174,
      "roy": 2175,
      "juge": 2176,
      "isait": 2177,
      "départ": 2178,
      "examin": 2179,
      "mariage": 2180,
      "mauvais": 2181,
      "ouvert": 2182,
      "perdre": 2183,
      "midi": 2184,
      "Ben": 2185,
      "House": 2186,
      "ible": 2187,
      "sy": 2188,
      "élan": 2189,
      "sac": 2190,
      "their": 2191,
      "demois": 2192,
      "bate": 2193,
      "ilde": 2194,
      "rencontre": 2195,
      "énor": 2196,
      "Bonacieux": 2197,
      "abandon": 2198,
      "chacun": 2199,
      "flam": 2200,
      "savais": 2201,
      "amment": 2202,
      "ouvrit": 2203,
      "distance": 2204,
      "pâle": 2205,
      "quent": 2206,
      "livre": 2207,
      "reporter": 2208,
      "issant": 2209,
      "Mathilde": 2210,
      "John": 2211,
      "davantage": 2212,
      "vivement": 2213,
      "précipit": 2214,
      "sûr": 2215,
      "AP": 2216,
      "over": 2217,
      "iter": 2218,
      "surface": 2219,
      "come": 2220,
      "ful": 2221,
      "At": 2222,
      "jardin": 2223,
      "wor": 2224,
      "çais": 2225,
      "only": 2226,
      "regret": 2227,
      "jeta": 2228,
      "entement": 2229,
      "sombre": 2230,
      "disting": 2231,
      "taille": 2232,
      "leterre": 2233,
      "pleine": 2234,
      "Angleterre": 2235,
      "hur": 2236,
      "debout": 2237,
      "lia": 2238,
      "surprise": 2239,
      "embar": 2240,
      "Ses": 2241,
      "train": 2242,
      "action": 2243,
      "bet": 2244,
      "cous": 2245,
      "refus": 2246,
      "ist": 2247,
      "pron": 2248,
      "rier": 2249,
      "agé": 2250,
      "immo": 2251,
      "time": 2252,
      "arrêta": 2253,
      "know": 2254,
      "assur": 2255,
      "dité": 2256,
      "réponse": 2257,
      "quinze": 2258,
      "illage": 2259,
      "Ainsi": 2260,
      "nent": 2261,
      "ning": 2262,
      "triste": 2263,
      "mettait": 2264,
      "ales": 2265,
      "dout": 2266,
      "veill": 2267,
      "voulut": 2268,
      "dispos": 2269,
      "cheveux": 2270,
      "réflé": 2271,
      "maîtresse": 2272,
      "neuf": 2273,
      "All": 2274,
      "cteur": 2275,
      "mine": 2276,
      "nour": 2277,
      "ral": 2278,
      "rage": 2279,
      "dehors": 2280,
      "illon": 2281,
      "brû": 2282,
      "employ": 2283,
      "mér": 2284,
      "pierre": 2285,
      "revenir": 2286,
      "pere": 2287,
      "auté": 2288,
      "hôtel": 2289,
      "escalier": 2290,
      "Ayr": 2291,
      "LE": 2292,
      "Mole": 2293,
      "vê": 2294,
      "èvre": 2295,
      "pén": 2296,
      "attendait": 2297,
      "Ayrton": 2298,
      "Là": 2299,
      "hés": 2300,
      "ling": 2301,
      "magn": 2302,
      "sout": 2303,
      "chasse": 2304,
      "années": 2305,
      "professe": 2306,
      "auteur": 2307,
      "montr": 2308,
      "resta": 2309,
      "colère": 2310,
      "arrivée": 2311,
      "Tréville": 2312,
      "quart": 2313,
      "supéri": 2314,
      "chevaux": 2315,
      "Gran": 2316,
      "singuli": 2317,
      "chair": 2318,
      "utile": 2319,
      "voici": 2320,
      "service": 2321,
      "two": 2322,
      "hâ": 2323,
      "oeu": 2324,
      "vraiment": 2325,
      "Land": 2326,
      "ree": 2327,
      "cont": 2328,
      "combien": 2329,
      "réser": 2330,
      "ally": 2331,
      "arrivé": 2332,
      "rang": 2333,
      "word": 2334,
      "lation": 2335,
      "sie": 2336,
      "comprendre": 2337,
      "ingley": 2338,
      "pronon": 2339,
      "Bingley": 2340,
      "apres": 2341,
      "dément": 2342,
      "messieurs": 2343,
      "caract": 2344,
      "regardant": 2345,
      "ister": 2346,
      "istes": 2347,
      "illait": 2348,
      "horiz": 2349,
      "science": 2350,
      "ic": 2351,
      "ix": 2352,
      "éco": 2353,
      "ouff": 2354,
      "abs": 2355,
      "écl": 2356,
      "objet": 2357,
      "situation": 2358,
      "appuy": 2359,
      "Granite": 2360,
      "cad": 2361,
      "hy": 2362,
      "king": 2363,
      "ingoire": 2364,
      "inté": 2365,
      "contraire": 2366,
      "Gringoire": 2367,
      "étrang": 2368,
      "Tous": 2369,
      "dû": 2370,
      "deme": 2371,
      "log": 2372,
      "effray": 2373,
      "faisaient": 2374,
      "Marches": 2375,
      "Can": 2376,
      "termin": 2377,
      "cinquante": 2378,
      "prenant": 2379,
      "droite": 2380,
      "mai": 2381,
      "chance": 2382,
      "due": 2383,
      "accompagn": 2384,
      "seconde": 2385,
      "épaules": 2386,
      "Tr": 2387,
      "morte": 2388,
      "étonn": 2389,
      "grave": 2390,
      "ctions": 2391,
      "fier": 2392,
      "phe": 2393,
      "rement": 2394,
      "pouvaient": 2395,
      "misér": 2396,
      "Bennet": 2397,
      "gri": 2398,
      "gard": 2399,
      "mas": 2400,
      "reine": 2401,
      "ets": 2402,
      "diable": 2403,
      "look": 2404,
      "répét": 2405,
      "Qui": 2406,
      "ieuse": 2407,
      "canot": 2408,
      "Cam": 2409,
      "mand": 2410,
      "iné": 2411,
      "dée": 2412,
      "aines": 2413,
      "allez": 2414,
      "couvert": 2415,
      "détail": 2416,
      "seigneur": 2417,
      "proch": 2418,
      "sépar": 2419,
      "old": 2420,
      "Jus": 2421,
      "tremb": 2422,
      "passe": 2423,
      "grou": 2424,
      "expression": 2425,
      "mission": 2426,
      "professeur": 2427,
      "Jim": 2428,
      "rem": 2429,
      "déjeun": 2430,
      "proc": 2431,
      "devoir": 2432,
      "phy": 2433,
      "sable": 2434,
      "mêmes": 2435,
      "hum": 2436,
      "Gri": 2437,
      "téri": 2438,
      "aperçut": 2439,
      "distingu": 2440,
      "Jam": 2441,
      "danger": 2442,
      "tal": 2443,
      "itr": 2444,
      "stu": 2445,
      "lettres": 2446,
      "eusse": 2447,
      "Cle": 2448,
      "nt": 2449,
      "pér": 2450,
      "écou": 2451,
      "beaux": 2452,
      "genoux": 2453,
      "mourir": 2454,
      "CHAP": 2455,
      "Se": 2456,
      "nord": 2457,
      "rions": 2458,
      "hed": 2459,
      "quelles": 2460,
      "room": 2461,
      "demment": 2462,
      "France": 2463,
      "As": 2464,
      "Ver": 2465,
      "gout": 2466,
      "tâ": 2467,
      "uve": 2468,
      "épo": 2469,
      "arra": 2470,
      "about": 2471,
      "accomp": 2472,
      "moitié": 2473,
      "excell": 2474,
      "lande": 2475,
      "suiv": 2476,
      "entendait": 2477,
      "fir": 2478,
      "sante": 2479,
      "erait": 2480,
      "volu": 2481,
      "brou": 2482,
      "tenu": 2483,
      "regards": 2484,
      "entraî": 2485,
      "ick": 2486,
      "entour": 2487,
      "euses": 2488,
      "poitr": 2489,
      "voyez": 2490,
      "immense": 2491,
      "magnifi": 2492,
      "Pas": 2493,
      "fon": 2494,
      "pan": 2495,
      "abbé": 2496,
      "coin": 2497,
      "soup": 2498,
      "circonst": 2499,
      "DE": 2500,
      "dèle": 2501,
      "hé": 2502,
      "enfer": 2503,
      "moindre": 2504,
      "clu": 2505,
      "dr": 2506,
      "dessous": 2507,
      "instru": 2508,
      "Mer": 2509,
      "dain": 2510,
      "iques": 2511,
      "sés": 2512,
      "armes": 2513,
      "nement": 2514,
      "prépar": 2515,
      "ace": 2516,
      "fol": 2517,
      "pont": 2518,
      "intel": 2519,
      "pose": 2520,
      "lette": 2521,
      "morce": 2522,
      "déclar": 2523,
      "parfaitement": 2524,
      "00": 2525,
      "Hé": 2526,
      "doc": 2527,
      "spect": 2528,
      "led": 2529,
      "pensa": 2530,
      "laissé": 2531,
      "répondis": 2532,
      "should": 2533,
      "certainement": 2534,
      "tir": 2535,
      "veut": 2536,
      "viv": 2537,
      "disc": 2538,
      "rapport": 2539,
      "faud": 2540,
      "icul": 2541,
      "ng": 2542,
      "éte": 2543,
      "ast": 2544,
      "serais": 2545,
      "soin": 2546,
      "autrefois": 2547,
      "clas": 2548,
      "jest": 2549,
      "pouvez": 2550,
      "affaires": 2551,
      "importe": 2552,
      "icile": 2553,
      "fâ": 2554,
      "eté": 2555,
      "never": 2556,
      "ings": 2557,
      "laissa": 2558,
      "opin": 2559,
      "nouvelles": 2560,
      "ili": 2561,
      "enfon": 2562,
      "ness": 2563,
      "demandai": 2564,
      "commença": 2565,
      "quarante": 2566,
      "demoiselle": 2567,
      "Fel": 2568,
      "équi": 2569,
      "revint": 2570,
      "nez": 2571,
      "libre": 2572,
      "peau": 2573,
      "écut": 2574,
      "champ": 2575,
      "eyes": 2576,
      "Hen": 2577,
      "repris": 2578,
      "interrom": 2579,
      "entendit": 2580,
      "Felton": 2581,
      "Don": 2582,
      "Mes": 2583,
      "Main": 2584,
      "destin": 2585,
      "double": 2586,
      "pareil": 2587,
      "lés": 2588,
      "épouv": 2589,
      "aura": 2590,
      "pê": 2591,
      "tete": 2592,
      "um": 2593,
      "lamp": 2594,
      "med": 2595,
      "sold": 2596,
      "ferme": 2597,
      "down": 2598,
      "goût": 2599,
      "Mont": 2600,
      "honn": 2601,
      "usement": 2602,
      "ileas": 2603,
      "Phileas": 2604,
      "Toute": 2605,
      "Clelia": 2606,
      "Maintenant": 2607,
      "noire": 2608,
      "then": 2609,
      "grav": 2610,
      "before": 2611,
      "secou": 2612,
      "rapidement": 2613,
      "ha": 2614,
      "ina": 2615,
      "servir": 2616,
      "premiers": 2617,
      "facile": 2618,
      "véritable": 2619,
      "cité": 2620,
      "époque": 2621,
      "mag": 2622,
      "princi": 2623,
      "poitrine": 2624,
      "But": 2625,
      "bot": 2626,
      "invit": 2627,
      "espoir": 2628,
      "commençait": 2629,
      "ignor": 2630,
      "blanc": 2631,
      "animal": 2632,
      "longues": 2633,
      "gentle": 2634,
      "intérieur": 2635,
      "Ou": 2636,
      "ref": 2637,
      "entr": 2638,
      "convi": 2639,
      "compris": 2640,
      "onnement": 2641,
      "horizon": 2642,
      "fal": 2643,
      "aigu": 2644,
      "ouis": 2645,
      "lau": 2646,
      "oires": 2647,
      "life": 2648,
      "robe": 2649,
      "suivit": 2650,
      "idées": 2651,
      "bâti": 2652,
      "volont": 2653,
      "George": 2654,
      "hal": 2655,
      "acre": 2656,
      "polit": 2657,
      "trouvai": 2658,
      "justice": 2659,
      "came": 2660,
      "étude": 2661,
      "bateau": 2662,
      "âtre": 2663,
      "auprès": 2664,
      "noy": 2665,
      "Quoi": 2666,
      "fav": 2667,
      "lentement": 2668,
      "vap": 2669,
      "vaise": 2670,
      "deau": 2671,
      "songe": 2672,
      "allons": 2673,
      "charm": 2674,
      "young": 2675,
      "Notre": 2676,
      "Holmes": 2677,
      "enci": 2678,
      "intér": 2679,
      "charge": 2680,
      "observ": 2681,
      "déjeuner": 2682,
      "Bo": 2683,
      "surpris": 2684,
      "dieu": 2685,
      "capable": 2686,
      "habitude": 2687,
      "campagne": 2688,
      "must": 2689,
      "archi": 2690,
      "reconnaître": 2691,
      "Rien": 2692,
      "faim": 2693,
      "asi": 2694,
      "fris": 2695,
      "emple": 2696,
      "quoique": 2697,
      "gan": 2698,
      "hauteur": 2699,
      "again": 2700,
      "profon": 2701,
      "bile": 2702,
      "difficile": 2703,
      "agréable": 2704,
      "murmura": 2705,
      "Li": 2706,
      "bons": 2707,
      "ève": 2708,
      "once": 2709,
      "eral": 2710,
      "iner": 2711,
      "coucher": 2712,
      "brave": 2713,
      "bleu": 2714,
      "sortit": 2715,
      "........": 2716,
      "ned": 2717,
      "direction": 2718,
      "habitu": 2719,
      "oreille": 2720,
      "Depuis": 2721,
      "grosse": 2722,
      "first": 2723,
      "Moi": 2724,
      "did": 2725,
      "loge": 2726,
      "répli": 2727,
      "eussent": 2728,
      "ITRE": 2729,
      "CHAPITRE": 2730,
      "This": 2731,
      "well": 2732,
      "âge": 2733,
      "écrit": 2734,
      "Camille": 2735,
      "Fix": 2736,
      "Gen": 2737,
      "Mad": 2738,
      "iti": 2739,
      "rées": 2740,
      "allée": 2741,
      "sauv": 2742,
      "instants": 2743,
      "sentiments": 2744,
      "sult": 2745,
      "thought": 2746,
      "Allons": 2747,
      "font": 2748,
      "remar": 2749,
      "lac": 2750,
      "prêtre": 2751,
      "ligne": 2752,
      "make": 2753,
      "brill": 2754,
      "courir": 2755,
      "lées": 2756,
      "malade": 2757,
      "aimer": 2758,
      "ouvrir": 2759,
      "profond": 2760,
      "nécessaire": 2761,
      "Où": 2762,
      "pût": 2763,
      "degré": 2764,
      "devaient": 2765,
      "quelquefois": 2766,
      "jeter": 2767,
      "descendre": 2768,
      "Deux": 2769,
      "ûmes": 2770,
      "cesse": 2771,
      "crut": 2772,
      "allon": 2773,
      "sentit": 2774,
      "jambes": 2775,
      "Bien": 2776,
      "Pierre": 2777,
      "viens": 2778,
      "entrée": 2779,
      "fraî": 2780,
      "visite": 2781,
      "joy": 2782,
      "parle": 2783,
      "contemp": 2784,
      "méri": 2785,
      "pièce": 2786,
      "Fran": 2787,
      "considér": 2788,
      "Bes": 2789,
      "fant": 2790,
      "serv": 2791,
      "tique": 2792,
      "faits": 2793,
      "pensées": 2794,
      "compagnie": 2795,
      "difficul": 2796,
      "Lord": 2797,
      "pav": 2798,
      "ran": 2799,
      "orgue": 2800,
      "étendu": 2801,
      "consé": 2802,
      "petites": 2803,
      "Peut": 2804,
      "You": 2805,
      "déser": 2806,
      "apport": 2807,
      "motion": 2808,
      "doux": 2809,
      "espèce": 2810,
      "clair": 2811,
      "dois": 2812,
      "mbre": 2813,
      "tur": 2814,
      "évé": 2815,
      "inconnu": 2816,
      "cture": 2817,
      "douleur": 2818,
      "connaître": 2819,
      "souri": 2820,
      "brusquement": 2821,
      "pier": 2822,
      "laissait": 2823,
      "arrivait": 2824,
      "épous": 2825,
      "silenci": 2826,
      "dra": 2827,
      "foi": 2828,
      "auraient": 2829,
      "prêt": 2830,
      "passant": 2831,
      "vide": 2832,
      "suppli": 2833,
      "aimait": 2834,
      "réflex": 2835,
      "Bu": 2836,
      "pleur": 2837,
      "sen": 2838,
      "ste": 2839,
      "çaient": 2840,
      "chaise": 2841,
      "rivage": 2842,
      "récit": 2843,
      "vier": 2844,
      "exprim": 2845,
      "tress": 2846,
      "pensait": 2847,
      "arrêt": 2848,
      "Parma": 2849,
      "good": 2850,
      "marquis": 2851,
      "papier": 2852,
      "Car": 2853,
      "get": 2854,
      "repro": 2855,
      "offr": 2856,
      "chement": 2857,
      "embarras": 2858,
      "tuer": 2859,
      "Quelle": 2860,
      "communi": 2861,
      "crainte": 2862,
      "reçu": 2863,
      "chapeau": 2864,
      "!…": 2865,
      "ja": 2866,
      "cho": 2867,
      "resse": 2868,
      "gris": 2869,
      "soli": 2870,
      "noble": 2871,
      "friend": 2872,
      "dure": 2873,
      "éclat": 2874,
      "complè": 2875,
      "accus": 2876,
      "jolie": 2877,
      "jau": 2878,
      "année": 2879,
      "celles": 2880,
      "ours": 2881,
      "may": 2882,
      "provis": 2883,
      "corde": 2884,
      "abandonn": 2885,
      "vaste": 2886,
      "camarades": 2887,
      "Jamais": 2888,
      "page": 2889,
      "envie": 2890,
      "méde": 2891,
      "fil": 2892,
      "repos": 2893,
      "incl": 2894,
      "mere": 2895,
      "like": 2896,
      "bru": 2897,
      "obst": 2898,
      "caractère": 2899,
      "fle": 2900,
      "gou": 2901,
      "ramen": 2902,
      "çai": 2903,
      "remon": 2904,
      "semaine": 2905,
      "plant": 2906,
      "épaule": 2907,
      "château": 2908,
      "pisto": 2909,
      "éclair": 2910,
      "saut": 2911,
      "retrouver": 2912,
      "order": 2913,
      "three": 2914,
      "take": 2915,
      "And": 2916,
      "mètres": 2917,
      "société": 2918,
      "cles": 2919,
      "caus": 2920,
      "hait": 2921,
      "pai": 2922,
      "ettes": 2923,
      "craign": 2924,
      "sentir": 2925,
      "prenez": 2926,
      "commence": 2927,
      "blanche": 2928,
      "ori": 2929,
      "ceci": 2930,
      "trac": 2931,
      "lions": 2932,
      "mach": 2933,
      "pointe": 2934,
      "allaient": 2935,
      "fice": 2936,
      "ferait": 2937,
      "geste": 2938,
      "condition": 2939,
      "ières": 2940,
      "less": 2941,
      "ates": 2942,
      "appris": 2943,
      "pluie": 2944,
      "mauvaise": 2945,
      "absolument": 2946,
      "tom": 2947,
      "isse": 2948,
      "parlé": 2949,
      "disant": 2950,
      "uel": 2951,
      "inst": 2952,
      "venus": 2953,
      "crime": 2954,
      "give": 2955,
      "plaisant": 2956,
      "docteur": 2957,
      "super": 2958,
      "doub": 2959,
      "voie": 2960,
      "moments": 2961,
      "gentil": 2962,
      "suffis": 2963,
      "vague": 2964,
      "han": 2965,
      "étouff": 2966,
      "conse": 2967,
      "osité": 2968,
      "ueil": 2969,
      "erai": 2970,
      "isit": 2971,
      "modo": 2972,
      "embras": 2973,
      "soupir": 2974,
      "affir": 2975,
      "retourner": 2976,
      "battre": 2977,
      "gale": 2978,
      "jal": 2979,
      "tés": 2980,
      "œil": 2981,
      "enez": 2982,
      "chas": 2983,
      "love": 2984,
      "gnes": 2985,
      "Quasi": 2986,
      "affection": 2987,
      "Quasimodo": 2988,
      "det": 2989,
      "arre": 2990,
      "dus": 2991,
      "réun": 2992,
      "coln": 2993,
      "Madame": 2994,
      "Lin": 2995,
      "ON": 2996,
      "estique": 2997,
      "terr": 2998,
      "jusque": 2999,
      "malheureux": 3000,
      "domestique": 3001,
      "field": 3002,
      "hésit": 3003,
      "jesté": 3004,
      "Voi": 3005,
      "quette": 3006,
      "paravant": 3007,
      "rive": 3008,
      "endor": 3009,
      "mesure": 3010,
      "frapp": 3011,
      "dames": 3012,
      "Lorsque": 3013,
      "Al": 3014,
      "loir": 3015,
      "entes": 3016,
      "under": 3017,
      "lune": 3018,
      "liber": 3019,
      "suivi": 3020,
      "plain": 3021,
      "tomba": 3022,
      "lieues": 3023,
      "précis": 3024,
      "demeure": 3025,
      "Lincoln": 3026,
      "Voy": 3027,
      "fér": 3028,
      "village": 3029,
      "lique": 3030,
      "amant": 3031,
      "irai": 3032,
      "vière": 3033,
      "extra": 3034,
      "posa": 3035,
      "écu": 3036,
      "genre": 3037,
      "hiver": 3038,
      "Quelques": 3039,
      "obscurité": 3040,
      "énorme": 3041,
      "Mil": 3042,
      "fel": 3043,
      "new": 3044,
      "auparavant": 3045,
      "conven": 3046,
      "comprend": 3047,
      "pourrais": 3048,
      "poche": 3049,
      "forte": 3050,
      "devint": 3051,
      "found": 3052,
      "Canad": 3053,
      "quais": 3054,
      "lire": 3055,
      "retomb": 3056,
      "ilement": 3057,
      "aving": 3058,
      "head": 3059,
      "exécut": 3060,
      "belles": 3061,
      "moire": 3062,
      "posé": 3063,
      "cule": 3064,
      "épée": 3065,
      "horrible": 3066,
      "semblable": 3067,
      "intéres": 3068,
      "Col": 3069,
      "ah": 3070,
      "ks": 3071,
      "where": 3072,
      "chois": 3073,
      "amou": 3074,
      "soy": 3075,
      "police": 3076,
      "tantôt": 3077,
      "appelle": 3078,
      "trouble": 3079,
      "ouverte": 3080,
      "sûre": 3081,
      "doucement": 3082,
      "opinion": 3083,
      "flots": 3084,
      "gai": 3085,
      "pom": 3086,
      "zo": 3087,
      "éton": 3088,
      "oix": 3089,
      "allé": 3090,
      "souhait": 3091,
      "connaissance": 3092,
      "animaux": 3093,
      "sommeil": 3094,
      "naient": 3095,
      "vil": 3096,
      "êts": 3097,
      "levant": 3098,
      "aug": 3099,
      "oss": 3100,
      "obé": 3101,
      "without": 3102,
      "prix": 3103,
      "recevoir": 3104,
      "went": 3105,
      "frap": 3106,
      "mena": 3107,
      "mul": 3108,
      "curi": 3109,
      "honte": 3110,
      "aventure": 3111,
      "empêcher": 3112,
      "Co": 3113,
      "XX": 3114,
      "hier": 3115,
      "erte": 3116,
      "lage": 3117,
      "atten": 3118,
      "ries": 3119,
      "acte": 3120,
      "traits": 3121,
      "faction": 3122,
      "tellement": 3123,
      "croyait": 3124,
      "hap": 3125,
      "pelle": 3126,
      "éclai": 3127,
      "Cet": 3128,
      "rav": 3129,
      "ind": 3130,
      "riche": 3131,
      "verre": 3132,
      "immédi": 3133,
      "mépris": 3134,
      "herself": 3135,
      "déja": 3136,
      "poussa": 3137,
      "simplement": 3138,
      "observer": 3139,
      "Canadien": 3140,
      "EN": 3141,
      "ige": 3142,
      "taient": 3143,
      "wom": 3144,
      "remer": 3145,
      "beauté": 3146,
      "guère": 3147,
      "douze": 3148,
      "voulais": 3149,
      "voyag": 3150,
      "beso": 3151,
      "soix": 3152,
      "disparu": 3153,
      "intérêt": 3154,
      "ep": 3155,
      "join": 3156,
      "aque": 3157,
      "fat": 3158,
      "tante": 3159,
      "Top": 3160,
      "rivière": 3161,
      "comte": 3162,
      "écar": 3163,
      "roug": 3164,
      "garder": 3165,
      "écrire": 3166,
      "going": 3167,
      "gagner": 3168,
      "immobile": 3169,
      "Plan": 3170,
      "Wick": 3171,
      "gl": 3172,
      "istre": 3173,
      "dissi": 3174,
      "fenêtres": 3175,
      "spectacle": 3176,
      "Wickham": 3177,
      "sto": 3178,
      "èces": 3179,
      "read": 3180,
      "gram": 3181,
      "tient": 3182,
      "ferm": 3183,
      "own": 3184,
      "What": 3185,
      "voudrais": 3186,
      "doigts": 3187,
      "ian": 3188,
      "ides": 3189,
      "pon": 3190,
      "unique": 3191,
      "paraît": 3192,
      "serai": 3193,
      "courut": 3194,
      "plateau": 3195,
      "semblaient": 3196,
      "bourge": 3197,
      "Fer": 3198,
      "Louis": 3199,
      "happ": 3200,
      "poign": 3201,
      "intention": 3202,
      "might": 3203,
      "ancien": 3204,
      "compagnon": 3205,
      "uil": 3206,
      "ary": 3207,
      "auquel": 3208,
      "dia": 3209,
      "bro": 3210,
      "course": 3211,
      "arrêter": 3212,
      "III": 3213,
      "détails": 3214,
      "follow": 3215,
      "liberté": 3216,
      "soixante": 3217,
      "Dé": 3218,
      "ye": 3219,
      "erie": 3220,
      "iennent": 3221,
      "mid": 3222,
      "chaleur": 3223,
      "soirée": 3224,
      "conduite": 3225,
      "fourn": 3226,
      "gentilhomme": 3227,
      "Planchet": 3228,
      "ront": 3229,
      "envelop": 3230,
      "aide": 3231,
      "arch": 3232,
      "avenir": 3233,
      "tro": 3234,
      "persu": 3235,
      "jeté": 3236,
      "mys": 3237,
      "transport": 3238,
      "apprendre": 3239,
      "diacre": 3240,
      "heart": 3241,
      "bonnes": 3242,
      "18": 3243,
      "Per": 3244,
      "So": 3245,
      "tar": 3246,
      "éb": 3247,
      "lies": 3248,
      "merveille": 3249,
      "boutique": 3250,
      "cli": 3251,
      "cés": 3252,
      "ft": 3253,
      "fine": 3254,
      "poi": 3255,
      "remu": 3256,
      "soeur": 3257,
      "couleur": 3258,
      "quitté": 3259,
      "pitié": 3260,
      "montrer": 3261,
      "fallut": 3262,
      "frisson": 3263,
      "répliqua": 3264,
      "firent": 3265,
      "hou": 3266,
      "pur": 3267,
      "sab": 3268,
      "chaient": 3269,
      "avanc": 3270,
      "aviez": 3271,
      "régu": 3272,
      "saw": 3273,
      "terres": 3274,
      "mante": 3275,
      "marcher": 3276,
      "ated": 3277,
      "échelle": 3278,
      "riere": 3279,
      "prudence": 3280,
      "vor": 3281,
      "épar": 3282,
      "œbus": 3283,
      "itions": 3284,
      "veau": 3285,
      "portes": 3286,
      "gardes": 3287,
      "vul": 3288,
      "vaisseau": 3289,
      "entendis": 3290,
      "pareille": 3291,
      "engage": 3292,
      "Phœbus": 3293,
      "bourgeois": 3294,
      "!...": 3295,
      "Rou": 3296,
      "She": 3297,
      "sive": 3298,
      "--«": 3299,
      "solit": 3300,
      "archidiacre": 3301,
      "Elles": 3302,
      "Lu": 3303,
      "back": 3304,
      "lun": 3305,
      "ences": 3306,
      "représent": 3307,
      "sot": 3308,
      "impression": 3309,
      "maines": 3310,
      "mers": 3311,
      "illard": 3312,
      "charbon": 3313,
      "imagination": 3314,
      "vary": 3315,
      "gentleman": 3316,
      "Bovary": 3317,
      "aveu": 3318,
      "attr": 3319,
      "took": 3320,
      "souper": 3321,
      "malheureuse": 3322,
      "fussent": 3323,
      "Sign": 3324,
      "horreur": 3325,
      "troub": 3326,
      "approcha": 3327,
      "général": 3328,
      "),": 3329,
      "nés": 3330,
      "onze": 3331,
      "riers": 3332,
      "convain": 3333,
      "manque": 3334,
      "blement": 3335,
      "allais": 3336,
      "aspect": 3337,
      "airement": 3338,
      "venez": 3339,
      "peuple": 3340,
      "mières": 3341,
      "humeur": 3342,
      "guerre": 3343,
      "gie": 3344,
      "poir": 3345,
      "set": 3346,
      "del": 3347,
      "era": 3348,
      "issaient": 3349,
      "attendant": 3350,
      "cking": 3351,
      "cheminée": 3352,
      "écras": 3353,
      "misérable": 3354,
      "vête": 3355,
      "levé": 3356,
      "inet": 3357,
      "ther": 3358,
      "rières": 3359,
      "cident": 3360,
      "corral": 3361,
      "boute": 3362,
      "demandait": 3363,
      "échapp": 3364,
      "échapper": 3365,
      "lations": 3366,
      "General": 3367,
      "Signor": 3368,
      "Rod": 3369,
      "ouest": 3370,
      "inutile": 3371,
      "chés": 3372,
      "thin": 3373,
      "agr": 3374,
      "chers": 3375,
      "letter": 3376,
      "ateur": 3377,
      "promis": 3378,
      "oreilles": 3379,
      "hôte": 3380,
      "gée": 3381,
      "loi": 3382,
      "sage": 3383,
      "émotion": 3384,
      "amus": 3385,
      "such": 3386,
      "nothing": 3387,
      "tenaient": 3388,
      "voile": 3389,
      "vitesse": 3390,
      "Majesté": 3391,
      "bourg": 3392,
      "conduire": 3393,
      "tranquillement": 3394,
      "Voici": 3395,
      "Océ": 3396,
      "bête": 3397,
      "fre": 3398,
      "hun": 3399,
      "murs": 3400,
      "ope": 3401,
      "pil": 3402,
      "zaine": 3403,
      "orable": 3404,
      "maisons": 3405,
      "roches": 3406,
      "troisième": 3407,
      "personnes": 3408,
      "élev": 3409,
      "officier": 3410,
      "désespoir": 3411,
      "ious": 3412,
      "ots": 3413,
      "sique": 3414,
      "songer": 3415,
      "seraient": 3416,
      "being": 3417,
      "finit": 3418,
      "rues": 3419,
      "public": 3420,
      "accepter": 3421,
      "immédiate": 3422,
      "Ber": 3423,
      "Hom": 3424,
      "bilité": 3425,
      "évit": 3426,
      "ense": 3427,
      "aver": 3428,
      "alais": 3429,
      "dég": 3430,
      "venant": 3431,
      "questions": 3432,
      "entièrement": 3433,
      "Océan": 3434,
      "fau": 3435,
      "reau": 3436,
      "cel": 3437,
      "riches": 3438,
      "condam": 3439,
      "terri": 3440,
      "compli": 3441,
      "commencer": 3442,
      "honnête": 3443,
      "dan": 3444,
      "lins": 3445,
      "nau": 3446,
      "tab": 3447,
      "ene": 3448,
      "devenait": 3449,
      "commo": 3450,
      "salu": 3451,
      "digne": 3452,
      "humi": 3453,
      "ombres": 3454,
      "pauvres": 3455,
      "Che": 3456,
      "Seu": 3457,
      "cis": 3458,
      "lante": 3459,
      "ypt": 3460,
      "levait": 3461,
      "devenu": 3462,
      "tiré": 3463,
      "puisqu": 3464,
      "cts": 3465,
      "arrive": 3466,
      "longs": 3467,
      "créature": 3468,
      "cuisine": 3469,
      "pant": 3470,
      "éner": 3471,
      "rev": 3472,
      "parfois": 3473,
      "conso": 3474,
      "dier": 3475,
      "too": 3476,
      "possé": 3477,
      "minence": 3478,
      "soudain": 3479,
      "speak": 3480,
      "Lé": 3481,
      "secours": 3482,
      "avance": 3483,
      "exemple": 3484,
      "espère": 3485,
      "épouvant": 3486,
      "profondément": 3487,
      "orgueil": 3488,
      "ER": 3489,
      "line": 3490,
      "quite": 3491,
      "arde": 3492,
      "itre": 3493,
      "tristes": 3494,
      "abond": 3495,
      "peuvent": 3496,
      "mélan": 3497,
      "muraille": 3498,
      "détour": 3499,
      "pénét": 3500,
      "Ave": 3501,
      "malad": 3502,
      "find": 3503,
      "rough": 3504,
      "écriai": 3505,
      "suivait": 3506,
      "souffr": 3507,
      "achet": 3508,
      "oublié": 3509,
      "oublier": 3510,
      "noirs": 3511,
      "If": 3512,
      "XI": 3513,
      "bag": 3514,
      "sein": 3515,
      "serez": 3516,
      "conser": 3517,
      "vert": 3518,
      "puisse": 3519,
      "attent": 3520,
      "connaissait": 3521,
      "aperçus": 3522,
      "tapis": 3523,
      "mousquetaires": 3524,
      "repas": 3525,
      "lueur": 3526,
      "light": 3527,
      "ands": 3528,
      "compter": 3529,
      "interro": 3530,
      "constru": 3531,
      "évidemment": 3532,
      "intellig": 3533,
      "lampe": 3534,
      "OU": 3535,
      "rec": 3536,
      "reprendre": 3537,
      "left": 3538,
      "last": 3539,
      "sonne": 3540,
      "laissant": 3541,
      "partit": 3542,
      "mâ": 3543,
      "tas": 3544,
      "revoir": 3545,
      "chaus": 3546,
      "paraître": 3547,
      "manquer": 3548,
      "ordres": 3549,
      "prisonn": 3550,
      "voyais": 3551,
      "oland": 3552,
      "parer": 3553,
      "assass": 3554,
      "épaisse": 3555,
      "influ": 3556,
      "offici": 3557,
      "Roland": 3558,
      "ken": 3559,
      "tim": 3560,
      "recher": 3561,
      "relig": 3562,
      "selon": 3563,
      "anglais": 3564,
      "triom": 3565,
      "causer": 3566,
      "efforts": 3567,
      "médecin": 3568,
      "Ra": 3569,
      "quaient": 3570,
      "iser": 3571,
      "chang": 3572,
      "amie": 3573,
      "oyer": 3574,
      "terreur": 3575,
      "décidé": 3576,
      "langue": 3577,
      "Avec": 3578,
      "boire": 3579,
      "mademoiselle": 3580,
      "manquait": 3581,
      "trouvaient": 3582,
      "night": 3583,
      "Lydia": 3584,
      "humaine": 3585,
      "Dame": 3586,
      "tendre": 3587,
      "tourna": 3588,
      "berge": 3589,
      "LA": 3590,
      "drap": 3591,
      "masse": 3592,
      "évê": 3593,
      "agissait": 3594,
      "abatt": 3595,
      "still": 3596,
      "sentais": 3597,
      "appelait": 3598,
      "continuait": 3599,
      "voisin": 3600,
      "élec": 3601,
      "violence": 3602,
      "Val": 3603,
      "cav": 3604,
      "haus": 3605,
      "ventre": 3606,
      "memb": 3607,
      "same": 3608,
      "colle": 3609,
      "minute": 3610,
      "confiance": 3611,
      "Verrières": 3612,
      "fosse": 3613,
      "nat": 3614,
      "win": 3615,
      "ason": 3616,
      "parents": 3617,
      "exer": 3618,
      "ération": 3619,
      "pendu": 3620,
      "ople": 3621,
      "ock": 3622,
      "tournant": 3623,
      "phil": 3624,
      "oeuvre": 3625,
      "bâtiment": 3626,
      "Mal": 3627,
      "cations": 3628,
      "ive": 3629,
      "ting": 3630,
      "remettre": 3631,
      "etc": 3632,
      "assu": 3633,
      "omie": 3634,
      "sacri": 3635,
      "ureur": 3636,
      "courait": 3637,
      "péni": 3638,
      "également": 3639,
      "fusil": 3640,
      "sauver": 3641,
      "lutte": 3642,
      "accord": 3643,
      "promenade": 3644,
      "though": 3645,
      "fatigu": 3646,
      "morceau": 3647,
      "away": 3648,
      "bande": 3649,
      "glo": 3650,
      "ip": 3651,
      "idité": 3652,
      "lons": 3653,
      "name": 3654,
      "édi": 3655,
      "tex": 3656,
      "parlant": 3657,
      "dut": 3658,
      "rédu": 3659,
      "accro": 3660,
      "touts": 3661,
      "forces": 3662,
      "carri": 3663,
      "asseoir": 3664,
      "visit": 3665,
      "There": 3666,
      "seuls": 3667,
      "naturel": 3668,
      "adresse": 3669,
      "désespé": 3670,
      "absence": 3671,
      "fleurs": 3672,
      "wer": 3673,
      "enou": 3674,
      "chaî": 3675,
      "sier": 3676,
      "siff": 3677,
      "mate": 3678,
      "illet": 3679,
      "gner": 3680,
      "angl": 3681,
      "preuve": 3682,
      "redout": 3683,
      "horse": 3684,
      "vinrent": 3685,
      "evening": 3686,
      "Mou": 3687,
      "cos": 3688,
      "prie": 3689,
      "étonnement": 3690,
      "through": 3691,
      "agon": 3692,
      "rase": 3693,
      "longer": 3694,
      "épais": 3695,
      "phère": 3696,
      "promet": 3697,
      "appeler": 3698,
      "retourna": 3699,
      "folle": 3700,
      "Maheude": 3701,
      "équipage": 3702,
      "immédiatement": 3703,
      "Gu": 3704,
      "blo": 3705,
      "flan": 3706,
      "élè": 3707,
      "recommand": 3708,
      "devenir": 3709,
      "arme": 3710,
      "lay": 3711,
      "nements": 3712,
      "try": 3713,
      "those": 3714,
      "oiseaux": 3715,
      "vive": 3716,
      "derriere": 3717,
      "gueur": 3718,
      "tourner": 3719,
      "few": 3720,
      "veiller": 3721,
      "croyez": 3722,
      "sinc": 3723,
      "poids": 3724,
      "ctement": 3725,
      "jure": 3726,
      "trem": 3727,
      "rappelle": 3728,
      "inquiétude": 3729,
      "faible": 3730,
      "Pro": 3731,
      "achar": 3732,
      "élé": 3733,
      "erville": 3734,
      "incess": 3735,
      "prouver": 3736,
      "ged": 3737,
      "pot": 3738,
      "manteau": 3739,
      "resté": 3740,
      "égypt": 3741,
      "Comp": 3742,
      "descendit": 3743,
      "école": 3744,
      "Bucking": 3745,
      "naufr": 3746,
      "Raquin": 3747,
      "Buckingham": 3748,
      "semaines": 3749,
      "sir": 3750,
      "ainte": 3751,
      "excep": 3752,
      "former": 3753,
      "forêt": 3754,
      "angle": 3755,
      "justement": 3756,
      "obtenir": 3757,
      "impat": 3758,
      "traite": 3759,
      "perdue": 3760,
      "Henry": 3761,
      "pierres": 3762,
      "Collins": 3763,
      "gorge": 3764,
      "pais": 3765,
      "Éminence": 3766,
      "élég": 3767,
      "indiffér": 3768,
      "ires": 3769,
      "montait": 3770,
      "rappro": 3771,
      "scène": 3772,
      "croyais": 3773,
      "montagne": 3774,
      "gouvern": 3775,
      "cadav": 3776,
      "soyez": 3777,
      "Winter": 3778,
      "fabri": 3779,
      "aimé": 3780,
      "quée": 3781,
      "conscience": 3782,
      "servit": 3783,
      "bel": 3784,
      "pers": 3785,
      "mange": 3786,
      "cherchait": 3787,
      "endredi": 3788,
      "illons": 3789,
      "empe": 3790,
      "payer": 3791,
      "signal": 3792,
      "derniers": 3793,
      "volonté": 3794,
      "apercevoir": 3795,
      "asked": 3796,
      "circonstances": 3797,
      "aveug": 3798,
      "Min": 3799,
      "ote": 3800,
      "pte": 3801,
      "tais": 3802,
      "etty": 3803,
      "atmos": 3804,
      "parla": 3805,
      "osop": 3806,
      "Jehan": 3807,
      "marchait": 3808,
      "plai": 3809,
      "extrém": 3810,
      "days": 3811,
      "persua": 3812,
      "extrémité": 3813,
      "Ex": 3814,
      "Plus": 3815,
      "recu": 3816,
      "étroit": 3817,
      "instin": 3818,
      "répétait": 3819,
      "gnait": 3820,
      "poste": 3821,
      "portion": 3822,
      "mind": 3823,
      "ainement": 3824,
      "plate": 3825,
      "paquet": 3826,
      "jouer": 3827,
      "galerie": 3828,
      "Nap": 3829,
      "dant": 3830,
      "fave": 3831,
      "how": 3832,
      "épi": 3833,
      "delà": 3834,
      "ertes": 3835,
      "lesquels": 3836,
      "réve": 3837,
      "amb": 3838,
      "puissant": 3839,
      "témoi": 3840,
      "obje": 3841,
      "Monseigneur": 3842,
      "particuli": 3843,
      "membres": 3844,
      "philosop": 3845,
      "joign": 3846,
      "nais": 3847,
      "ood": 3848,
      "plo": 3849,
      "test": 3850,
      "whom": 3851,
      "aly": 3852,
      "résult": 3853,
      "usage": 3854,
      "mées": 3855,
      "mémoire": 3856,
      "fera": 3857,
      "toutefois": 3858,
      "santé": 3859,
      "lotte": 3860,
      "toile": 3861,
      "intelligence": 3862,
      "Améri": 3863,
      "Po": 3864,
      "nor": 3865,
      "anx": 3866,
      "illi": 3867,
      "neaux": 3868,
      "chis": 3869,
      "meu": 3870,
      "dition": 3871,
      "vivant": 3872,
      "tué": 3873,
      "ateurs": 3874,
      "froide": 3875,
      "craindre": 3876,
      "répéta": 3877,
      "woman": 3878,
      "Hans": 3879,
      "ever": 3880,
      "rac": 3881,
      "vet": 3882,
      "œu": 3883,
      "outre": 3884,
      "arbre": 3885,
      "étiez": 3886,
      "irrit": 3887,
      "disposition": 3888,
      "frais": 3889,
      "race": 3890,
      "rentrer": 3891,
      "laisse": 3892,
      "chargé": 3893,
      "fumée": 3894,
      "certains": 3895,
      "précaut": 3896,
      "satisfaction": 3897,
      "faibles": 3898,
      "extraordinaire": 3899,
      "vêtements": 3900,
      "Homais": 3901,
      "influence": 3902,
      "Vers": 3903,
      "peux": 3904,
      "pente": 3905,
      "envers": 3906,
      "arti": 3907,
      "chère": 3908,
      "congé": 3909,
      "agir": 3910,
      "explo": 3911,
      "pul": 3912,
      "cares": 3913,
      "ords": 3914,
      "retur": 3915,
      "premières": 3916,
      "rouges": 3917,
      "étranger": 3918,
      "expliquer": 3919,
      "ways": 3920,
      "conditions": 3921,
      "hypo": 3922,
      "AN": 3923,
      "Clau": 3924,
      "gin": 3925,
      "haine": 3926,
      "nou": 3927,
      "quis": 3928,
      "ater": 3929,
      "conclu": 3930,
      "ouvriers": 3931,
      "vertu": 3932,
      "léger": 3933,
      "nég": 3934,
      "curé": 3935,
      "iness": 3936,
      "facilement": 3937,
      "découvrir": 3938,
      "écouter": 3939,
      "atteindre": 3940,
      "probable": 3941,
      "colonel": 3942,
      "physion": 3943,
      "Sau": 3944,
      "fas": 3945,
      "neau": 3946,
      "chagr": 3947,
      "éter": 3948,
      "dessin": 3949,
      "combat": 3950,
      "montra": 3951,
      "acti": 3952,
      "puits": 3953,
      "cacher": 3954,
      "grosses": 3955,
      "envoyer": 3956,
      "siècle": 3957,
      "Marchesa": 3958,
      "étonné": 3959,
      "Compagn": 3960,
      "Eur": 3961,
      "San": 3962,
      "band": 3963,
      "ivre": 3964,
      "til": 3965,
      "enter": 3966,
      "comman": 3967,
      "montagn": 3968,
      "propri": 3969,
      "just": 3970,
      "souffle": 3971,
      "occupé": 3972,
      "semblables": 3973,
      "écoutait": 3974,
      "succes": 3975,
      "profondeur": 3976,
      "Claude": 3977,
      "Souv": 3978,
      "arer": 3979,
      "côt": 3980,
      "nette": 3981,
      "rois": 3982,
      "évan": 3983,
      "….": 3984,
      "cile": 3985,
      "permet": 3986,
      "oblig": 3987,
      "raisonn": 3988,
      "café": 3989,
      "rendez": 3990,
      "poussait": 3991,
      "galop": 3992,
      "symp": 3993,
      "tombe": 3994,
      "cte": 3995,
      "hale": 3996,
      "lèrent": 3997,
      "nie": 3998,
      "pée": 3999,
      "anmoins": 4000,
      "quai": 4001,
      "chai": 4002,
      "débar": 4003,
      "manche": 4004,
      "tempér": 4005,
      "doulou": 4006,
      "illée": 4007,
      "sommet": 4008,
      "déter": 4009,
      "rayons": 4010,
      "doigt": 4011,
      "soldats": 4012,
      "Toutefois": 4013,
      "curiosité": 4014,
      "joindre": 4015,
      "Bi": 4016,
      "ppe": 4017,
      "aurez": 4018,
      "prin": 4019,
      "ridi": 4020,
      "toit": 4021,
      "told": 4022,
      "prodi": 4023,
      "rendu": 4024,
      "lissait": 4025,
      "demandé": 4026,
      "continue": 4027,
      "reconnut": 4028,
      "inféri": 4029,
      "meilleur": 4030,
      "côtés": 4031,
      "Dès": 4032,
      "Jac": 4033,
      "cen": 4034,
      "gés": 4035,
      "dedans": 4036,
      "choir": 4037,
      "éterne": 4038,
      "comprit": 4039,
      "chef": 4040,
      "ettez": 4041,
      "crus": 4042,
      "tours": 4043,
      "support": 4044,
      "bataille": 4045,
      "importance": 4046,
      "poissons": 4047,
      "embarcation": 4048,
      "objets": 4049,
      "Montsou": 4050,
      "complètement": 4051,
      "augment": 4052,
      "besogne": 4053,
      "montagnes": 4054,
      "AR": 4055,
      "ared": 4056,
      "igh": 4057,
      "nation": 4058,
      "tira": 4059,
      "çà": 4060,
      "laquais": 4061,
      "sever": 4062,
      "chaud": 4063,
      "prirent": 4064,
      "respir": 4065,
      "accent": 4066,
      "coun": 4067,
      "retent": 4068,
      "cried": 4069,
      "assise": 4070,
      "curieux": 4071,
      "creus": 4072,
      "français": 4073,
      "succ": 4074,
      "granit": 4075,
      "évident": 4076,
      "rencontrer": 4077,
      "felt": 4078,
      "az": 4079,
      "épuis": 4080,
      "deaux": 4081,
      "cheur": 4082,
      "lumin": 4083,
      "treet": 4084,
      "liv": 4085,
      "réellement": 4086,
      "eurent": 4087,
      "fié": 4088,
      "Toutes": 4089,
      "domin": 4090,
      "Anglais": 4091,
      "quantité": 4092,
      "classe": 4093,
      "Compagnie": 4094,
      "Bar": 4095,
      "Rob": 4096,
      "St": 4097,
      "dange": 4098,
      "having": 4099,
      "vaut": 4100,
      "revenait": 4101,
      "secr": 4102,
      "venge": 4103,
      "ained": 4104,
      "partis": 4105,
      "autrement": 4106,
      "corri": 4107,
      "Chaval": 4108,
      "offre": 4109,
      "domesti": 4110,
      "habits": 4111,
      "ifique": 4112,
      "reconnaissance": 4113,
      "paix": 4114,
      "impatience": 4115,
      "Bour": 4116,
      "remit": 4117,
      "inno": 4118,
      "neige": 4119,
      "----": 4120,
      "month": 4121,
      "resp": 4122,
      "ched": 4123,
      "cra": 4124,
      "vigou": 4125,
      "expl": 4126,
      "distin": 4127,
      "row": 4128,
      "folie": 4129,
      "glace": 4130,
      "hâte": 4131,
      "stupé": 4132,
      "faudrait": 4133,
      "mystéri": 4134,
      "Aus": 4135,
      "IN": 4136,
      "bla": 4137,
      "centre": 4138,
      "house": 4139,
      "pin": 4140,
      "îlot": 4141,
      "aider": 4142,
      "aurai": 4143,
      "cept": 4144,
      "aison": 4145,
      "prati": 4146,
      "dévor": 4147,
      "people": 4148,
      "portée": 4149,
      "phrase": 4150,
      "égard": 4151,
      "pousser": 4152,
      "Alle": 4153,
      "cend": 4154,
      "cler": 4155,
      "gê": 4156,
      "gon": 4157,
      "hous": 4158,
      "hém": 4159,
      "ias": 4160,
      "kil": 4161,
      "savant": 4162,
      "tint": 4163,
      "lace": 4164,
      "visible": 4165,
      "vaque": 4166,
      "charmante": 4167,
      "joues": 4168,
      "moyens": 4169,
      "heureusement": 4170,
      "volcan": 4171,
      "poudre": 4172,
      "fatigue": 4173,
      "sérieux": 4174,
      "Marchese": 4175,
      "faveur": 4176,
      ",»": 4177,
      "Pru": 4178,
      "bale": 4179,
      "lor": 4180,
      "sè": 4181,
      "dévelop": 4182,
      "puissance": 4183,
      "Levaque": 4184,
      "plaît": 4185,
      "myself": 4186,
      "Martin": 4187,
      "clef": 4188,
      "juger": 4189,
      "portrait": 4190,
      "souvenirs": 4191,
      "abandonner": 4192,
      "magnifique": 4193,
      "soupçon": 4194,
      "?…": 4195,
      "Su": 4196,
      "pét": 4197,
      "ètre": 4198,
      "éche": 4199,
      "recouv": 4200,
      "reviend": 4201,
      "chal": 4202,
      "lib": 4203,
      "propres": 4204,
      "rose": 4205,
      "posait": 4206,
      "ctu": 4207,
      "répondait": 4208,
      "tone": 4209,
      "pharm": 4210,
      "aimable": 4211,
      "sinon": 4212,
      "précé": 4213,
      "raconter": 4214,
      "ctive": 4215,
      "vari": 4216,
      "gaz": 4217,
      "pharmac": 4218,
      "Bel": 4219,
      "cout": 4220,
      "gir": 4221,
      "ime": 4222,
      "équ": 4223,
      "isme": 4224,
      "orig": 4225,
      "lignes": 4226,
      "aill": 4227,
      "crier": 4228,
      "travaille": 4229,
      "plomb": 4230,
      "appartement": 4231,
      "naturelle": 4232,
      "parties": 4233,
      "cabinet": 4234,
      "words": 4235,
      "Hélas": 4236,
      "vapeur": 4237,
      "His": 4238,
      "Henne": 4239,
      "Sire": 4240,
      "ements": 4241,
      "intro": 4242,
      "changer": 4243,
      "chute": 4244,
      "sière": 4245,
      "dévou": 4246,
      "monta": 4247,
      "exac": 4248,
      "inture": 4249,
      "demie": 4250,
      "sortait": 4251,
      "That": 4252,
      "évêque": 4253,
      "détermin": 4254,
      "Prudence": 4255,
      "Avant": 4256,
      "Is": 4257,
      "bure": 4258,
      "wards": 4259,
      "ège": 4260,
      "refu": 4261,
      "sibilité": 4262,
      "posses": 4263,
      "whole": 4264,
      "pensais": 4265,
      "pire": 4266,
      "préfér": 4267,
      "dow": 4268,
      "tourment": 4269,
      "otte": 4270,
      "admiration": 4271,
      "istance": 4272,
      "degrés": 4273,
      "physionomie": 4274,
      "Hennebeau": 4275,
      "bur": 4276,
      "fos": 4277,
      "igne": 4278,
      "rôle": 4279,
      "vont": 4280,
      "espé": 4281,
      "death": 4282,
      "isé": 4283,
      "ished": 4284,
      "chante": 4285,
      "avert": 4286,
      "dies": 4287,
      "vif": 4288,
      "imer": 4289,
      "sév": 4290,
      "fermée": 4291,
      "raisons": 4292,
      "tombait": 4293,
      "supporter": 4294,
      "subite": 4295,
      "chauff": 4296,
      "Léon": 4297,
      "Europe": 4298,
      "succès": 4299,
      "introdu": 4300,
      "caval": 4301,
      "lois": 4302,
      "ption": 4303,
      "sor": 4304,
      "».": 4305,
      "revenu": 4306,
      "entier": 4307,
      "montrait": 4308,
      "tire": 4309,
      "devais": 4310,
      "pensai": 4311,
      "bonté": 4312,
      "taken": 4313,
      "door": 4314,
      "pace": 4315,
      "blessé": 4316,
      "much": 4317,
      "rendit": 4318,
      "fauteuil": 4319,
      "voyageurs": 4320,
      "IS": 4321,
      "Ri": 4322,
      "ûte": 4323,
      "qual": 4324,
      "chat": 4325,
      "tron": 4326,
      "side": 4327,
      "réussi": 4328,
      "iron": 4329,
      "ost": 4330,
      "extre": 4331,
      "expé": 4332,
      "distr": 4333,
      "couche": 4334,
      "allai": 4335,
      "pensez": 4336,
      "nuages": 4337,
      "pic": 4338,
      "ailli": 4339,
      "travaux": 4340,
      "personnage": 4341,
      "boî": 4342,
      "dormir": 4343,
      "incident": 4344,
      "inclin": 4345,
      "domestiques": 4346,
      "Lui": 4347,
      "Me": 4348,
      "Nor": 4349,
      "father": 4350,
      "imes": 4351,
      "odo": 4352,
      "iss": 4353,
      "prince": 4354,
      "sienne": 4355,
      "consul": 4356,
      "révé": 4357,
      "grat": 4358,
      "nore": 4359,
      "merci": 4360,
      "fermer": 4361,
      "effor": 4362,
      "toilette": 4363,
      "joli": 4364,
      "rendait": 4365,
      "rêve": 4366,
      "projets": 4367,
      "mélanco": 4368,
      "Vendredi": 4369,
      "foyer": 4370,
      "gave": 4371,
      "prê": 4372,
      "agno": 4373,
      "road": 4374,
      "posée": 4375,
      "finir": 4376,
      "comptait": 4377,
      "ménage": 4378,
      "regardai": 4379,
      "champs": 4380,
      "nécessité": 4381,
      "amoureux": 4382,
      ".--": 4383,
      "Adèle": 4384,
      "gres": 4385,
      "since": 4386,
      "etes": 4387,
      "pardon": 4388,
      "appli": 4389,
      "ouvre": 4390,
      "ouvrait": 4391,
      "coqu": 4392,
      "bed": 4393,
      "géné": 4394,
      "got": 4395,
      "tels": 4396,
      "bohém": 4397,
      "mouchoir": 4398,
      "seemed": 4399,
      "résolution": 4400,
      "veuve": 4401,
      "Cor": 4402,
      "cted": 4403,
      "pun": 4404,
      "queue": 4405,
      "organ": 4406,
      "prétend": 4407,
      "atique": 4408,
      "geant": 4409,
      "soon": 4410,
      "rentra": 4411,
      "jetait": 4412,
      "détru": 4413,
      "continuer": 4414,
      "quitt": 4415,
      "quitta": 4416,
      "trade": 4417,
      "passaient": 4418,
      "avouer": 4419,
      "avança": 4420,
      "jadis": 4421,
      "archite": 4422,
      "globe": 4423,
      "Bou": 4424,
      "Rassi": 4425,
      "cut": 4426,
      "dy": 4427,
      "hen": 4428,
      "mber": 4429,
      "ture": 4430,
      "rice": 4431,
      "tenue": 4432,
      "fièvre": 4433,
      "valet": 4434,
      "arrêté": 4435,
      "high": 4436,
      "ennuy": 4437,
      "supérieure": 4438,
      "précisément": 4439,
      "Bientôt": 4440,
      "Mort": 4441,
      "banc": 4442,
      "gâ": 4443,
      "ia": 4444,
      "ice": 4445,
      "oupe": 4446,
      "conseil": 4447,
      "défaut": 4448,
      "ouvrage": 4449,
      "iel": 4450,
      "accident": 4451,
      "poor": 4452,
      "five": 4453,
      "present": 4454,
      "mener": 4455,
      "olphe": 4456,
      "pièces": 4457,
      "pale": 4458,
      "feel": 4459,
      "valait": 4460,
      "branches": 4461,
      "sérieusement": 4462,
      "missaire": 4463,
      "excellent": 4464,
      "réflexions": 4465,
      "extreme": 4466,
      ",--": 4467,
      "ked": 4468,
      "repent": 4469,
      "issement": 4470,
      "neveu": 4471,
      "aven": 4472,
      "conc": 4473,
      "conque": 4474,
      "apporter": 4475,
      "vivait": 4476,
      "ayez": 4477,
      "ferma": 4478,
      "sortes": 4479,
      "myst": 4480,
      "tell": 4481,
      "Marie": 4482,
      "figur": 4483,
      "nourrit": 4484,
      "Mercy": 4485,
      "égyptienne": 4486,
      "tail": 4487,
      "retenir": 4488,
      "infini": 4489,
      "lux": 4490,
      "déb": 4491,
      "intes": 4492,
      "écur": 4493,
      "portant": 4494,
      "sentis": 4495,
      "ieusement": 4496,
      "used": 4497,
      "cente": 4498,
      "telles": 4499,
      "suppose": 4500,
      "trace": 4501,
      "découvert": 4502,
      "envoyé": 4503,
      "supérieur": 4504,
      "Très": 4505,
      "remords": 4506,
      "haps": 4507,
      "window": 4508,
      "bât": 4509,
      "rus": 4510,
      "lled": 4511,
      "riant": 4512,
      "songeait": 4513,
      "révol": 4514,
      "pure": 4515,
      "frapper": 4516,
      "tif": 4517,
      "pensé": 4518,
      "ferai": 4519,
      "criait": 4520,
      "renon": 4521,
      "Chap": 4522,
      "bibli": 4523,
      "signifi": 4524,
      "troupe": 4525,
      "Quelque": 4526,
      "légère": 4527,
      "?...": 4528,
      "cable": 4529,
      "fan": 4530,
      "ight": 4531,
      "mirent": 4532,
      "nar": 4533,
      "rét": 4534,
      "reaux": 4535,
      "invent": 4536,
      "chèvre": 4537,
      "comb": 4538,
      "salut": 4539,
      "grap": 4540,
      "excit": 4541,
      "extéri": 4542,
      "séjour": 4543,
      "souliers": 4544,
      "points": 4545,
      "taches": 4546,
      "connue": 4547,
      "fax": 4548,
      "source": 4549,
      "feet": 4550,
      "They": 4551,
      "feuilles": 4552,
      "donnez": 4553,
      "levée": 4554,
      "métier": 4555,
      "Harrison": 4556,
      "Bessie": 4557,
      "pavé": 4558,
      "commencement": 4559,
      "cèrent": 4560,
      "gy": 4561,
      "odeur": 4562,
      "plong": 4563,
      "têtes": 4564,
      "vac": 4565,
      "reconnu": 4566,
      "retirer": 4567,
      "quence": 4568,
      "always": 4569,
      "grève": 4570,
      "moin": 4571,
      "gna": 4572,
      "rets": 4573,
      "Celui": 4574,
      "vouloir": 4575,
      "céder": 4576,
      "given": 4577,
      "feuille": 4578,
      "apparais": 4579,
      "apparence": 4580,
      "occuper": 4581,
      "durant": 4582,
      "Amérique": 4583,
      "Fair": 4584,
      "IV": 4585,
      "mienne": 4586,
      "pait": 4587,
      "saint": 4588,
      "vité": 4589,
      "enchant": 4590,
      "orité": 4591,
      "soins": 4592,
      "prov": 4593,
      "angois": 4594,
      "prétex": 4595,
      "arrange": 4596,
      "jetant": 4597,
      "larges": 4598,
      "sourd": 4599,
      "fusse": 4600,
      "canal": 4601,
      "ative": 4602,
      "prudent": 4603,
      "obligé": 4604,
      "particulier": 4605,
      "considérable": 4606,
      "événement": 4607,
      "comprends": 4608,
      "years": 4609,
      "résultat": 4610,
      "exactement": 4611,
      "Fairfax": 4612,
      "Cun": 4613,
      "Long": 4614,
      "Pier": 4615,
      "gus": 4616,
      "open": 4617,
      "toucher": 4618,
      "guet": 4619,
      "répond": 4620,
      "placer": 4621,
      "Parce": 4622,
      "attendais": 4623,
      "hautes": 4624,
      "circonstance": 4625,
      "souriant": 4626,
      "hundre": 4627,
      "éviter": 4628,
      "Seulement": 4629,
      "cadavre": 4630,
      "Pac": 4631,
      "lines": 4632,
      "olé": 4633,
      "ession": 4634,
      "remis": 4635,
      "qualité": 4636,
      "laz": 4637,
      "istr": 4638,
      "omin": 4639,
      "trot": 4640,
      "sien": 4641,
      "amants": 4642,
      "cot": 4643,
      "excu": 4644,
      "disparut": 4645,
      "loint": 4646,
      "forcé": 4647,
      "seuil": 4648,
      "renver": 4649,
      "ancienne": 4650,
      "saisit": 4651,
      "profit": 4652,
      "sourc": 4653,
      "donnant": 4654,
      "commun": 4655,
      "voisine": 4656,
      "ennemi": 4657,
      "découverte": 4658,
      "battait": 4659,
      "espérance": 4660,
      "Esp": 4661,
      "flamme": 4662,
      "Dongo": 4663,
      "épouser": 4664,
      "boy": 4665,
      "Ça": 4666,
      "chande": 4667,
      "aves": 4668,
      "étaire": 4669,
      "paru": 4670,
      "commissaire": 4671,
      "dévo": 4672,
      "amitié": 4673,
      "discours": 4674,
      "brise": 4675,
      "fame": 4676,
      "fuir": 4677,
      "baron": 4678,
      "échap": 4679,
      "morts": 4680,
      "imagine": 4681,
      "mouvements": 4682,
      "marchand": 4683,
      "établir": 4684,
      "terrain": 4685,
      "Rodolphe": 4686,
      "hundred": 4687,
      "Mos": 4688,
      "Ros": 4689,
      "Vi": 4690,
      "cence": 4691,
      "clar": 4692,
      "ogue": 4693,
      "ring": 4694,
      "vages": 4695,
      "chais": 4696,
      "ali": 4697,
      "right": 4698,
      "consent": 4699,
      "expéri": 4700,
      "fidèle": 4701,
      "plat": 4702,
      "coron": 4703,
      "chambres": 4704,
      "venture": 4705,
      "fum": 4706,
      "sauvage": 4707,
      "regarde": 4708,
      "décis": 4709,
      "hérit": 4710,
      "poison": 4711,
      "groupe": 4712,
      "événements": 4713,
      "jaune": 4714,
      "bruy": 4715,
      "achev": 4716,
      "fla": 4717,
      "nai": 4718,
      "rè": 4719,
      "licité": 4720,
      "perhaps": 4721,
      "journal": 4722,
      "provo": 4723,
      "regagn": 4724,
      "attach": 4725,
      "visiter": 4726,
      "round": 4727,
      "valeur": 4728,
      "tache": 4729,
      "faisais": 4730,
      "bouch": 4731,
      "assit": 4732,
      "nouveaux": 4733,
      "biz": 4734,
      "Auc": 4735,
      "New": 4736,
      "dernières": 4737,
      "everything": 4738,
      "mousquetaire": 4739,
      "camarade": 4740,
      "déclara": 4741,
      "fleuve": 4742,
      "Signora": 4743,
      "maladie": 4744,
      ",—": 4745,
      "Ici": 4746,
      "Stap": 4747,
      "gest": 4748,
      "nè": 4749,
      "ènes": 4750,
      "repli": 4751,
      "enthous": 4752,
      "étal": 4753,
      "parois": 4754,
      "accor": 4755,
      "serons": 4756,
      "servait": 4757,
      "disais": 4758,
      "perfe": 4759,
      "sémin": 4760,
      "pleas": 4761,
      "déta": 4762,
      "naturellement": 4763,
      "jeunesse": 4764,
      "citade": 4765,
      "demeura": 4766,
      "Lorsqu": 4767,
      "absor": 4768,
      "Voyons": 4769,
      "bouteille": 4770,
      "Minister": 4771,
      "explor": 4772,
      "enthousias": 4773,
      "Beau": 4774,
      "Ketty": 4775,
      "spé": 4776,
      "escap": 4777,
      "étroite": 4778,
      "thir": 4779,
      "parlez": 4780,
      "seront": 4781,
      "pirer": 4782,
      "piece": 4783,
      "phras": 4784,
      "sortie": 4785,
      "connaissez": 4786,
      "violent": 4787,
      "volontiers": 4788,
      "think": 4789,
      "Aou": 4790,
      "aler": 4791,
      "hour": 4792,
      "hie": 4793,
      "sale": 4794,
      "mad": 4795,
      "gro": 4796,
      "viole": 4797,
      "tible": 4798,
      "longueur": 4799,
      "souci": 4800,
      "vision": 4801,
      "commencé": 4802,
      "morning": 4803,
      "habitants": 4804,
      "douceur": 4805,
      "produit": 4806,
      "commandant": 4807,
      "morceaux": 4808,
      "attendu": 4809,
      "costu": 4810,
      "Cunég": 4811,
      "spéci": 4812,
      "phrases": 4813,
      "Aouda": 4814,
      "Bask": 4815,
      "Gi": 4816,
      "Ger": 4817,
      "cage": 4818,
      "maire": 4819,
      "nus": 4820,
      "tam": 4821,
      "remonter": 4822,
      "abî": 4823,
      "irard": 4824,
      "couches": 4825,
      "permis": 4826,
      "répand": 4827,
      "embr": 4828,
      "empres": 4829,
      "ministre": 4830,
      "guide": 4831,
      "leton": 4832,
      "tournait": 4833,
      "plend": 4834,
      "idea": 4835,
      "prenaient": 4836,
      "déliv": 4837,
      "délicat": 4838,
      "Reed": 4839,
      "Jeanlin": 4840,
      "world": 4841,
      "discut": 4842,
      "faudra": 4843,
      "pénible": 4844,
      "atmosphère": 4845,
      "chagrin": 4846,
      "Cunégonde": 4847,
      "Baskerville": 4848,
      "For": 4849,
      "VI": 4850,
      "Wat": 4851,
      "cath": 4852,
      "dge": 4853,
      "ived": 4854,
      "mien": 4855,
      "enva": 4856,
      "retraite": 4857,
      "armée": 4858,
      "trous": 4859,
      "abais": 4860,
      "dér": 4861,
      "dépend": 4862,
      "modes": 4863,
      "expres": 4864,
      "...»": 4865,
      "lettes": 4866,
      "néces": 4867,
      "aillit": 4868,
      "palaz": 4869,
      "désor": 4870,
      "franch": 4871,
      "occupait": 4872,
      "fréquent": 4873,
      "réfléchir": 4874,
      "singulier": 4875,
      "convicts": 4876,
      "exprimer": 4877,
      "gouvernante": 4878,
      "violemment": 4879,
      "Watson": 4880,
      "ES": 4881,
      "devenue": 4882,
      "seen": 4883,
      "teaux": 4884,
      "until": 4885,
      "oiff": 4886,
      "almost": 4887,
      "sachant": 4888,
      "mesur": 4889,
      "crat": 4890,
      "brut": 4891,
      "admi": 4892,
      "allant": 4893,
      "formid": 4894,
      "pension": 4895,
      "porté": 4896,
      "Entre": 4897,
      "humil": 4898,
      "rapidité": 4899,
      "ruis": 4900,
      "atient": 4901,
      "atteint": 4902,
      "vagues": 4903,
      "probablement": 4904,
      "extrêmement": 4905,
      "half": 4906,
      "conséquent": 4907,
      "réflexion": 4908,
      "religion": 4909,
      "Mosca": 4910,
      "Gas": 4911,
      "blon": 4912,
      "mam": 4913,
      "noires": 4914,
      "tis": 4915,
      "atures": 4916,
      "siez": 4917,
      "crit": 4918,
      "mode": 4919,
      "réput": 4920,
      "tempête": 4921,
      "Arch": 4922,
      "rude": 4923,
      "commençai": 4924,
      "souffrir": 4925,
      "accout": 4926,
      "patron": 4927,
      "formait": 4928,
      "ishop": 4929,
      "vêtu": 4930,
      "observation": 4931,
      "sauvages": 4932,
      "difficulté": 4933,
      "machine": 4934,
      "dissimu": 4935,
      "tristesse": 4936,
      "natur": 4937,
      "nourriture": 4938,
      "Avez": 4939,
      "Peu": 4940,
      "bier": 4941,
      "dir": 4942,
      "eh": 4943,
      "maud": 4944,
      "pair": 4945,
      "ude": 4946,
      "indu": 4947,
      "dessein": 4948,
      "tremp": 4949,
      "liqui": 4950,
      "licit": 4951,
      "débarras": 4952,
      "apprit": 4953,
      "pourra": 4954,
      "marée": 4955,
      "marché": 4956,
      "Contes": 4957,
      "Grand": 4958,
      "famil": 4959,
      "aperçu": 4960,
      "rayon": 4961,
      "baiser": 4962,
      "rempla": 4963,
      "landais": 4964,
      "siège": 4965,
      "jalous": 4966,
      "Jacques": 4967,
      "bureau": 4968,
      "palazzo": 4969,
      "Di": 4970,
      "Pau": 4971,
      "flat": 4972,
      "vô": 4973,
      "îles": 4974,
      "err": 4975,
      "ares": 4976,
      "sivement": 4977,
      "sonner": 4978,
      "diver": 4979,
      "vico": 4980,
      "couteau": 4981,
      "couru": 4982,
      "noms": 4983,
      "côtes": 4984,
      "sourit": 4985,
      "murm": 4986,
      "Grande": 4987,
      "navires": 4988,
      "apercevait": 4989,
      "Personne": 4990,
      "Tant": 4991,
      "We": 4992,
      "fureur": 4993,
      "gare": 4994,
      "auberge": 4995,
      "quere": 4996,
      "sif": 4997,
      "commis": 4998,
      "perd": 4999,
      "manif": 5000,
      "formes": 5001,
      "tenez": 5002,
      "rare": 5003,
      "deviner": 5004,
      "retard": 5005,
      "opé": 5006,
      "Ceci": 5007,
      "nerfs": 5008,
      "cercle": 5009,
      "entends": 5010,
      "poussé": 5011,
      "apparut": 5012,
      "érir": 5013,
      "accab": 5014,
      "blanches": 5015,
      "reconnus": 5016,
      "essaya": 5017,
      "ennui": 5018,
      "looked": 5019,
      "discus": 5020,
      "frappé": 5021,
      "Contessa": 5022,
      "QU": 5023,
      "bil": 5024,
      "coiff": 5025,
      "lt": 5026,
      "intri": 5027,
      "ourdis": 5028,
      "étince": 5029,
      "lue": 5030,
      "dép": 5031,
      "déso": 5032,
      "advers": 5033,
      "els": 5034,
      "directeur": 5035,
      "voila": 5036,
      "descendu": 5037,
      "désire": 5038,
      "box": 5039,
      "pareils": 5040,
      "paysan": 5041,
      "trompe": 5042,
      "rêver": 5043,
      "emporter": 5044,
      "remarqué": 5045,
      "douter": 5046,
      "Grimaud": 5047,
      "soldat": 5048,
      "Stapleton": 5049,
      "citadel": 5050,
      "Faus": 5051,
      "Oli": 5052,
      "bous": 5053,
      "baie": 5054,
      "spo": 5055,
      "ency": 5056,
      "ether": 5057,
      "étage": 5058,
      "résign": 5059,
      "oise": 5060,
      "victi": 5061,
      "couché": 5062,
      "répondu": 5063,
      "pouvons": 5064,
      "Armand": 5065,
      "human": 5066,
      "assée": 5067,
      "saison": 5068,
      "pleins": 5069,
      "décider": 5070,
      "promener": 5071,
      "anything": 5072,
      "gagné": 5073,
      "essayer": 5074,
      "traverser": 5075,
      "cellu": 5076,
      "acheter": 5077,
      "Valen": 5078,
      "paisible": 5079,
      "Pacifique": 5080,
      "dente": 5081,
      "iet": 5082,
      "sœur": 5083,
      "éve": 5084,
      "enty": 5085,
      "prét": 5086,
      "régi": 5087,
      "plupart": 5088,
      "aces": 5089,
      "maj": 5090,
      "vice": 5091,
      "vidence": 5092,
      "devin": 5093,
      "fortun": 5094,
      "care": 5095,
      "affreux": 5096,
      "affreuse": 5097,
      "renouv": 5098,
      "Chaque": 5099,
      "appeared": 5100,
      "premiere": 5101,
      "approcher": 5102,
      "amener": 5103,
      "important": 5104,
      "tendresse": 5105,
      "monstre": 5106,
      "meilleure": 5107,
      "jugement": 5108,
      "intelli": 5109,
      "interrompit": 5110,
      "silencieux": 5111,
      "vengeance": 5112,
      "Heure": 5113,
      "Leur": 5114,
      "ode": 5115,
      "tiens": 5116,
      "Écou": 5117,
      "émer": 5118,
      "rejoindre": 5119,
      "eries": 5120,
      "ild": 5121,
      "assure": 5122,
      "déce": 5123,
      "ied": 5124,
      "plume": 5125,
      "croix": 5126,
      "venais": 5127,
      "many": 5128,
      "mineurs": 5129,
      "comple": 5130,
      "cale": 5131,
      "enfu": 5132,
      "fuite": 5133,
      "présenter": 5134,
      "résis": 5135,
      "seize": 5136,
      "ramas": 5137,
      "Henri": 5138,
      "étendue": 5139,
      "frappa": 5140,
      "bêtes": 5141,
      "ear": 5142,
      "fasse": 5143,
      "sp": 5144,
      "toir": 5145,
      "èque": 5146,
      "espace": 5147,
      "ouche": 5148,
      "parfaite": 5149,
      "accou": 5150,
      "cuir": 5151,
      "stand": 5152,
      "case": 5153,
      "charme": 5154,
      "restée": 5155,
      "plaine": 5156,
      "saisir": 5157,
      "pleurer": 5158,
      "...,": 5159,
      "froidement": 5160,
      "actions": 5161,
      "tranquill": 5162,
      "explication": 5163,
      "hope": 5164,
      "admirable": 5165,
      "provisions": 5166,
      "espérer": 5167,
      "réputation": 5168,
      "15": 5169,
      "Plu": 5170,
      "Venez": 5171,
      "ek": 5172,
      "mut": 5173,
      "massi": 5174,
      "pret": 5175,
      "vus": 5176,
      "înt": 5177,
      "aigne": 5178,
      "ano": 5179,
      "qués": 5180,
      "arret": 5181,
      "confort": 5182,
      "agent": 5183,
      "déchi": 5184,
      "heard": 5185,
      "insen": 5186,
      "protest": 5187,
      "mars": 5188,
      "formé": 5189,
      "empar": 5190,
      "stat": 5191,
      "mén": 5192,
      "directement": 5193,
      "criant": 5194,
      "millions": 5195,
      "offrir": 5196,
      "onna": 5197,
      "tombée": 5198,
      "things": 5199,
      "légèrement": 5200,
      "descendait": 5201,
      "changement": 5202,
      "rencontré": 5203,
      "Donc": 5204,
      "magas": 5205,
      "favor": 5206,
      "convenable": 5207,
      "ready": 5208,
      "assurer": 5209,
      "boîte": 5210,
      "mystère": 5211,
      "prétexte": 5212,
      "Cert": 5213,
      "Pirard": 5214,
      "Tiens": 5215,
      "Zachar": 5216,
      "fleur": 5217,
      "fall": 5218,
      "hus": 5219,
      "vée": 5220,
      "wal": 5221,
      "eneur": 5222,
      "rep": 5223,
      "selle": 5224,
      "choc": 5225,
      "passée": 5226,
      "agés": 5227,
      "abat": 5228,
      "abilité": 5229,
      "appareil": 5230,
      "oiseau": 5231,
      "chemise": 5232,
      "hear": 5233,
      "crou": 5234,
      "solut": 5235,
      "poli": 5236,
      "marches": 5237,
      "vieilles": 5238,
      "arrivés": 5239,
      "ennemis": 5240,
      "remarquer": 5241,
      "Français": 5242,
      "corridor": 5243,
      "Archb": 5244,
      "Valenod": 5245,
      "Zacharie": 5246,
      "vins": 5247,
      "vécu": 5248,
      "leave": 5249,
      "erent": 5250,
      "inière": 5251,
      "commer": 5252,
      "abomin": 5253,
      "monté": 5254,
      "town": 5255,
      "exces": 5256,
      "ador": 5257,
      "couraient": 5258,
      "mince": 5259,
      "plau": 5260,
      "saires": 5261,
      "gig": 5262,
      "saurait": 5263,
      "appear": 5264,
      "soie": 5265,
      "joyeux": 5266,
      "caba": 5267,
      "lâche": 5268,
      "demeurait": 5269,
      "montrant": 5270,
      "................": 5271,
      "Bri": 5272,
      "Rass": 5273,
      "West": 5274,
      "aw": 5275,
      "balle": 5276,
      "sèrent": 5277,
      "reason": 5278,
      "inde": 5279,
      "indis": 5280,
      "late": 5281,
      "auriez": 5282,
      "seaux": 5283,
      "lure": 5284,
      "atro": 5285,
      "sibles": 5286,
      "alt": 5287,
      "alli": 5288,
      "coming": 5289,
      "dimanche": 5290,
      "ressemblait": 5291,
      "permettre": 5292,
      "times": 5293,
      "trouvant": 5294,
      "opération": 5295,
      "placé": 5296,
      "donnaient": 5297,
      "horn": 5298,
      "tombé": 5299,
      "ignit": 5300,
      "indign": 5301,
      "twenty": 5302,
      "avoue": 5303,
      "mérite": 5304,
      "linge": 5305,
      "maigre": 5306,
      "arracher": 5307,
      "drôle": 5308,
      "excepté": 5309,
      "Rasseneur": 5310,
      "Ni": 5311,
      "UN": 5312,
      "billet": 5313,
      "cées": 5314,
      "flo": 5315,
      "rô": 5316,
      "sap": 5317,
      "spir": 5318,
      "éni": 5319,
      "ître": 5320,
      "lecture": 5321,
      "pros": 5322,
      "exact": 5323,
      "courte": 5324,
      "while": 5325,
      "nullement": 5326,
      "airs": 5327,
      "épan": 5328,
      "larg": 5329,
      "passag": 5330,
      "Princess": 5331,
      "crains": 5332,
      "cousin": 5333,
      "Milan": 5334,
      "happy": 5335,
      "changé": 5336,
      "sympath": 5337,
      "Allez": 5338,
      "Bonne": 5339,
      "Your": 5340,
      "id": 5341,
      "knew": 5342,
      "mage": 5343,
      "sombres": 5344,
      "tue": 5345,
      "viennent": 5346,
      "devez": 5347,
      "another": 5348,
      "prier": 5349,
      "éto": 5350,
      "confus": 5351,
      "amer": 5352,
      "sade": 5353,
      "divers": 5354,
      "began": 5355,
      "ctor": 5356,
      "retira": 5357,
      "caché": 5358,
      "mettant": 5359,
      "vég": 5360,
      "promesse": 5361,
      "sauter": 5362,
      "poussière": 5363,
      "joue": 5364,
      "accueil": 5365,
      "Franc": 5366,
      "certaines": 5367,
      "secous": 5368,
      "imaginer": 5369,
      "When": 5370,
      "réserve": 5371,
      "Trois": 5372,
      "goutte": 5373,
      "politique": 5374,
      "charmant": 5375,
      "sauta": 5376,
      "happiness": 5377,
      "éblou": 5378,
      "pharmacien": 5379,
      "subitement": 5380,
      "Archbishop": 5381,
      "Lodo": 5382,
      "dien": 5383,
      "mout": 5384,
      "mettez": 5385,
      "pages": 5386,
      "wish": 5387,
      "aimais": 5388,
      "entrait": 5389,
      "ceinture": 5390,
      "compar": 5391,
      "sert": 5392,
      "termes": 5393,
      "fruit": 5394,
      "marier": 5395,
      "rochers": 5396,
      "sédu": 5397,
      "bonnet": 5398,
      "attitude": 5399,
      "niveau": 5400,
      "sentier": 5401,
      "illés": 5402,
      "préhen": 5403,
      "sortis": 5404,
      "désirait": 5405,
      "suffit": 5406,
      "paraissaient": 5407,
      "génie": 5408,
      "levai": 5409,
      "torrent": 5410,
      "ouverture": 5411,
      "abandonné": 5412,
      "cousine": 5413,
      "fâché": 5414,
      "faiblesse": 5415,
      "kilom": 5416,
      "Lais": 5417,
      "blé": 5418,
      "dau": 5419,
      "ède": 5420,
      "ébran": 5421,
      "anes": 5422,
      "entret": 5423,
      "etres": 5424,
      "latin": 5425,
      "aurions": 5426,
      "conce": 5427,
      "résolut": 5428,
      "couper": 5429,
      "prote": 5430,
      "manières": 5431,
      "coupable": 5432,
      "regardaient": 5433,
      "lements": 5434,
      "called": 5435,
      "charger": 5436,
      "continent": 5437,
      "présente": 5438,
      "musique": 5439,
      "tribu": 5440,
      "bourse": 5441,
      "soient": 5442,
      "blancs": 5443,
      "circu": 5444,
      "réfléch": 5445,
      "tâche": 5446,
      "solide": 5447,
      "officiers": 5448,
      "travailler": 5449,
      "biblioth": 5450,
      "cellule": 5451,
      "Heureusement": 5452,
      "Lodovico": 5453,
      ".,": 5454,
      "17": 5455,
      "Gardin": 5456,
      "Jup": 5457,
      "Va": 5458,
      "dirait": 5459,
      "mend": 5460,
      "oti": 5461,
      "olog": 5462,
      "tan": 5463,
      "reign": 5464,
      "ançon": 5465,
      "chons": 5466,
      "prête": 5467,
      "amp": 5468,
      "suit": 5469,
      "acles": 5470,
      "viande": 5471,
      "laissez": 5472,
      "connus": 5473,
      "effe": 5474,
      "emporte": 5475,
      "metres": 5476,
      "échou": 5477,
      "orel": 5478,
      "soufflait": 5479,
      "voisins": 5480,
      "ajouter": 5481,
      "viendrait": 5482,
      "résolus": 5483,
      "distinguer": 5484,
      "pistoles": 5485,
      "causait": 5486,
      "solitude": 5487,
      "tremble": 5488,
      "costume": 5489,
      "Gardiner": 5490,
      "**": 5491,
      "Thorn": 5492,
      "fl": 5493,
      "faux": 5494,
      "jon": 5495,
      "mun": 5496,
      "sois": 5497,
      "lesquelles": 5498,
      "rideaux": 5499,
      "outils": 5500,
      "dieux": 5501,
      "acité": 5502,
      "accu": 5503,
      "done": 5504,
      "nobles": 5505,
      "trouvais": 5506,
      "humain": 5507,
      "tourn": 5508,
      "sorti": 5509,
      "matinée": 5510,
      "tenter": 5511,
      "élevé": 5512,
      "brick": 5513,
      "rappelait": 5514,
      "hardi": 5515,
      "estime": 5516,
      "éprouvait": 5517,
      "servante": 5518,
      "chasser": 5519,
      "gaieté": 5520,
      "Chemin": 5521,
      "pénétrer": 5522,
      "précaution": 5523,
      "température": 5524,
      "ruisseau": 5525,
      "accoutu": 5526,
      "Dites": 5527,
      "Sorel": 5528,
      "bis": 5529,
      "dirai": 5530,
      "més": 5531,
      "taire": 5532,
      "chées": 5533,
      "allow": 5534,
      "comprenait": 5535,
      "abo": 5536,
      "monie": 5537,
      "perte": 5538,
      "permission": 5539,
      "frot": 5540,
      "tiend": 5541,
      "ails": 5542,
      "océ": 5543,
      "égal": 5544,
      "fouet": 5545,
      "approchait": 5546,
      "Charlotte": 5547,
      "élança": 5548,
      "logis": 5549,
      "procure": 5550,
      "pêche": 5551,
      "Besançon": 5552,
      "convaincu": 5553,
      "caverne": 5554,
      "sacrifice": 5555,
      "évanou": 5556,
      "raisonnable": 5557,
      "expérience": 5558,
      "jalousie": 5559,
      "bibliothèque": 5560,
      "Thornfield": 5561,
      "Apres": 5562,
      "Barr": 5563,
      "High": 5564,
      "Sainte": 5565,
      "Tenez": 5566,
      "mie": 5567,
      "yant": 5568,
      "ound": 5569,
      "redoub": 5570,
      "isant": 5571,
      "oral": 5572,
      "duquel": 5573,
      "convul": 5574,
      "estim": 5575,
      "user": 5576,
      "ressemb": 5577,
      "acam": 5578,
      "making": 5579,
      "grac": 5580,
      "verti": 5581,
      "belie": 5582,
      "proté": 5583,
      "écart": 5584,
      "radeau": 5585,
      "partage": 5586,
      "herbes": 5587,
      "fermait": 5588,
      "anciens": 5589,
      "sauvé": 5590,
      "oreux": 5591,
      "Grâce": 5592,
      "arrivèrent": 5593,
      "résister": 5594,
      "dormait": 5595,
      "briser": 5596,
      "rappela": 5597,
      "nombreux": 5598,
      "lourd": 5599,
      "traces": 5600,
      "énergie": 5601,
      "instinct": 5602,
      "sévère": 5603,
      "architecture": 5604,
      "désormais": 5605,
      "Certes": 5606,
      "Voreux": 5607,
      "caisse": 5608,
      "fête": 5609,
      "naire": 5610,
      "nité": 5611,
      "run": 5612,
      "insol": 5613,
      "ory": 5614,
      "passions": 5615,
      "abor": 5616,
      "déd": 5617,
      "sures": 5618,
      "dite": 5619,
      "subli": 5620,
      "serpent": 5621,
      "lock": 5622,
      "bra": 5623,
      "marins": 5624,
      "ctoire": 5625,
      "fermé": 5626,
      "plafond": 5627,
      "quoiqu": 5628,
      "goû": 5629,
      "matter": 5630,
      "keep": 5631,
      "latitude": 5632,
      "perdus": 5633,
      "chiff": 5634,
      "patience": 5635,
      "rassur": 5636,
      "environs": 5637,
      "remarqua": 5638,
      "énormes": 5639,
      "prochaine": 5640,
      "politesse": 5641,
      "communication": 5642,
      "sûreté": 5643,
      "16": 5644,
      "Pa": 5645,
      "fallu": 5646,
      "nis": 5647,
      "sages": 5648,
      "ôme": 5649,
      "démon": 5650,
      "money": 5651,
      "dimin": 5652,
      "poly": 5653,
      "adventure": 5654,
      "écor": 5655,
      "minuit": 5656,
      "douzaine": 5657,
      "phé": 5658,
      "égay": 5659,
      "présenta": 5660,
      "hôtes": 5661,
      "balbut": 5662,
      "éloigner": 5663,
      "aventures": 5664,
      "langage": 5665,
      "sensible": 5666,
      "offrait": 5667,
      "remercie": 5668,
      "frere": 5669,
      "illiam": 5670,
      "victime": 5671,
      "Pangl": 5672,
      "fûmes": 5673,
      "wi": 5674,
      "rel": 5675,
      "reinte": 5676,
      "irons": 5677,
      "osait": 5678,
      "modi": 5679,
      "exi": 5680,
      "popu": 5681,
      "manqué": 5682,
      "embouch": 5683,
      "finie": 5684,
      "illant": 5685,
      "play": 5686,
      "effroi": 5687,
      "restaient": 5688,
      "suivis": 5689,
      "céré": 5690,
      "canon": 5691,
      "blessure": 5692,
      "échange": 5693,
      "poussée": 5694,
      "conduit": 5695,
      "prends": 5696,
      "subst": 5697,
      "inquiet": 5698,
      "littoral": 5699,
      "close": 5700,
      "tromper": 5701,
      "received": 5702,
      "violente": 5703,
      "raconta": 5704,
      "misérables": 5705,
      "fantais": 5706,
      "assassin": 5707,
      "Cheminées": 5708,
      "Pangloss": 5709,
      "Den": 5710,
      "ala": 5711,
      "cus": 5712,
      "cave": 5713,
      "feux": 5714,
      "gend": 5715,
      "lér": 5716,
      "wr": 5717,
      "zy": 5718,
      "âtres": 5719,
      "ana": 5720,
      "inut": 5721,
      "tears": 5722,
      "concer": 5723,
      "convenu": 5724,
      "agée": 5725,
      "défi": 5726,
      "pourvu": 5727,
      "divis": 5728,
      "geaient": 5729,
      "vieillard": 5730,
      "faça": 5731,
      "paque": 5732,
      "quets": 5733,
      "greve": 5734,
      "Pourtant": 5735,
      "présentait": 5736,
      "décida": 5737,
      "étudi": 5738,
      "office": 5739,
      "trompé": 5740,
      "tendit": 5741,
      "affect": 5742,
      "furieux": 5743,
      "frémis": 5744,
      "examiner": 5745,
      "prononcer": 5746,
      "désert": 5747,
      "offrit": 5748,
      "machin": 5749,
      "réguli": 5750,
      "humide": 5751,
      "souffrance": 5752,
      "respond": 5753,
      "coutume": 5754,
      "clarté": 5755,
      "nécessaires": 5756,
      "embouchure": 5757,
      "rout": 5758,
      "sar": 5759,
      "tons": 5760,
      "releva": 5761,
      "alis": 5762,
      "répu": 5763,
      "réalité": 5764,
      "appréci": 5765,
      "crue": 5766,
      "excur": 5767,
      "post": 5768,
      "rette": 5769,
      "illy": 5770,
      "vents": 5771,
      "chanter": 5772,
      "commune": 5773,
      "domaine": 5774,
      "risquer": 5775,
      "études": 5776,
      "rappeler": 5777,
      "profondeurs": 5778,
      "glisser": 5779,
      "lourde": 5780,
      "avançait": 5781,
      "souten": 5782,
      "singulière": 5783,
      "Souvent": 5784,
      "ridicule": 5785,
      "chaloupe": 5786,
      "Mortimer": 5787,
      "gigantes": 5788,
      "Grég": 5789,
      "Ju": 5790,
      "mât": 5791,
      "nue": 5792,
      "rela": 5793,
      "ani": 5794,
      "chu": 5795,
      "atre": 5796,
      "sias": 5797,
      "ducation": 5798,
      "towards": 5799,
      "terie": 5800,
      "mol": 5801,
      "couleurs": 5802,
      "quelconque": 5803,
      "inspir": 5804,
      "notice": 5805,
      "station": 5806,
      "justi": 5807,
      "prévu": 5808,
      "prévenir": 5809,
      "connaît": 5810,
      "octo": 5811,
      "cast": 5812,
      "donnai": 5813,
      "clou": 5814,
      "Ingram": 5815,
      "foot": 5816,
      "emporté": 5817,
      "écolier": 5818,
      "destinée": 5819,
      "épouvante": 5820,
      "chandelle": 5821,
      "natural": 5822,
      "Grégoire": 5823,
      "GE": 5824,
      "Galais": 5825,
      "Mé": 5826,
      "Vou": 5827,
      "ivement": 5828,
      "essu": 5829,
      "reuses": 5830,
      "incapable": 5831,
      "aisément": 5832,
      "proie": 5833,
      "euf": 5834,
      "passed": 5835,
      "absur": 5836,
      "récla": 5837,
      "exas": 5838,
      "adop": 5839,
      "proposition": 5840,
      "marbre": 5841,
      "marchant": 5842,
      "touché": 5843,
      "rob": 5844,
      "nerre": 5845,
      "ieuses": 5846,
      "ately": 5847,
      "profession": 5848,
      "canons": 5849,
      "appartenait": 5850,
      "meurtr": 5851,
      "pirogue": 5852,
      "passées": 5853,
      "reusement": 5854,
      "base": 5855,
      "instrument": 5856,
      "instruments": 5857,
      "déserte": 5858,
      "followed": 5859,
      "mâch": 5860,
      "prisonniers": 5861,
      "months": 5862,
      "possession": 5863,
      "cant": 5864,
      "clé": 5865,
      "dro": 5866,
      "gol": 5867,
      "sail": 5868,
      "scul": 5869,
      "ondu": 5870,
      "reprenait": 5871,
      "itut": 5872,
      "nex": 5873,
      "aurons": 5874,
      "ores": 5875,
      "roc": 5876,
      "emb": 5877,
      "cartes": 5878,
      "angers": 5879,
      "enceinte": 5880,
      "ghter": 5881,
      "correspond": 5882,
      "jeudi": 5883,
      "iquement": 5884,
      "certes": 5885,
      "muette": 5886,
      "passèrent": 5887,
      "désap": 5888,
      "derniere": 5889,
      "cloche": 5890,
      "clock": 5891,
      "reçut": 5892,
      "prisoner": 5893,
      "établis": 5894,
      "000": 5895,
      "danse": 5896,
      "Aussitôt": 5897,
      "apparaissait": 5898,
      "province": 5899,
      "formidable": 5900,
      "murmure": 5901,
      "Francis": 5902,
      "Ey": 5903,
      "My": 5904,
      "War": 5905,
      "fous": 5906,
      "laine": 5907,
      "mins": 5908,
      "pendre": 5909,
      "écha": 5910,
      "êle": 5911,
      "ailes": 5912,
      "reli": 5913,
      "entré": 5914,
      "sements": 5915,
      "réfu": 5916,
      "applau": 5917,
      "mono": 5918,
      "chere": 5919,
      "gren": 5920,
      "grotte": 5921,
      "cruel": 5922,
      "coude": 5923,
      "auxquels": 5924,
      "intim": 5925,
      "fray": 5926,
      "ford": 5927,
      "cherchant": 5928,
      "préparer": 5929,
      "impert": 5930,
      "boue": 5931,
      "docu": 5932,
      "lisière": 5933,
      "collè": 5934,
      "ignait": 5935,
      "délici": 5936,
      "produire": 5937,
      "agitation": 5938,
      "Geor": 5939,
      "accompagner": 5940,
      "provision": 5941,
      "désespéré": 5942,
      "enough": 5943,
      "passagers": 5944,
      "Far": 5945,
      "Wil": 5946,
      "XV": 5947,
      "adieu": 5948,
      "câ": 5949,
      "dle": 5950,
      "frég": 5951,
      "nded": 5952,
      "paille": 5953,
      "vêt": 5954,
      "yait": 5955,
      "âne": 5956,
      "isaient": 5957,
      "aume": 5958,
      "chette": 5959,
      "alter": 5960,
      "comprenez": 5961,
      "défen": 5962,
      "apais": 5963,
      "sue": 5964,
      "coque": 5965,
      "note": 5966,
      "fortement": 5967,
      "forêts": 5968,
      "obsc": 5969,
      "néanmoins": 5970,
      "cate": 5971,
      "jetée": 5972,
      "façons": 5973,
      "nommé": 5974,
      "assom": 5975,
      "wever": 5976,
      "ferez": 5977,
      "certitude": 5978,
      "bourn": 5979,
      "désirer": 5980,
      "Bonadventure": 5981,
      "aimez": 5982,
      "disparaître": 5983,
      "monstru": 5984,
      "refuser": 5985,
      "Milord": 5986,
      "avancer": 5987,
      "qualités": 5988,
      "cratère": 5989,
      "Highness": 5990,
      "diminu": 5991,
      "octobre": 5992,
      "Ré": 5993,
      "Sher": 5994,
      "iété": 5995,
      "endez": 5996,
      "urg": 5997,
      "chans": 5998,
      "prai": 5999,
      "trés": 6000,
      "réus": 6001,
      "pement": 6002,
      "couloir": 6003,
      "poing": 6004,
      "fron": 6005,
      "porta": 6006,
      "soupe": 6007,
      "nuage": 6008,
      "tumul": 6009,
      "illaient": 6010,
      "regardais": 6011,
      "tourné": 6012,
      "plans": 6013,
      "ruine": 6014,
      "connaissais": 6015,
      "jouait": 6016,
      "vraie": 6017,
      "plaisait": 6018,
      "soigne": 6019,
      "béné": 6020,
      "risque": 6021,
      "occupation": 6022,
      "doivent": 6023,
      "générale": 6024,
      "battu": 6025,
      "étrangers": 6026,
      "prochain": 6027,
      "reprises": 6028,
      "échappait": 6029,
      "Malgré": 6030,
      "Longbourn": 6031,
      "cabaret": 6032,
      "étoiles": 6033,
      "océan": 6034,
      "phénom": 6035,
      "Crois": 6036,
      "Fou": 6037,
      "God": 6038,
      "Liz": 6039,
      "Nord": 6040,
      "haie": 6041,
      "nier": 6042,
      "plon": 6043,
      "purent": 6044,
      "vendre": 6045,
      "écon": 6046,
      "édra": 6047,
      "deli": 6048,
      "near": 6049,
      "neur": 6050,
      "chon": 6051,
      "début": 6052,
      "diter": 6053,
      "vides": 6054,
      "mangé": 6055,
      "herbe": 6056,
      "capri": 6057,
      "arron": 6058,
      "offen": 6059,
      "gover": 6060,
      "quator": 6061,
      "saurais": 6062,
      "fonds": 6063,
      "mariée": 6064,
      "souffert": 6065,
      "approche": 6066,
      "conduisait": 6067,
      "vanité": 6068,
      "brusque": 6069,
      "dirigea": 6070,
      "tirant": 6071,
      "Messieurs": 6072,
      "vapeurs": 6073,
      "against": 6074,
      "draw": 6075,
      "complète": 6076,
      "obstacle": 6077,
      "élève": 6078,
      "indifférence": 6079,
      "printemps": 6080,
      "dangereux": 6081,
      "gonf": 6082,
      "Belcher": 6083,
      "angoisse": 6084,
      "enthousiasme": 6085,
      "décembre": 6086,
      "Eyre": 6087,
      "Lizzy": 6088,
      "hang": 6089,
      "ril": 6090,
      "rares": 6091,
      "yle": 6092,
      "repe": 6093,
      "inv": 6094,
      "ardeur": 6095,
      "lames": 6096,
      "ney": 6097,
      "memes": 6098,
      "trique": 6099,
      "menton": 6100,
      "ject": 6101,
      "lion": 6102,
      "dépit": 6103,
      "poursuivit": 6104,
      "vered": 6105,
      "disaient": 6106,
      "marque": 6107,
      "carré": 6108,
      "voulant": 6109,
      "arrivant": 6110,
      "prési": 6111,
      "mets": 6112,
      "rapporter": 6113,
      "boule": 6114,
      "promp": 6115,
      "donnée": 6116,
      "sauf": 6117,
      "accès": 6118,
      "figures": 6119,
      "bords": 6120,
      "observa": 6121,
      "sensation": 6122,
      "occupée": 6123,
      "véritablement": 6124,
      "chacune": 6125,
      "palais": 6126,
      "désirs": 6127,
      "Seigne": 6128,
      "exécution": 6129,
      "recherche": 6130,
      "haleine": 6131,
      "bizarre": 6132,
      "gestes": 6133,
      "cathédra": 6134,
      "major": 6135,
      "complete": 6136,
      "sublime": 6137,
      "Seigneur": 6138,
      "eûmes": 6139,
      "hours": 6140,
      "yer": 6141,
      "ymore": 6142,
      "çois": 6143,
      "éducation": 6144,
      "reme": 6145,
      "anvier": 6146,
      "choix": 6147,
      "dérou": 6148,
      "pourrai": 6149,
      "accept": 6150,
      "servant": 6151,
      "cocher": 6152,
      "voler": 6153,
      "permettait": 6154,
      "insis": 6155,
      "nove": 6156,
      "tened": 6157,
      "gné": 6158,
      "ténè": 6159,
      "carr": 6160,
      "bond": 6161,
      "complet": 6162,
      "hero": 6163,
      "voulaient": 6164,
      "vieil": 6165,
      "effroy": 6166,
      "calcul": 6167,
      "nuits": 6168,
      "appela": 6169,
      "lantes": 6170,
      "supposer": 6171,
      "arrêtait": 6172,
      "indivi": 6173,
      "pattes": 6174,
      "allure": 6175,
      "éloigna": 6176,
      "gouvernement": 6177,
      "précipita": 6178,
      "procès": 6179,
      "noyé": 6180,
      "Frank": 6181,
      "remuer": 6182,
      "Rouge": 6183,
      "terribles": 6184,
      "électri": 6185,
      "maman": 6186,
      "Barrymore": 6187,
      "ténèbres": 6188,
      "14": 6189,
      ":--«": 6190,
      "Am": 6191,
      "Ax": 6192,
      "Edie": 6193,
      "One": 6194,
      "ballon": 6195,
      "hard": 6196,
      "esc": 6197,
      "esses": 6198,
      "remont": 6199,
      "quérir": 6200,
      "teint": 6201,
      "tered": 6202,
      "ouvrier": 6203,
      "dict": 6204,
      "acé": 6205,
      "serra": 6206,
      "verrons": 6207,
      "velour": 6208,
      "mother": 6209,
      "image": 6210,
      "perdait": 6211,
      "marine": 6212,
      "pipe": 6213,
      "nouvel": 6214,
      "Conti": 6215,
      "poussant": 6216,
      "arrivaient": 6217,
      "formaient": 6218,
      "théâtre": 6219,
      "looking": 6220,
      "répéter": 6221,
      "conseils": 6222,
      "tabac": 6223,
      "carriage": 6224,
      "aveugle": 6225,
      "bohémienne": 6226,
      "extérieur": 6227,
      "excuse": 6228,
      "fameux": 6229,
      "replied": 6230,
      "diverses": 6231,
      "magasin": 6232,
      "Axel": 6233,
      "velours": 6234,
      "Av": 6235,
      "Cres": 6236,
      "ament": 6237,
      "ec": 6238,
      "gone": 6239,
      "hir": 6240,
      "nages": 6241,
      "rat": 6242,
      "tée": 6243,
      "zième": 6244,
      "ému": 6245,
      "ïs": 6246,
      "aid": 6247,
      "escla": 6248,
      "least": 6249,
      "chiens": 6250,
      "orage": 6251,
      "descri": 6252,
      "ably": 6253,
      "décri": 6254,
      "dign": 6255,
      "cole": 6256,
      "grain": 6257,
      "adou": 6258,
      "manoeuvre": 6259,
      "Aronna": 6260,
      "drez": 6261,
      "enflam": 6262,
      "does": 6263,
      "plaire": 6264,
      "personnages": 6265,
      "fear": 6266,
      "paupi": 6267,
      "contrar": 6268,
      "appel": 6269,
      "scand": 6270,
      "traversée": 6271,
      "bruits": 6272,
      "résistance": 6273,
      "produisit": 6274,
      "différence": 6275,
      "honour": 6276,
      "viendra": 6277,
      "établi": 6278,
      "employé": 6279,
      "employer": 6280,
      "pénétr": 6281,
      "terminé": 6282,
      "Jusqu": 6283,
      "stupi": 6284,
      "éteint": 6285,
      "apporté": 6286,
      "doubt": 6287,
      "suffisamment": 6288,
      "troublé": 6289,
      "ambition": 6290,
      "infiniment": 6291,
      "liquide": 6292,
      "tranquillité": 6293,
      "Aronnax": 6294,
      "Cacam": 6295,
      "Fait": 6296,
      "Jack": 6297,
      "Port": 6298,
      "ding": 6299,
      "pté": 6300,
      "stru": 6301,
      "tut": 6302,
      "Était": 6303,
      "ess": 6304,
      "ety": 6305,
      "inexpli": 6306,
      "inform": 6307,
      "audit": 6308,
      "chrét": 6309,
      "ork": 6310,
      "astre": 6311,
      "parent": 6312,
      "alie": 6313,
      "sonna": 6314,
      "ffe": 6315,
      "cession": 6316,
      "disput": 6317,
      "imprim": 6318,
      "sentence": 6319,
      "renvoy": 6320,
      "garçons": 6321,
      "ween": 6322,
      "détresse": 6323,
      "atif": 6324,
      "clos": 6325,
      "vingts": 6326,
      "berg": 6327,
      "sanglots": 6328,
      "élevait": 6329,
      "suffisait": 6330,
      "navig": 6331,
      "brisé": 6332,
      "cabine": 6333,
      "achevé": 6334,
      "satisfait": 6335,
      "éclata": 6336,
      "ouverts": 6337,
      "better": 6338,
      "étranges": 6339,
      "gardait": 6340,
      "fraîche": 6341,
      "superbe": 6342,
      "Voyez": 6343,
      "timide": 6344,
      "édifice": 6345,
      "serviteur": 6346,
      "négli": 6347,
      "vigoureux": 6348,
      "origin": 6349,
      "manifest": 6350,
      "Olivier": 6351,
      "Laissez": 6352,
      "document": 6353,
      "Wilson": 6354,
      "Cacambo": 6355,
      "Aux": 6356,
      "Her": 6357,
      "SE": 6358,
      "flè": 6359,
      "méc": 6360,
      "plis": 6361,
      "ronde": 6362,
      "sis": 6363,
      "sain": 6364,
      "zi": 6365,
      "dear": 6366,
      "entrant": 6367,
      "already": 6368,
      "rival": 6369,
      "amé": 6370,
      "approuv": 6371,
      "pourraient": 6372,
      "grille": 6373,
      "gel": 6374,
      "brillait": 6375,
      "écus": 6376,
      "ders": 6377,
      "tants": 6378,
      "soula": 6379,
      "attente": 6380,
      "pouvant": 6381,
      "coupé": 6382,
      "nulle": 6383,
      "voudrez": 6384,
      "forts": 6385,
      "affli": 6386,
      "lisait": 6387,
      "cédé": 6388,
      "barque": 6389,
      "redres": 6390,
      "espèces": 6391,
      "quitte": 6392,
      "morale": 6393,
      "amené": 6394,
      "transporter": 6395,
      "baisers": 6396,
      "adresser": 6397,
      "défendre": 6398,
      "planches": 6399,
      "annoncer": 6400,
      "work": 6401,
      "montré": 6402,
      "brought": 6403,
      "happen": 6404,
      "houille": 6405,
      "promettre": 6406,
      "meubles": 6407,
      "return": 6408,
      "Sauvages": 6409,
      "nettement": 6410,
      "Sud": 6411,
      "abîme": 6412,
      "routes": 6413,
      "frégate": 6414,
      "mécan": 6415,
      "After": 6416,
      "Blan": 6417,
      "Louvre": 6418,
      "Nég": 6419,
      "OR": 6420,
      "Roi": 6421,
      "TE": 6422,
      "To": 6423,
      "dar": 6424,
      "gle": 6425,
      "hes": 6426,
      "mant": 6427,
      "vallée": 6428,
      "ètres": 6429,
      "égar": 6430,
      "ané": 6431,
      "lament": 6432,
      "nel": 6433,
      "prêts": 6434,
      "tré": 6435,
      "also": 6436,
      "contenait": 6437,
      "comble": 6438,
      "récol": 6439,
      "réveill": 6440,
      "défin": 6441,
      "sueur": 6442,
      "acés": 6443,
      "dons": 6444,
      "uez": 6445,
      "because": 6446,
      "impas": 6447,
      "power": 6448,
      "addres": 6449,
      "embarr": 6450,
      "portaient": 6451,
      "laissaient": 6452,
      "taking": 6453,
      "affai": 6454,
      "impatient": 6455,
      "rapproch": 6456,
      "vitre": 6457,
      "assés": 6458,
      "plantes": 6459,
      "wered": 6460,
      "suspen": 6461,
      "Combien": 6462,
      "Augus": 6463,
      "lutter": 6464,
      "fact": 6465,
      "secondes": 6466,
      "bule": 6467,
      "précieux": 6468,
      "adressant": 6469,
      "existait": 6470,
      "située": 6471,
      "rempli": 6472,
      "ached": 6473,
      "achever": 6474,
      "between": 6475,
      "champion": 6476,
      "craignait": 6477,
      "particulièrement": 6478,
      "country": 6479,
      "Robin": 6480,
      "escape": 6481,
      "discussion": 6482,
      "spoke": 6483,
      "commerce": 6484,
      "paquebot": 6485,
      "itution": 6486,
      "quatorze": 6487,
      "Cour": 6488,
      "Né": 6489,
      "Tour": 6490,
      "Temple": 6491,
      "York": 6492,
      "biles": 6493,
      "gor": 6494,
      "sm": 6495,
      "sch": 6496,
      "sav": 6497,
      "vrier": 6498,
      "encourage": 6499,
      "aies": 6500,
      "reti": 6501,
      "lear": 6502,
      "insul": 6503,
      "ily": 6504,
      "avril": 6505,
      "siens": 6506,
      "alles": 6507,
      "rideau": 6508,
      "dées": 6509,
      "osé": 6510,
      "iennes": 6511,
      "ressemble": 6512,
      "verrez": 6513,
      "poète": 6514,
      "added": 6515,
      "fices": 6516,
      "emmen": 6517,
      "prises": 6518,
      "nul": 6519,
      "tonnerre": 6520,
      "époux": 6521,
      "écrite": 6522,
      "héros": 6523,
      "publique": 6524,
      "grima": 6525,
      "groupes": 6526,
      "excellente": 6527,
      "invités": 6528,
      "abandonnée": 6529,
      "orient": 6530,
      "stood": 6531,
      "iana": 6532,
      "renoncer": 6533,
      "régiment": 6534,
      "Voulez": 6535,
      ").": 6536,
      "AU": 6537,
      "Mo": 6538,
      "Maître": 6539,
      "Pren": 6540,
      "Vrai": 6541,
      "bert": 6542,
      "dangers": 6543,
      "each": 6544,
      "faus": 6545,
      "fît": 6546,
      "gat": 6547,
      "gaill": 6548,
      "janvier": 6549,
      "oler": 6550,
      "vesti": 6551,
      "éveill": 6552,
      "relations": 6553,
      "quen": 6554,
      "quête": 6555,
      "arres": 6556,
      "argu": 6557,
      "laves": 6558,
      "anti": 6559,
      "étoff": 6560,
      "passai": 6561,
      "agan": 6562,
      "respe": 6563,
      "actu": 6564,
      "sergent": 6565,
      "crét": 6566,
      "dissait": 6567,
      "ieres": 6568,
      "rente": 6569,
      "légu": 6570,
      "parts": 6571,
      "pressé": 6572,
      "ferais": 6573,
      "placée": 6574,
      "sources": 6575,
      "trice": 6576,
      "appes": 6577,
      "appét": 6578,
      "brig": 6579,
      "défend": 6580,
      "intérieure": 6581,
      "traversa": 6582,
      "médioc": 6583,
      "suivante": 6584,
      "charming": 6585,
      "plaindre": 6586,
      "following": 6587,
      "élevée": 6588,
      "attentivement": 6589,
      "construction": 6590,
      "élèves": 6591,
      "séminaire": 6592,
      "Négrel": 6593,
      "Adieu": 6594,
      "Diana": 6595,
      "Mich": 6596,
      "TI": 6597,
      "crép": 6598,
      "hos": 6599,
      "pôle": 6600,
      "sances": 6601,
      "street": 6602,
      "éper": 6603,
      "évent": 6604,
      "enois": 6605,
      "ought": 6606,
      "respirer": 6607,
      "serrait": 6608,
      "brume": 6609,
      "perspe": 6610,
      "journées": 6611,
      "proche": 6612,
      "rock": 6613,
      "séparer": 6614,
      "carte": 6615,
      "cuivre": 6616,
      "letti": 6617,
      "préf": 6618,
      "cade": 6619,
      "milit": 6620,
      "saisi": 6621,
      "grandeur": 6622,
      "couverte": 6623,
      "basses": 6624,
      "entendais": 6625,
      "apparition": 6626,
      "habitation": 6627,
      "Roche": 6628,
      "ordinaires": 6629,
      "Reine": 6630,
      "however": 6631,
      "galant": 6632,
      "fully": 6633,
      "quartier": 6634,
      "tremblante": 6635,
      "accomplir": 6636,
      "profondes": 6637,
      "pavillon": 6638,
      "multi": 6639,
      "électrique": 6640,
      "Guilla": 6641,
      "Excell": 6642,
      "libér": 6643,
      "Giletti": 6644,
      "humanité": 6645,
      "intelligent": 6646,
      "Certainement": 6647,
      "Croisenois": 6648,
      "Fouqué": 6649,
      "Der": 6650,
      "Hu": 6651,
      "MM": 6652,
      "Pet": 6653,
      "Pres": 6654,
      "Street": 6655,
      "din": 6656,
      "dri": 6657,
      "ross": 6658,
      "send": 6659,
      "stri": 6660,
      "enr": 6661,
      "recommencer": 6662,
      "erreur": 6663,
      "illu": 6664,
      "quemment": 6665,
      "parvint": 6666,
      "dégu": 6667,
      "apt": 6668,
      "pourrez": 6669,
      "cogn": 6670,
      "covered": 6671,
      "brun": 6672,
      "permit": 6673,
      "posant": 6674,
      "trouvèrent": 6675,
      "piano": 6676,
      "rench": 6677,
      "enfance": 6678,
      "centaines": 6679,
      "vitres": 6680,
      "cerveau": 6681,
      "fusion": 6682,
      "murailles": 6683,
      "barbe": 6684,
      "payé": 6685,
      "appelé": 6686,
      "claire": 6687,
      "genou": 6688,
      "illages": 6689,
      "louse": 6690,
      "chevalier": 6691,
      "briques": 6692,
      "fixé": 6693,
      "gouverneur": 6694,
      "disposé": 6695,
      "conviction": 6696,
      "silencieuse": 6697,
      "embrasser": 6698,
      "triomphe": 6699,
      "exerci": 6700,
      "naissance": 6701,
      "pped": 6702,
      "golfe": 6703,
      "cathédrale": 6704,
      "Cin": 6705,
      "Do": 6706,
      "ET": 6707,
      "Ho": 6708,
      "Loth": 6709,
      "ere": 6710,
      "jé": 6711,
      "râ": 6712,
      "ular": 6713,
      "vaient": 6714,
      "quad": 6715,
      "armé": 6716,
      "later": 6717,
      "issent": 6718,
      "omme": 6719,
      "alda": 6720,
      "absent": 6721,
      "améri": 6722,
      "acter": 6723,
      "serious": 6724,
      "cheve": 6725,
      "cious": 6726,
      "soeurs": 6727,
      "prolon": 6728,
      "venger": 6729,
      "chercha": 6730,
      "ports": 6731,
      "histoi": 6732,
      "nière": 6733,
      "coupée": 6734,
      "obtenu": 6735,
      "seuse": 6736,
      "mises": 6737,
      "renseigne": 6738,
      "habile": 6739,
      "colline": 6740,
      "calcu": 6741,
      "lène": 6742,
      "lasse": 6743,
      "croyant": 6744,
      "fixement": 6745,
      "pape": 6746,
      "occasions": 6747,
      "reconnaissant": 6748,
      "étendait": 6749,
      "étonnée": 6750,
      "gravement": 6751,
      "grimp": 6752,
      "distinguait": 6753,
      "Seine": 6754,
      "Hélène": 6755,
      "secoua": 6756,
      "invitation": 6757,
      "observations": 6758,
      "joyeuse": 6759,
      "obstin": 6760,
      "ramener": 6761,
      "anglaise": 6762,
      "propriétaire": 6763,
      "repentir": 6764,
      "querelle": 6765,
      "massif": 6766,
      "Sherlock": 6767,
      "soigneusement": 6768,
      "paupières": 6769,
      "améric": 6770,
      "histoires": 6771,
      ".)": 6772,
      "Cé": 6773,
      "Pri": 6774,
      "eight": 6775,
      "iant": 6776,
      "lout": 6777,
      "lance": 6778,
      "oit": 6779,
      "roses": 6780,
      "save": 6781,
      "scru": 6782,
      "este": 6783,
      "chent": 6784,
      "means": 6785,
      "omètre": 6786,
      "mention": 6787,
      "estom": 6788,
      "révér": 6789,
      "among": 6790,
      "diamants": 6791,
      "chemins": 6792,
      "grès": 6793,
      "verrai": 6794,
      "voiles": 6795,
      "voûte": 6796,
      "existe": 6797,
      "tendu": 6798,
      "rocher": 6799,
      "rarement": 6800,
      "puissante": 6801,
      "courus": 6802,
      "pensant": 6803,
      "soul": 6804,
      "style": 6805,
      "sentant": 6806,
      "meralda": 6807,
      "assemb": 6808,
      "places": 6809,
      "roues": 6810,
      "voice": 6811,
      "avantages": 6812,
      "Chac": 6813,
      "attendaient": 6814,
      "esprits": 6815,
      "naï": 6816,
      "bécile": 6817,
      "sinistre": 6818,
      "balles": 6819,
      "importante": 6820,
      "espérait": 6821,
      "chasseur": 6822,
      "conséquence": 6823,
      "orders": 6824,
      "craignais": 6825,
      "poignée": 6826,
      "vulg": 6827,
      "Lucas": 6828,
      "triomph": 6829,
      "Sansever": 6830,
      "girl": 6831,
      "dévouement": 6832,
      "végét": 6833,
      "above": 6834,
      "promptement": 6835,
      "Faites": 6836,
      "small": 6837,
      "Lothian": 6838,
      "Sanseverina": 6839,
      "yet": 6840,
      "dered": 6841,
      "quise": 6842,
      "paris": 6843,
      "débris": 6844,
      "coins": 6845,
      "cessé": 6846,
      "braves": 6847,
      "inspe": 6848,
      "autor": 6849,
      "fianc": 6850,
      "anges": 6851,
      "soulage": 6852,
      "pouvions": 6853,
      "voyons": 6854,
      "préfé": 6855,
      "pées": 6856,
      "empire": 6857,
      "cordes": 6858,
      "pho": 6859,
      "sortant": 6860,
      "couvent": 6861,
      "échant": 6862,
      "muet": 6863,
      "lantique": 6864,
      "bourreau": 6865,
      "joint": 6866,
      "regardé": 6867,
      "franchir": 6868,
      "décla": 6869,
      "fixés": 6870,
      "février": 6871,
      "bâton": 6872,
      "croit": 6873,
      "chaude": 6874,
      "armés": 6875,
      "soutenir": 6876,
      "contente": 6877,
      "physique": 6878,
      "volution": 6879,
      "bouteilles": 6880,
      "commode": 6881,
      "conserver": 6882,
      "recueil": 6883,
      "sincère": 6884,
      "refuge": 6885,
      "Chapitre": 6886,
      "Aucun": 6887,
      "pleasure": 6888,
      "daughter": 6889,
      "next": 6890,
      "obscure": 6891,
      "novembre": 6892,
      "Emp": 6893,
      "Tabor": 6894,
      "gour": 6895,
      "tins": 6896,
      "vînt": 6897,
      "wed": 6898,
      "chances": 6899,
      "étour": 6900,
      "alone": 6901,
      "lieux": 6902,
      "sum": 6903,
      "verrait": 6904,
      "exemp": 6905,
      "disent": 6906,
      "beaut": 6907,
      "tive": 6908,
      "érité": 6909,
      "tées": 6910,
      "devrait": 6911,
      "whose": 6912,
      "voyaient": 6913,
      "Arri": 6914,
      "effar": 6915,
      "jetés": 6916,
      "corne": 6917,
      "raille": 6918,
      "ancre": 6919,
      "prenais": 6920,
      "atifs": 6921,
      "quittait": 6922,
      "désirais": 6923,
      "meurtre": 6924,
      "cheminées": 6925,
      "conduisit": 6926,
      "Then": 6927,
      "désordre": 6928,
      "rompre": 6929,
      "Phili": 6930,
      "yourself": 6931,
      "envoya": 6932,
      "contenta": 6933,
      "exclam": 6934,
      "siècles": 6935,
      "humble": 6936,
      "volume": 6937,
      "magnifiques": 6938,
      "graves": 6939,
      "aiguë": 6940,
      "habitudes": 6941,
      "gether": 6942,
      "possédait": 6943,
      "souffrances": 6944,
      "Providence": 6945,
      "sympathie": 6946,
      "Bonnemort": 6947,
      "façade": 6948,
      "scrupu": 6949,
      "Low": 6950,
      "Palais": 6951,
      "bav": 6952,
      "cail": 6953,
      "daient": 6954,
      "gas": 6955,
      "gées": 6956,
      "gate": 6957,
      "jette": 6958,
      "uves": 6959,
      "writ": 6960,
      "enlever": 6961,
      "revinrent": 6962,
      "lecteur": 6963,
      "arder": 6964,
      "prêtres": 6965,
      "étés": 6966,
      "lucar": 6967,
      "sire": 6968,
      "riait": 6969,
      "answered": 6970,
      "convient": 6971,
      "agu": 6972,
      "agenou": 6973,
      "songé": 6974,
      "résul": 6975,
      "dégoût": 6976,
      "together": 6977,
      "crav": 6978,
      "crise": 6979,
      "brock": 6980,
      "poches": 6981,
      "éclu": 6982,
      "marri": 6983,
      "cherche": 6984,
      "aye": 6985,
      "break": 6986,
      "compl": 6987,
      "visites": 6988,
      "sours": 6989,
      "fusils": 6990,
      "clairement": 6991,
      "jouir": 6992,
      "ouvertes": 6993,
      "franchement": 6994,
      "promenait": 6995,
      "félicit": 6996,
      "ordinairement": 6997,
      "excès": 6998,
      "éclats": 6999,
      "veillance": 7000,
      "éclairait": 7001,
      "ENT": 7002,
      "fatal": 7003,
      "recherches": 7004,
      "philosophe": 7005,
      "perfect": 7006,
      "répugn": 7007,
      "Nouv": 7008,
      "Sous": 7009,
      "gam": 7010,
      "osa": 7011,
      "ster": 7012,
      "splend": 7013,
      "tirait": 7014,
      "lame": 7015,
      "isation": 7016,
      "ither": 7017,
      "seem": 7018,
      "urch": 7019,
      "chèrent": 7020,
      "étonne": 7021,
      "thor": 7022,
      "descente": 7023,
      "acu": 7024,
      "accrou": 7025,
      "serions": 7026,
      "civil": 7027,
      "vio": 7028,
      "bec": 7029,
      "ardins": 7030,
      "tile": 7031,
      "érup": 7032,
      "répète": 7033,
      "rafraî": 7034,
      "gueu": 7035,
      "mercier": 7036,
      "couple": 7037,
      "Quatre": 7038,
      "Ensuite": 7039,
      "fortes": 7040,
      "charpent": 7041,
      "chargés": 7042,
      "boulever": 7043,
      "tourb": 7044,
      "onnait": 7045,
      "onnée": 7046,
      "sourde": 7047,
      "casser": 7048,
      "gibier": 7049,
      "horloge": 7050,
      "aimée": 7051,
      "arrivai": 7052,
      "Inde": 7053,
      "consider": 7054,
      "balan": 7055,
      "ignore": 7056,
      "héris": 7057,
      "denbrock": 7058,
      "poisson": 7059,
      "Esmeralda": 7060,
      "flammes": 7061,
      "éclaire": 7062,
      "devoirs": 7063,
      "gouttes": 7064,
      "Lidenbrock": 7065,
      "consolation": 7066,
      "témoign": 7067,
      "mystérieux": 7068,
      "décision": 7069,
      "adversaire": 7070,
      "diterran": 7071,
      "perspective": 7072,
      "30": 7073,
      "AS": 7074,
      "Baz": 7075,
      "French": 7076,
      "RO": 7077,
      "Tre": 7078,
      "_A": 7079,
      "hire": 7080,
      "rité": 7081,
      "sk": 7082,
      "titre": 7083,
      "virent": 7084,
      "èvres": 7085,
      "éprouver": 7086,
      "entrai": 7087,
      "sex": 7088,
      "chim": 7089,
      "avoc": 7090,
      "ced": 7091,
      "paraly": 7092,
      "dépou": 7093,
      "ieme": 7094,
      "serrer": 7095,
      "forcée": 7096,
      "roche": 7097,
      "rentrait": 7098,
      "trouvez": 7099,
      "laissée": 7100,
      "emploi": 7101,
      "profound": 7102,
      "canne": 7103,
      "espagno": 7104,
      "selves": 7105,
      "commençaient": 7106,
      "jouis": 7107,
      "retournant": 7108,
      "souffrait": 7109,
      "attendit": 7110,
      "troupeau": 7111,
      "moulin": 7112,
      "tranquilles": 7113,
      "seeing": 7114,
      "papiers": 7115,
      "honorable": 7116,
      "nombreuses": 7117,
      "eye": 7118,
      "palis": 7119,
      "rencontra": 7120,
      "colonie": 7121,
      "assurance": 7122,
      "brouillard": 7123,
      "Merci": 7124,
      "gentlemen": 7125,
      "volontairement": 7126,
      "turned": 7127,
      "embarrassé": 7128,
      "réunis": 7129,
      "terrestre": 7130,
      "voisinage": 7131,
      "commander": 7132,
      "obligée": 7133,
      "douloureuse": 7134,
      "fosses": 7135,
      "expédition": 7136,
      "Pauvre": 7137,
      "carrosse": 7138,
      "individu": 7139,
      "Fri": 7140,
      "Sou": 7141,
      "XIII": 7142,
      "bare": 7143,
      "bete": 7144,
      "iv": 7145,
      "ibles": 7146,
      "maient": 7147,
      "ox": 7148,
      "ros": 7149,
      "tiers": 7150,
      "tables": 7151,
      "revient": 7152,
      "revenant": 7153,
      "astrop": 7154,
      "ceau": 7155,
      "prière": 7156,
      "truit": 7157,
      "sight": 7158,
      "conten": 7159,
      "grise": 7160,
      "cessa": 7161,
      "imbécile": 7162,
      "tifs": 7163,
      "trouvée": 7164,
      "guin": 7165,
      "entretenir": 7166,
      "lança": 7167,
      "empois": 7168,
      "onds": 7169,
      "Châ": 7170,
      "someth": 7171,
      "Mary": 7172,
      "traiter": 7173,
      "continuellement": 7174,
      "pareilles": 7175,
      "éleva": 7176,
      "mouth": 7177,
      "fool": 7178,
      "étudier": 7179,
      "attaque": 7180,
      "ronf": 7181,
      "dura": 7182,
      "lopin": 7183,
      "essayé": 7184,
      "catastrop": 7185,
      "demeurer": 7186,
      "interrompu": 7187,
      "souriait": 7188,
      "reproche": 7189,
      "hésita": 7190,
      "gramme": 7191,
      "year": 7192,
      "solitaire": 7193,
      "chaîne": 7194,
      "particulière": 7195,
      "œuvre": 7196,
      "inférieure": 7197,
      "supportable": 7198,
      "several": 7199,
      "Quelquefois": 7200,
      "exploration": 7201,
      "Néanmoins": 7202,
      "Michaud": 7203,
      "lucarne": 7204,
      "Bazin": 7205,
      "Clopin": 7206,
      "Ser": 7207,
      "Tandis": 7208,
      "UR": 7209,
      "ased": 7210,
      "bir": 7211,
      "bén": 7212,
      "ivres": 7213,
      "kes": 7214,
      "pés": 7215,
      "stre": 7216,
      "vend": 7217,
      "wood": 7218,
      "reposer": 7219,
      "really": 7220,
      "entions": 7221,
      "entendant": 7222,
      "itif": 7223,
      "orifi": 7224,
      "meurs": 7225,
      "true": 7226,
      "dépl": 7227,
      "apon": 7228,
      "diers": 7229,
      "sucre": 7230,
      "voleur": 7231,
      "ardente": 7232,
      "notes": 7233,
      "robes": 7234,
      "misère": 7235,
      "plaça": 7236,
      "aîné": 7237,
      "interval": 7238,
      "horses": 7239,
      "vraisemblable": 7240,
      "moral": 7241,
      "simples": 7242,
      "cepteur": 7243,
      "voitures": 7244,
      "prendrait": 7245,
      "pâles": 7246,
      "expliqua": 7247,
      "franchi": 7248,
      "services": 7249,
      "attaché": 7250,
      "endroits": 7251,
      "éloigné": 7252,
      "porion": 7253,
      "acheva": 7254,
      "pusse": 7255,
      "misere": 7256,
      "espérais": 7257,
      "Lys": 7258,
      "annonçait": 7259,
      "hâta": 7260,
      "suivaient": 7261,
      "soupçons": 7262,
      "principal": 7263,
      "logement": 7264,
      "fantas": 7265,
      "arreter": 7266,
      "obéir": 7267,
      "éclairée": 7268,
      "Rouen": 7269,
      "salua": 7270,
      "clerc": 7271,
      "équili": 7272,
      "Espagno": 7273,
      "Plusieurs": 7274,
      "Prenez": 7275,
      "20": 7276,
      "Br": 7277,
      "Gre": 7278,
      "IL": 7279,
      "Nos": 7280,
      "Seure": 7281,
      "Tor": 7282,
      "Yon": 7283,
      "bit": 7284,
      "bass": 7285,
      "cét": 7286,
      "jardins": 7287,
      "mite": 7288,
      "paire": 7289,
      "sci": 7290,
      "vîmes": 7291,
      "ètes": 7292,
      "ones": 7293,
      "ouragan": 7294,
      "union": 7295,
      "despair": 7296,
      "songea": 7297,
      "récom": 7298,
      "réci": 7299,
      "démarche": 7300,
      "déchir": 7301,
      "supr": 7302,
      "crâne": 7303,
      "couler": 7304,
      "poin": 7305,
      "intime": 7306,
      "courants": 7307,
      "complais": 7308,
      "cachée": 7309,
      "malaise": 7310,
      "gardé": 7311,
      "plaign": 7312,
      "gentils": 7313,
      "kept": 7314,
      "paysans": 7315,
      "effets": 7316,
      "descendant": 7317,
      "vastes": 7318,
      "largement": 7319,
      "rêves": 7320,
      "racontait": 7321,
      "greatly": 7322,
      "véritables": 7323,
      "confir": 7324,
      "bandes": 7325,
      "théor": 7326,
      "worth": 7327,
      "singulièrement": 7328,
      "tiroir": 7329,
      "lampes": 7330,
      "bâtiments": 7331,
      "plantation": 7332,
      "intéressant": 7333,
      "voyageur": 7334,
      "uniquement": 7335,
      "fabriquer": 7336,
      "anxiété": 7337,
      "cenzi": 7338,
      "cavalier": 7339,
      "accorder": 7340,
      "entretien": 7341,
      "fantaisie": 7342,
      "chanson": 7343,
      "Franklin": 7344,
      "Crescenzi": 7345,
      "Guillaume": 7346,
      "caillou": 7347,
      "something": 7348,
      "Seurel": 7349,
      "Cal": 7350,
      "Fleur": 7351,
      "Lis": 7352,
      "Tort": 7353,
      "Uni": 7354,
      "best": 7355,
      "bos": 7356,
      "date": 7357,
      "lord": 7358,
      "nèrent": 7359,
      "rure": 7360,
      "water": 7361,
      "élo": 7362,
      "rejoign": 7363,
      "nebres": 7364,
      "prici": 7365,
      "rican": 7366,
      "ago": 7367,
      "dépen": 7368,
      "apoth": 7369,
      "montant": 7370,
      "plumes": 7371,
      "aca": 7372,
      "serrant": 7373,
      "victoire": 7374,
      "beh": 7375,
      "begin": 7376,
      "marteau": 7377,
      "formée": 7378,
      "filet": 7379,
      "témoin": 7380,
      "ténebres": 7381,
      "endrez": 7382,
      "angé": 7383,
      "else": 7384,
      "partait": 7385,
      "number": 7386,
      "voulus": 7387,
      "visages": 7388,
      "prév": 7389,
      "renvers": 7390,
      "écrivit": 7391,
      "matéri": 7392,
      "déton": 7393,
      "lieutenant": 7394,
      "queton": 7395,
      "trahis": 7396,
      "pirates": 7397,
      "solenne": 7398,
      "tableau": 7399,
      "guere": 7400,
      "désagréable": 7401,
      "élever": 7402,
      "englout": 7403,
      "craintes": 7404,
      "considérer": 7405,
      "différentes": 7406,
      "remarquable": 7407,
      "confier": 7408,
      "métal": 7409,
      "juré": 7410,
      "bottes": 7411,
      "ignorait": 7412,
      "entrailles": 7413,
      "favorable": 7414,
      "difficultés": 7415,
      "suffisante": 7416,
      "vaguement": 7417,
      "retomba": 7418,
      "rougit": 7419,
      "revins": 7420,
      "prisonnier": 7421,
      "carried": 7422,
      "matelots": 7423,
      "baleine": 7424,
      "écurie": 7425,
      "révolte": 7426,
      "enchanté": 7427,
      "empressement": 7428,
      "excursion": 7429,
      "colere": 7430,
      "estomac": 7431,
      "Ciel": 7432,
      "Jock": 7433,
      "Lheureux": 7434,
      "Mous": 7435,
      "bille": 7436,
      "ize": 7437,
      "lité": 7438,
      "savaient": 7439,
      "spend": 7440,
      "wait": 7441,
      "war": 7442,
      "wall": 7443,
      "leçons": 7444,
      "arine": 7445,
      "iso": 7446,
      "isée": 7447,
      "avi": 7448,
      "prun": 7449,
      "pardonner": 7450,
      "rième": 7451,
      "uscule": 7452,
      "gras": 7453,
      "veilles": 7454,
      "poil": 7455,
      "auxquelles": 7456,
      "frères": 7457,
      "bleus": 7458,
      "ined": 7459,
      "opér": 7460,
      "méchant": 7461,
      "ferons": 7462,
      "caprici": 7463,
      "rencon": 7464,
      "rapides": 7465,
      "boucher": 7466,
      "goth": 7467,
      "color": 7468,
      "quatrième": 7469,
      "suspendu": 7470,
      "chérie": 7471,
      "juin": 7472,
      "hauts": 7473,
      "rompu": 7474,
      "ception": 7475,
      "leng": 7476,
      "créatures": 7477,
      "formed": 7478,
      "succé": 7479,
      "fixe": 7480,
      "uniforme": 7481,
      "région": 7482,
      "généralement": 7483,
      "ctivement": 7484,
      "métho": 7485,
      "diriger": 7486,
      "tremblait": 7487,
      "panier": 7488,
      "magistr": 7489,
      "Ouest": 7490,
      "médec": 7491,
      "affirmer": 7492,
      "hésitation": 7493,
      "Ferr": 7494,
      "enveloppe": 7495,
      "letters": 7496,
      "pantal": 7497,
      "naufrage": 7498,
      "Naples": 7499,
      "origine": 7500,
      "refusa": 7501,
      "vôtre": 7502,
      "secousse": 7503,
      "substance": 7504,
      "tumulte": 7505,
      "governor": 7506,
      "effroyable": 7507,
      "chevelure": 7508,
      "suprême": 7509,
      "Hong": 7510,
      "Mason": 7511,
      "Nether": 7512,
      "ase": 7513,
      "bl": 7514,
      "barrière": 7515,
      "cord": 7516,
      "hache": 7517,
      "hold": 7518,
      "plé": 7519,
      "veur": 7520,
      "èmes": 7521,
      "égo": 7522,
      "retiré": 7523,
      "itz": 7524,
      "nelle": 7525,
      "tements": 7526,
      "cheurs": 7527,
      "atri": 7528,
      "para": 7529,
      "conserv": 7530,
      "dépense": 7531,
      "diamant": 7532,
      "utter": 7533,
      "coû": 7534,
      "ffer": 7535,
      "pel": 7536,
      "ueill": 7537,
      "prolong": 7538,
      "manoir": 7539,
      "fif": 7540,
      "rol": 7541,
      "devons": 7542,
      "compan": 7543,
      "comptoir": 7544,
      "future": 7545,
      "oppos": 7546,
      "nerveux": 7547,
      "entreprise": 7548,
      "vreuse": 7549,
      "lancer": 7550,
      "menace": 7551,
      "cordi": 7552,
      "crimes": 7553,
      "traité": 7554,
      "contrée": 7555,
      "pria": 7556,
      "signes": 7557,
      "reçus": 7558,
      "régions": 7559,
      "remarquai": 7560,
      "sérieuse": 7561,
      "étendit": 7562,
      "sudden": 7563,
      "known": 7564,
      "couverts": 7565,
      "enfoncer": 7566,
      "brillant": 7567,
      "fellow": 7568,
      "souhaiter": 7569,
      "humidité": 7570,
      "returned": 7571,
      "éternelle": 7572,
      "secrète": 7573,
      "libert": 7574,
      "extremely": 7575,
      "chaises": 7576,
      "remplacer": 7577,
      "rêverie": 7578,
      "Écoutez": 7579,
      "fruits": 7580,
      "drawing": 7581,
      "Vraiment": 7582,
      "Yonville": 7583,
      "length": 7584,
      "Netherfield": 7585,
      "10": 7586,
      "Bomb": 7587,
      "Bah": 7588,
      "Dun": 7589,
      "How": 7590,
      "Leurs": 7591,
      "Mau": 7592,
      "Miss": 7593,
      "Vir": 7594,
      "Vier": 7595,
      "gène": 7596,
      "tente": 7597,
      "tyr": 7598,
      "villes": 7599,
      "za": 7600,
      "envoie": 7601,
      "aigre": 7602,
      "remise": 7603,
      "leuse": 7604,
      "anon": 7605,
      "incend": 7606,
      "inconnue": 7607,
      "issue": 7608,
      "teen": 7609,
      "chen": 7610,
      "child": 7611,
      "pratique": 7612,
      "parvenir": 7613,
      "parurent": 7614,
      "conç": 7615,
      "liez": 7616,
      "ageux": 7617,
      "apportait": 7618,
      "diables": 7619,
      "offer": 7620,
      "serie": 7621,
      "seriez": 7622,
      "volé": 7623,
      "vereign": 7624,
      "motif": 7625,
      "vives": 7626,
      "become": 7627,
      "coupe": 7628,
      "coulait": 7629,
      "brous": 7630,
      "admettre": 7631,
      "perles": 7632,
      "tenais": 7633,
      "rentre": 7634,
      "penchant": 7635,
      "restai": 7636,
      "demandant": 7637,
      "ensité": 7638,
      "barre": 7639,
      "joux": 7640,
      "Grant": 7641,
      "famous": 7642,
      "habitée": 7643,
      "engager": 7644,
      "volée": 7645,
      "inquiète": 7646,
      "produits": 7647,
      "différent": 7648,
      "gagnait": 7649,
      "chapelle": 7650,
      "emporta": 7651,
      "remplir": 7652,
      "espérances": 7653,
      "hands": 7654,
      "chirurg": 7655,
      "traînait": 7656,
      "trouverez": 7657,
      "dispositions": 7658,
      "souterr": 7659,
      "réservoir": 7660,
      "master": 7661,
      "procurer": 7662,
      "entraîner": 7663,
      "itive": 7664,
      "issements": 7665,
      "plaisanterie": 7666,
      "gloire": 7667,
      "flanc": 7668,
      "flancs": 7669,
      "précautions": 7670,
      "inférieur": 7671,
      "innocent": 7672,
      "mélancolique": 7673,
      "sourcils": 7674,
      "tambour": 7675,
      "délivr": 7676,
      "admirer": 7677,
      "indeed": 7678,
      "write": 7679,
      "Méditerran": 7680,
      "impertin": 7681,
      "gellis": 7682,
      "Tregellis": 7683,
      "orifice": 7684,
      "apothic": 7685,
      "Méditerranée": 7686,
      "Aut": 7687,
      "Croy": 7688,
      "Kong": 7689,
      "Pré": 7690,
      "Rich": 7691,
      "Sac": 7692,
      "Tamis": 7693,
      "Ven": 7694,
      "With": 7695,
      "bad": 7696,
      "cand": 7697,
      "kind": 7698,
      "mord": 7699,
      "ël": 7700,
      "reb": 7701,
      "recommença": 7702,
      "quées": 7703,
      "issante": 7704,
      "lugu": 7705,
      "parlaient": 7706,
      "consult": 7707,
      "lic": 7708,
      "comé": 7709,
      "appréhen": 7710,
      "pourrions": 7711,
      "ffon": 7712,
      "hel": 7713,
      "imprudence": 7714,
      "proportion": 7715,
      "fire": 7716,
      "angles": 7717,
      "minér": 7718,
      "partirent": 7719,
      "Encore": 7720,
      "jambe": 7721,
      "affais": 7722,
      "crimine": 7723,
      "gémis": 7724,
      "Chélan": 7725,
      "profiter": 7726,
      "souris": 7727,
      "célè": 7728,
      "iot": 7729,
      "gies": 7730,
      "commencèrent": 7731,
      "lanterne": 7732,
      "pital": 7733,
      "Grève": 7734,
      "causé": 7735,
      "indiquait": 7736,
      "baissa": 7737,
      "allumé": 7738,
      "emportait": 7739,
      "apperç": 7740,
      "meilleurs": 7741,
      "secrets": 7742,
      "colonne": 7743,
      "royaume": 7744,
      "refusé": 7745,
      "appuyé": 7746,
      "séparait": 7747,
      "Grivet": 7748,
      "préparatifs": 7749,
      "écriture": 7750,
      "friends": 7751,
      "empecher": 7752,
      "mystérieuse": 7753,
      "moindres": 7754,
      "inexplicable": 7755,
      "renseignements": 7756,
      "Mousqueton": 7757,
      "Bombay": 7758,
      "apothicaire": 7759,
      "Tamise": 7760,
      ".'": 7761,
      "Ab": 7762,
      "Ceux": 7763,
      "Cons": 7764,
      "Dis": 7765,
      "Savez": 7766,
      "William": 7767,
      "ao": 7768,
      "bans": 7769,
      "cter": 7770,
      "lât": 7771,
      "naux": 7772,
      "olo": 7773,
      "slight": 7774,
      "vienne": 7775,
      "relever": 7776,
      "dead": 7777,
      "lab": 7778,
      "chê": 7779,
      "chants": 7780,
      "oigne": 7781,
      "thous": 7782,
      "parc": 7783,
      "parfum": 7784,
      "live": 7785,
      "réveiller": 7786,
      "dédain": 7787,
      "amas": 7788,
      "pourriez": 7789,
      "irré": 7790,
      "monu": 7791,
      "sut": 7792,
      "serré": 7793,
      "verra": 7794,
      "cry": 7795,
      "croir": 7796,
      "exam": 7797,
      "beg": 7798,
      "ardent": 7799,
      "brune": 7800,
      "éro": 7801,
      "manches": 7802,
      "série": 7803,
      "deviné": 7804,
      "valets": 7805,
      "occur": 7806,
      "Parfois": 7807,
      "suivie": 7808,
      "capitale": 7809,
      "gieux": 7810,
      "Autri": 7811,
      "vaisseaux": 7812,
      "clin": 7813,
      "soif": 7814,
      "quinzaine": 7815,
      "paysage": 7816,
      "plaisirs": 7817,
      "attaquer": 7818,
      "tendres": 7819,
      "glissa": 7820,
      "éclater": 7821,
      "immobiles": 7822,
      "réfléchi": 7823,
      "mérit": 7824,
      "chasseurs": 7825,
      "suivirent": 7826,
      "gravité": 7827,
      "apporta": 7828,
      "turn": 7829,
      "remerci": 7830,
      "fermés": 7831,
      "attraper": 7832,
      "Berks": 7833,
      "plaira": 7834,
      "cendres": 7835,
      "Pierron": 7836,
      "Espagne": 7837,
      "échappé": 7838,
      "humili": 7839,
      "abominable": 7840,
      "cérémonie": 7841,
      "sculpt": 7842,
      "défense": 7843,
      "phénomène": 7844,
      "crépuscule": 7845,
      "Chacun": 7846,
      "soulagement": 7847,
      "gentilshommes": 7848,
      "prévôt": 7849,
      "Autriche": 7850,
      "Dreb": 7851,
      "Hur": 7852,
      "Now": 7853,
      "adu": 7854,
      "dè": 7855,
      "grie": 7856,
      "nds": 7857,
      "pât": 7858,
      "tord": 7859,
      "ward": 7860,
      "épreuve": 7861,
      "leag": 7862,
      "ini": 7863,
      "ino": 7864,
      "itty": 7865,
      "ury": 7866,
      "lueurs": 7867,
      "alo": 7868,
      "rires": 7869,
      "confond": 7870,
      "limit": 7871,
      "agi": 7872,
      "décor": 7873,
      "poursuivre": 7874,
      "endur": 7875,
      "sacré": 7876,
      "acier": 7877,
      "exag": 7878,
      "pol": 7879,
      "poings": 7880,
      "admit": 7881,
      "emprun": 7882,
      "mêlé": 7883,
      "portail": 7884,
      "soud": 7885,
      "soulier": 7886,
      "nières": 7887,
      "retir": 7888,
      "lancé": 7889,
      "aillir": 7890,
      "arranger": 7891,
      "impéri": 7892,
      "bouillon": 7893,
      "rup": 7894,
      "shill": 7895,
      "full": 7896,
      "joué": 7897,
      "trib": 7898,
      "appartient": 7899,
      "tentative": 7900,
      "Anne": 7901,
      "morne": 7902,
      "ajoutait": 7903,
      "Hein": 7904,
      "écouta": 7905,
      "travaillait": 7906,
      "droits": 7907,
      "laid": 7908,
      "attacher": 7909,
      "anyone": 7910,
      "émilly": 7911,
      "glaci": 7912,
      "branche": 7913,
      "obliged": 7914,
      "traversé": 7915,
      "Atlantique": 7916,
      "nourrice": 7917,
      "ignorance": 7918,
      "pleurait": 7919,
      "tressaillit": 7920,
      "reproches": 7921,
      "remonta": 7922,
      "remontait": 7923,
      "embrassa": 7924,
      "exécuter": 7925,
      "attrap": 7926,
      "samedi": 7927,
      "tremblement": 7928,
      "hypoth": 7929,
      "distraire": 7930,
      "Rosémilly": 7931,
      "dissimuler": 7932,
      "account": 7933,
      "braham": 7934,
      "mollus": 7935,
      "gaillard": 7936,
      "multipli": 7937,
      "Cécile": 7938,
      "Lowood": 7939,
      "écluse": 7940,
      "Drebber": 7941,
      "Dur": 7942,
      "Mor": 7943,
      "Soy": 7944,
      "Tris": 7945,
      "TER": 7946,
      "bod": 7947,
      "hion": 7948,
      "idi": 7949,
      "rous": 7950,
      "ravis": 7951,
      "spent": 7952,
      "wished": 7953,
      "«--": 7954,
      "essai": 7955,
      "reve": 7956,
      "retrouva": 7957,
      "retrouvé": 7958,
      "ilé": 7959,
      "ault": 7960,
      "quez": 7961,
      "paroi": 7962,
      "along": 7963,
      "convenait": 7964,
      "contenir": 7965,
      "abio": 7966,
      "irrésis": 7967,
      "toits": 7968,
      "verres": 7969,
      "examen": 7970,
      "distribu": 7971,
      "posed": 7972,
      "inspi": 7973,
      "journaux": 7974,
      "venons": 7975,
      "marécha": 7976,
      "allées": 7977,
      "autom": 7978,
      "cherché": 7979,
      "guen": 7980,
      "médit": 7981,
      "oly": 7982,
      "mettr": 7983,
      "chargée": 7984,
      "bougie": 7985,
      "assaient": 7986,
      "demandais": 7987,
      "milliers": 7988,
      "Parmi": 7989,
      "irez": 7990,
      "interest": 7991,
      "trouverait": 7992,
      "grossi": 7993,
      "passport": 7994,
      "battant": 7995,
      "moustaches": 7996,
      "rendis": 7997,
      "décidément": 7998,
      "paterne": 7999,
      "Italy": 8000,
      "levés": 8001,
      "quarter": 8002,
      "demoiselles": 8003,
      "LES": 8004,
      "effrayé": 8005,
      "masses": 8006,
      "éteindre": 8007,
      "refuse": 8008,
      "favour": 8009,
      "itivement": 8010,
      "jaunes": 8011,
      "remercier": 8012,
      "fournir": 8013,
      "fatigué": 8014,
      "naufragés": 8015,
      "persuader": 8016,
      "réveilla": 8017,
      "modeste": 8018,
      "indignation": 8019,
      "spirit": 8020,
      "largeur": 8021,
      "modifi": 8022,
      "économ": 8023,
      "Avon": 8024,
      "dignité": 8025,
      "crétion": 8026,
      "Excellency": 8027,
      "avocat": 8028,
      "chirurgien": 8029,
      "délivrance": 8030,
      "thousand": 8031,
      "maréchale": 8032,
      "Celle": 8033,
      "Cité": 8034,
      "baign": 8035,
      "blâ": 8036,
      "cing": 8037,
      "daign": 8038,
      "fun": 8039,
      "ptu": 8040,
      "vine": 8041,
      "veuse": 8042,
      "yton": 8043,
      "quences": 8044,
      "infortun": 8045,
      "chot": 8046,
      "parap": 8047,
      "alté": 8048,
      "destru": 8049,
      "duel": 8050,
      "consom": 8051,
      "confusion": 8052,
      "abe": 8053,
      "réc": 8054,
      "apporte": 8055,
      "oser": 8056,
      "acide": 8057,
      "cide": 8058,
      "extrav": 8059,
      "lover": 8060,
      "loved": 8061,
      "pool": 8062,
      "ady": 8063,
      "forcer": 8064,
      "douleurs": 8065,
      "versité": 8066,
      "roulait": 8067,
      "longitude": 8068,
      "fortunes": 8069,
      "cadeau": 8070,
      "drew": 8071,
      "character": 8072,
      "show": 8073,
      "gibet": 8074,
      "donnés": 8075,
      "musi": 8076,
      "lieue": 8077,
      "grec": 8078,
      "morrow": 8079,
      "saying": 8080,
      "andises": 8081,
      "sanglo": 8082,
      "allusion": 8083,
      "atteign": 8084,
      "seigneurs": 8085,
      "remplis": 8086,
      "tendait": 8087,
      "appui": 8088,
      "fréquemment": 8089,
      "rangs": 8090,
      "appuyant": 8091,
      "procureur": 8092,
      "accompli": 8093,
      "brillants": 8094,
      "silencieusement": 8095,
      "Coquen": 8096,
      "women": 8097,
      "besoins": 8098,
      "speaking": 8099,
      "Mouquette": 8100,
      "blood": 8101,
      "douloureux": 8102,
      "prodig": 8103,
      "oléon": 8104,
      "échappa": 8105,
      "Fausta": 8106,
      "statue": 8107,
      "régulièrement": 8108,
      "noticed": 8109,
      "Coquenard": 8110,
      "Brock": 8111,
      "Nan": 8112,
      "Well": 8113,
      "aér": 8114,
      "cors": 8115,
      "fîmes": 8116,
      "gly": 8117,
      "paper": 8118,
      "ranc": 8119,
      "smi": 8120,
      "Égy": 8121,
      "devient": 8122,
      "quins": 8123,
      "entendez": 8124,
      "insupportable": 8125,
      "illus": 8126,
      "illumin": 8127,
      "need": 8128,
      "sives": 8129,
      "révolution": 8130,
      "dépe": 8131,
      "often": 8132,
      "moder": 8133,
      "proposa": 8134,
      "mangeait": 8135,
      "manoeu": 8136,
      "gnant": 8137,
      "télé": 8138,
      "partager": 8139,
      "merveilles": 8140,
      "preuves": 8141,
      "effac": 8142,
      "chariot": 8143,
      "restèrent": 8144,
      "habité": 8145,
      "égale": 8146,
      "couvrait": 8147,
      "continuai": 8148,
      "prières": 8149,
      "veste": 8150,
      "vingtaine": 8151,
      "moyenne": 8152,
      "allumer": 8153,
      "mène": 8154,
      "gaoler": 8155,
      "marchandises": 8156,
      "monstres": 8157,
      "éprouvé": 8158,
      "éclatant": 8159,
      "respectu": 8160,
      "oeufs": 8161,
      "étonnant": 8162,
      "hélice": 8163,
      "préparé": 8164,
      "vivante": 8165,
      "laugh": 8166,
      "Liver": 8167,
      "pistolets": 8168,
      "galeries": 8169,
      "féro": 8170,
      "choisi": 8171,
      "choisir": 8172,
      "fatale": 8173,
      "Ferrier": 8174,
      "merveilleux": 8175,
      "compliment": 8176,
      "XIV": 8177,
      "chaussée": 8178,
      "fatiguée": 8179,
      "exception": 8180,
      "recula": 8181,
      "caresses": 8182,
      "conclusion": 8183,
      "respiration": 8184,
      "Robert": 8185,
      "savants": 8186,
      "généreux": 8187,
      "thirty": 8188,
      "déploy": 8189,
      "insensible": 8190,
      "atroce": 8191,
      "Augustin": 8192,
      "grimace": 8193,
      "août": 8194,
      "Soyez": 8195,
      "Tristan": 8196,
      "extravag": 8197,
      "Égypte": 8198,
      "DU": 8199,
      "Fé": 8200,
      "Kitty": 8201,
      "OI": 8202,
      "Pont": 8203,
      "Roy": 8204,
      "Ville": 8205,
      "buis": 8206,
      "evi": 8207,
      "gs": 8208,
      "hag": 8209,
      "swe": 8210,
      "tasse": 8211,
      "vente": 8212,
      "ys": 8213,
      "ébou": 8214,
      "reached": 8215,
      "devenus": 8216,
      "isol": 8217,
      "ilair": 8218,
      "concent": 8219,
      "agité": 8220,
      "abb": 8221,
      "désh": 8222,
      "amert": 8223,
      "danser": 8224,
      "ouvrant": 8225,
      "osités": 8226,
      "mond": 8227,
      "max": 8228,
      "veines": 8229,
      "exige": 8230,
      "dise": 8231,
      "disposer": 8232,
      "disparaissait": 8233,
      "admin": 8234,
      "inscri": 8235,
      "frag": 8236,
      "forger": 8237,
      "maintenir": 8238,
      "rentré": 8239,
      "cules": 8240,
      "numér": 8241,
      "valu": 8242,
      "talle": 8243,
      "occident": 8244,
      "emparer": 8245,
      "impuis": 8246,
      "bouff": 8247,
      "within": 8248,
      "ruin": 8249,
      "giana": 8250,
      "donnent": 8251,
      "connaissances": 8252,
      "détest": 8253,
      "filled": 8254,
      "pittor": 8255,
      "attends": 8256,
      "lass": 8257,
      "froids": 8258,
      "signif": 8259,
      "Frilair": 8260,
      "maudit": 8261,
      "regardez": 8262,
      "découvrit": 8263,
      "pâleur": 8264,
      "crédu": 8265,
      "crédit": 8266,
      "succe": 8267,
      "adressa": 8268,
      "bridge": 8269,
      "brisée": 8270,
      "honor": 8271,
      "harpon": 8272,
      "spec": 8273,
      "défendu": 8274,
      "balay": 8275,
      "annonça": 8276,
      "hurst": 8277,
      "hésiter": 8278,
      "entraîné": 8279,
      "panneaux": 8280,
      "drag": 8281,
      "fâch": 8282,
      "mérid": 8283,
      "reprocher": 8284,
      "frappait": 8285,
      "écarter": 8286,
      "Sovereign": 8287,
      "tarder": 8288,
      "sabots": 8289,
      "réduit": 8290,
      "Napoléon": 8291,
      "fashion": 8292,
      "successivement": 8293,
      "respons": 8294,
      "Riche": 8295,
      "luxe": 8296,
      "débarrasser": 8297,
      "QUE": 8298,
      "indispen": 8299,
      "procureuse": 8300,
      "goûter": 8301,
      "gendarmes": 8302,
      "clésias": 8303,
      "Georgiana": 8304,
      "navigation": 8305,
      "impassible": 8306,
      "Cinq": 8307,
      "marriage": 8308,
      "billets": 8309,
      "Liverpool": 8310,
      "pittores": 8311,
      "13": 8312,
      "Frol": 8313,
      "Neuf": 8314,
      "PAR": 8315,
      "Tom": 8316,
      "casse": 8317,
      "dil": 8318,
      "gèrent": 8319,
      "gique": 8320,
      "jà": 8321,
      "rail": 8322,
      "tai": 8323,
      "vainement": 8324,
      "revol": 8325,
      "referma": 8326,
      "incon": 8327,
      "infer": 8328,
      "armoire": 8329,
      "church": 8330,
      "attemp": 8331,
      "tris": 8332,
      "parages": 8333,
      "alous": 8334,
      "treize": 8335,
      "conter": 8336,
      "concert": 8337,
      "commission": 8338,
      "grond": 8339,
      "illement": 8340,
      "cimet": 8341,
      "exagé": 8342,
      "adroite": 8343,
      "perdit": 8344,
      "procession": 8345,
      "manquaient": 8346,
      "répan": 8347,
      "finissait": 8348,
      "pensif": 8349,
      "elhurst": 8350,
      "soudre": 8351,
      "souleva": 8352,
      "douces": 8353,
      "presence": 8354,
      "illart": 8355,
      "arriere": 8356,
      "regardèrent": 8357,
      "mettaient": 8358,
      "Lestrade": 8359,
      "entered": 8360,
      "larité": 8361,
      "sortirent": 8362,
      "rupt": 8363,
      "matière": 8364,
      "collines": 8365,
      "shou": 8366,
      "échau": 8367,
      "échal": 8368,
      "souviens": 8369,
      "facul": 8370,
      "crever": 8371,
      "creux": 8372,
      "mount": 8373,
      "rappelez": 8374,
      "longuement": 8375,
      "dressait": 8376,
      "prisonnière": 8377,
      "agitait": 8378,
      "éloignée": 8379,
      "héro": 8380,
      "palpit": 8381,
      "voudrait": 8382,
      "changea": 8383,
      "flottait": 8384,
      "Lydie": 8385,
      "livrer": 8386,
      "assuré": 8387,
      "réfléchis": 8388,
      "brûlait": 8389,
      "accompagné": 8390,
      "étonnait": 8391,
      "écoute": 8392,
      "accomplis": 8393,
      "secouant": 8394,
      "Bolo": 8395,
      "nécessairement": 8396,
      "fantôme": 8397,
      "jaloux": 8398,
      "menaçait": 8399,
      "Déjà": 8400,
      "transports": 8401,
      "persuadé": 8402,
      "object": 8403,
      "cteurs": 8404,
      "dominait": 8405,
      "distinctement": 8406,
      "sèche": 8407,
      "échelles": 8408,
      "Rivers": 8409,
      "détruire": 8410,
      "graph": 8411,
      "abattre": 8412,
      "UNE": 8413,
      "moutons": 8414,
      "président": 8415,
      "ecclésias": 8416,
      "appétit": 8417,
      "illusion": 8418,
      "exercice": 8419,
      "Croyez": 8420,
      "Brockelhurst": 8421,
      "Frollo": 8422,
      "Ca": 8423,
      "Cont": 8424,
      "DI": 8425,
      "Imp": 8426,
      "Réqu": 8427,
      "Sam": 8428,
      "cais": 8429,
      "cue": 8430,
      "coff": 8431,
      "ele": 8432,
      "gants": 8433,
      "tac": 8434,
      "tance": 8435,
      "tise": 8436,
      "wat": 8437,
      "encour": 8438,
      "outr": 8439,
      "revenaient": 8440,
      "ently": 8441,
      "invisible": 8442,
      "asmin": 8443,
      "paresse": 8444,
      "als": 8445,
      "--,": 8446,
      "apit": 8447,
      "surprendre": 8448,
      "monte": 8449,
      "frac": 8450,
      "progrès": 8451,
      "tiques": 8452,
      "tivement": 8453,
      "érence": 8454,
      "allong": 8455,
      "touchait": 8456,
      "tesse": 8457,
      "rentrant": 8458,
      "possibles": 8459,
      "réponses": 8460,
      "voul": 8461,
      "cache": 8462,
      "cachait": 8463,
      "cachet": 8464,
      "arrest": 8465,
      "arrête": 8466,
      "jetai": 8467,
      "nomme": 8468,
      "habiller": 8469,
      "ruisse": 8470,
      "week": 8471,
      "oreiller": 8472,
      "prime": 8473,
      "demandez": 8474,
      "froideur": 8475,
      "approchant": 8476,
      "dommage": 8477,
      "miracle": 8478,
      "oubliez": 8479,
      "buff": 8480,
      "aimed": 8481,
      "baissant": 8482,
      "RES": 8483,
      "incidents": 8484,
      "sensations": 8485,
      "différente": 8486,
      "agréables": 8487,
      "farouche": 8488,
      "oblige": 8489,
      "veulent": 8490,
      "arms": 8491,
      "fied": 8492,
      "dirige": 8493,
      "malades": 8494,
      "brûler": 8495,
      "tremblant": 8496,
      "honnêtes": 8497,
      "plaisanteries": 8498,
      "dettes": 8499,
      "pommes": 8500,
      "dégage": 8501,
      "consoler": 8502,
      "construire": 8503,
      "éléments": 8504,
      "élégance": 8505,
      "explosion": 8506,
      "Souvarine": 8507,
      "éternel": 8508,
      "sourcil": 8509,
      "regagner": 8510,
      "absorb": 8511,
      "arreta": 8512,
      "castle": 8513,
      "caprice": 8514,
      "gueule": 8515,
      "Bologna": 8516,
      "Réquillart": 8517,
      "Dou": 8518,
      "IX": 8519,
      "Mis": 8520,
      "Pem": 8521,
      "afr": 8522,
      "dirent": 8523,
      "elier": 8524,
      "path": 8525,
      "savons": 8526,
      "vaud": 8527,
      "won": 8528,
      "encre": 8529,
      "essouff": 8530,
      "leaving": 8531,
      "aring": 8532,
      "antz": 8533,
      "attirer": 8534,
      "parall": 8535,
      "answer": 8536,
      "combattre": 8537,
      "déch": 8538,
      "ambre": 8539,
      "irrité": 8540,
      "actes": 8541,
      "modé": 8542,
      "vile": 8543,
      "adroit": 8544,
      "intense": 8545,
      "ties": 8546,
      "marcha": 8547,
      "tendez": 8548,
      "autorité": 8549,
      "rote": 8550,
      "mêlée": 8551,
      "retint": 8552,
      "party": 8553,
      "roue": 8554,
      "vase": 8555,
      "charpente": 8556,
      "écrivait": 8557,
      "offert": 8558,
      "itudes": 8559,
      "notaire": 8560,
      "promise": 8561,
      "giving": 8562,
      "prennent": 8563,
      "contri": 8564,
      "contras": 8565,
      "claimed": 8566,
      "berley": 8567,
      "berline": 8568,
      "passés": 8569,
      "familles": 8570,
      "famili": 8571,
      "amours": 8572,
      "Frantz": 8573,
      "précip": 8574,
      "décidée": 8575,
      "constamment": 8576,
      "inquiéter": 8577,
      "entendue": 8578,
      "singular": 8579,
      "themselves": 8580,
      "assister": 8581,
      "satisfaite": 8582,
      "voudra": 8583,
      "confidence": 8584,
      "examina": 8585,
      "syst": 8586,
      "prononcé": 8587,
      "terminée": 8588,
      "James": 8589,
      "talent": 8590,
      "Meryton": 8591,
      "vivants": 8592,
      "intérêts": 8593,
      "contempler": 8594,
      "supplice": 8595,
      "inclina": 8596,
      "horriblement": 8597,
      "troubler": 8598,
      "sabre": 8599,
      "sottise": 8600,
      "enseign": 8601,
      "interroger": 8602,
      "bloc": 8603,
      "activité": 8604,
      "black": 8605,
      "réussir": 8606,
      "gratitude": 8607,
      "mélancolie": 8608,
      "plongé": 8609,
      "discuter": 8610,
      "ologie": 8611,
      "trembler": 8612,
      "établissement": 8613,
      "Wardes": 8614,
      "remember": 8615,
      "dark": 8616,
      "échantillons": 8617,
      "catastrophe": 8618,
      "équilibre": 8619,
      "Tortue": 8620,
      "gothique": 8621,
      "amertume": 8622,
      "Pemberley": 8623,
      "afraid": 8624,
      "25": 8625,
      "Ap": 8626,
      "King": 8627,
      "Pi": 8628,
      "Raver": 8629,
      "Vol": 8630,
      "bancs": 8631,
      "coffre": 8632,
      "fes": 8633,
      "fure": 8634,
      "fell": 8635,
      "hide": 8636,
      "ior": 8637,
      "ome": 8638,
      "tie": 8639,
      "wrote": 8640,
      "yards": 8641,
      "reparut": 8642,
      "reclu": 8643,
      "devo": 8644,
      "devenaient": 8645,
      "quèrent": 8646,
      "arc": 8647,
      "ises": 8648,
      "illo": 8649,
      "auront": 8650,
      "urne": 8651,
      "aston": 8652,
      "rirent": 8653,
      "comes": 8654,
      "résil": 8655,
      "ambas": 8656,
      "monn": 8657,
      "chefs": 8658,
      "messe": 8659,
      "grin": 8660,
      "veine": 8661,
      "cram": 8662,
      "molue": 8663,
      "vivres": 8664,
      "éris": 8665,
      "bleue": 8666,
      "file": 8667,
      "fidè": 8668,
      "possibilité": 8669,
      "bonhomme": 8670,
      "gui": 8671,
      "guéri": 8672,
      "nies": 8673,
      "nerveuse": 8674,
      "placés": 8675,
      "vaques": 8676,
      "nombr": 8677,
      "restés": 8678,
      "lits": 8679,
      "vén": 8680,
      "pleines": 8681,
      "short": 8682,
      "ship": 8683,
      "lève": 8684,
      "horri": 8685,
      "tombaient": 8686,
      "Demain": 8687,
      "Devant": 8688,
      "morency": 8689,
      "audience": 8690,
      "general": 8691,
      "soldiers": 8692,
      "marquise": 8693,
      "Charmolue": 8694,
      "indiquer": 8695,
      "Indes": 8696,
      "suffi": 8697,
      "pesait": 8698,
      "éloigne": 8699,
      "adressait": 8700,
      "recevait": 8701,
      "lâcher": 8702,
      "battaient": 8703,
      "glacée": 8704,
      "affectu": 8705,
      "châti": 8706,
      "campagn": 8707,
      "désespér": 8708,
      "espérant": 8709,
      "meilleures": 8710,
      "Toujours": 8711,
      "mauvaises": 8712,
      "volupté": 8713,
      "entouré": 8714,
      "hélas": 8715,
      "instructions": 8716,
      "Montmorency": 8717,
      "principes": 8718,
      "obstacles": 8719,
      "endormi": 8720,
      "Fervaques": 8721,
      "middle": 8722,
      "condamné": 8723,
      "OUR": 8724,
      "abattu": 8725,
      "lumineux": 8726,
      "sorci": 8727,
      "héritage": 8728,
      "Aucune": 8729,
      "Fausse": 8730,
      "machinalement": 8731,
      "gigantesque": 8732,
      "réfugi": 8733,
      "jésuite": 8734,
      "inspecteur": 8735,
      "Nouvelle": 8736,
      "pantalon": 8737,
      "Raversi": 8738,
      "Dix": 8739,
      "Derville": 8740,
      "Fin": 8741,
      "Fors": 8742,
      "Fabio": 8743,
      "Hô": 8744,
      "Ta": 8745,
      "caut": 8746,
      "eas": 8747,
      "fres": 8748,
      "lost": 8749,
      "mette": 8750,
      "rather": 8751,
      "tendant": 8752,
      "vés": 8753,
      "ôter": 8754,
      "retrouvait": 8755,
      "leçon": 8756,
      "quoti": 8757,
      "nephe": 8758,
      "tective": 8759,
      "avirons": 8760,
      "meet": 8761,
      "assou": 8762,
      "aspir": 8763,
      "prît": 8764,
      "lum": 8765,
      "pardonne": 8766,
      "rion": 8767,
      "rich": 8768,
      "past": 8769,
      "libres": 8770,
      "compos": 8771,
      "composait": 8772,
      "sonnaient": 8773,
      "déri": 8774,
      "ief": 8775,
      "diam": 8776,
      "diction": 8777,
      "accrois": 8778,
      "ingéni": 8779,
      "mess": 8780,
      "illez": 8781,
      "cros": 8782,
      "exacte": 8783,
      "bey": 8784,
      "impres": 8785,
      "installe": 8786,
      "manieres": 8787,
      "marines": 8788,
      "emmener": 8789,
      "gnon": 8790,
      "carreau": 8791,
      "possè": 8792,
      "state": 8793,
      "compagne": 8794,
      "opport": 8795,
      "entreprendre": 8796,
      "pieux": 8797,
      "pige": 8798,
      "capables": 8799,
      "centaine": 8800,
      "profil": 8801,
      "baronn": 8802,
      "détroit": 8803,
      "Mademoiselle": 8804,
      "quittant": 8805,
      "priai": 8806,
      "judi": 8807,
      "retournai": 8808,
      "appartenant": 8809,
      "tenté": 8810,
      "conduis": 8811,
      "arrivâmes": 8812,
      "louer": 8813,
      "explications": 8814,
      "sûrement": 8815,
      "during": 8816,
      "cruelle": 8817,
      "strange": 8818,
      "marchaient": 8819,
      "contenter": 8820,
      "immenses": 8821,
      "traîner": 8822,
      "illées": 8823,
      "malheurs": 8824,
      "assura": 8825,
      "appuya": 8826,
      "effrayée": 8827,
      "accompagnait": 8828,
      "Justement": 8829,
      "ground": 8830,
      "rooms": 8831,
      "déclaré": 8832,
      "vivaient": 8833,
      "librement": 8834,
      "craignant": 8835,
      "frappant": 8836,
      "engagea": 8837,
      "épouvantable": 8838,
      "épaisseur": 8839,
      "reculer": 8840,
      "objection": 8841,
      "propriété": 8842,
      "stupéfait": 8843,
      "loisir": 8844,
      "Gaston": 8845,
      "blonde": 8846,
      "mâchoire": 8847,
      "behind": 8848,
      "administr": 8849,
      "méridion": 8850,
      "Forster": 8851,
      "nephew": 8852,
      "Béb": 8853,
      "Har": 8854,
      "Hip": 8855,
      "ME": 8856,
      "Mai": 8857,
      "Sne": 8858,
      "Sour": 8859,
      "Trou": 8860,
      "VII": 8861,
      "ben": 8862,
      "fles": 8863,
      "jeux": 8864,
      "jures": 8865,
      "kill": 8866,
      "ms": 8867,
      "paient": 8868,
      "rages": 8869,
      "ronne": 8870,
      "tte": 8871,
      "escar": 8872,
      "remè": 8873,
      "erre": 8874,
      "entrion": 8875,
      "ised": 8876,
      "seur": 8877,
      "mean": 8878,
      "ash": 8879,
      "antique": 8880,
      "prou": 8881,
      "ating": 8882,
      "allions": 8883,
      "sad": 8884,
      "iemment": 8885,
      "monseigneur": 8886,
      "resplend": 8887,
      "eurre": 8888,
      "acces": 8889,
      "ington": 8890,
      "mesures": 8891,
      "coquin": 8892,
      "vertes": 8893,
      "verdure": 8894,
      "ffels": 8895,
      "voil": 8896,
      "voleurs": 8897,
      "crête": 8898,
      "moquer": 8899,
      "logne": 8900,
      "couchée": 8901,
      "ado": 8902,
      "adv": 8903,
      "fiacre": 8904,
      "toucha": 8905,
      "rentrée": 8906,
      "courb": 8907,
      "laissai": 8908,
      "guise": 8909,
      "réponds": 8910,
      "coupait": 8911,
      "plats": 8912,
      "raisonnement": 8913,
      "empreinte": 8914,
      "mettrait": 8915,
      "crimin": 8916,
      "boucles": 8917,
      "gardez": 8918,
      "semblant": 8919,
      "Chris": 8920,
      "plante": 8921,
      "promont": 8922,
      "souven": 8923,
      "tombai": 8924,
      "tombèrent": 8925,
      "Mahi": 8926,
      "atives": 8927,
      "donnerait": 8928,
      "truands": 8929,
      "habitait": 8930,
      "fenetre": 8931,
      "Miche": 8932,
      "navi": 8933,
      "ongles": 8934,
      "écoutant": 8935,
      "descendirent": 8936,
      "cloches": 8937,
      "cruellement": 8938,
      "septentrion": 8939,
      "Why": 8940,
      "fatigues": 8941,
      "disposée": 8942,
      "caractères": 8943,
      "couverture": 8944,
      "Griffon": 8945,
      "enfonçait": 8946,
      "songeant": 8947,
      "fraîcheur": 8948,
      "understand": 8949,
      "incessamment": 8950,
      "indifférent": 8951,
      "ptembre": 8952,
      "secrétaire": 8953,
      "praticable": 8954,
      "avertir": 8955,
      "Chapelier": 8956,
      "aliment": 8957,
      "perfection": 8958,
      "Germain": 8959,
      "franchise": 8960,
      "Diable": 8961,
      "***": 8962,
      "collège": 8963,
      "scandale": 8964,
      "happened": 8965,
      "cailloux": 8966,
      "célèbre": 8967,
      "fracas": 8968,
      "recluse": 8969,
      "Bébert": 8970,
      "Sneffels": 8971,
      "AT": 8972,
      "Afri": 8973,
      "Crom": 8974,
      "Dom": 8975,
      "Ir": 8976,
      "Jasmin": 8977,
      "Lady": 8978,
      "Mas": 8979,
      "Même": 8980,
      "Porte": 8981,
      "Sil": 8982,
      "Str": 8983,
      "beurre": 8984,
      "cise": 8985,
      "failli": 8986,
      "ial": 8987,
      "lants": 8988,
      "mû": 8989,
      "nô": 8990,
      "naître": 8991,
      "oli": 8992,
      "ples": 8993,
      "pag": 8994,
      "want": 8995,
      "ômes": 8996,
      "enlevé": 8997,
      "ouci": 8998,
      "repous": 8999,
      "deuil": 9000,
      "ink": 9001,
      "innombr": 9002,
      "lave": 9003,
      "septembre": 9004,
      "unhappy": 9005,
      "eulin": 9006,
      "atter": 9007,
      "pari": 9008,
      "dest": 9009,
      "duches": 9010,
      "rési": 9011,
      "appareils": 9012,
      "pourrons": 9013,
      "osais": 9014,
      "divine": 9015,
      "gronde": 9016,
      "illed": 9017,
      "gez": 9018,
      "disci": 9019,
      "intentions": 9020,
      "carg": 9021,
      "carreaux": 9022,
      "couronne": 9023,
      "whether": 9024,
      "portions": 9025,
      "sentaient": 9026,
      "compère": 9027,
      "précepteur": 9028,
      "nommer": 9029,
      "épave": 9030,
      "ruption": 9031,
      "matières": 9032,
      "big": 9033,
      "silhou": 9034,
      "audace": 9035,
      "truth": 9036,
      "pauvreté": 9037,
      "Quels": 9038,
      "amena": 9039,
      "montée": 9040,
      "période": 9041,
      "fixer": 9042,
      "pentes": 9043,
      "trompée": 9044,
      "Rochelle": 9045,
      "harp": 9046,
      "poral": 9047,
      "pussent": 9048,
      "muscles": 9049,
      "furieuse": 9050,
      "flottant": 9051,
      "jurés": 9052,
      "doutes": 9053,
      "doutait": 9054,
      "principale": 9055,
      "halte": 9056,
      "brillaient": 9057,
      "conséquences": 9058,
      "pleuré": 9059,
      "arrêtée": 9060,
      "pistolet": 9061,
      "fermant": 9062,
      "poignard": 9063,
      "éléph": 9064,
      "Islande": 9065,
      "Norbert": 9066,
      "taillis": 9067,
      "excessive": 9068,
      "floor": 9069,
      "dédaigne": 9070,
      "sagesse": 9071,
      "Deneulin": 9072,
      "escort": 9073,
      "décrire": 9074,
      "éruption": 9075,
      "intervalles": 9076,
      "lugubre": 9077,
      "body": 9078,
      "destruction": 9079,
      "rancune": 9080,
      "Richelieu": 9081,
      "tristement": 9082,
      "ecclésiastique": 9083,
      "\"'": 9084,
      "AL": 9085,
      "Bru": 9086,
      "Brésil": 9087,
      "Del": 9088,
      "Hor": 9089,
      "Piet": 9090,
      "lomb": 9091,
      "range": 9092,
      "çaise": 9093,
      "ône": 9094,
      "envoyait": 9095,
      "onor": 9096,
      "relevant": 9097,
      "lead": 9098,
      "insu": 9099,
      "incre": 9100,
      "incrédu": 9101,
      "medi": 9102,
      "assent": 9103,
      "ceaux": 9104,
      "aisé": 9105,
      "eue": 9106,
      "pars": 9107,
      "régnait": 9108,
      "résoudre": 9109,
      "débou": 9110,
      "iraient": 9111,
      "oises": 9112,
      "across": 9113,
      "util": 9114,
      "verts": 9115,
      "ffes": 9116,
      "cesser": 9117,
      "ped": 9118,
      "dissant": 9119,
      "brand": 9120,
      "bring": 9121,
      "posez": 9122,
      "insouci": 9123,
      "manage": 9124,
      "marques": 9125,
      "réparer": 9126,
      "rot": 9127,
      "rah": 9128,
      "mêle": 9129,
      "devrais": 9130,
      "minces": 9131,
      "stone": 9132,
      "stup": 9133,
      "menait": 9134,
      "edy": 9135,
      "fate": 9136,
      "ruines": 9137,
      "rudement": 9138,
      "vention": 9139,
      "pleu": 9140,
      "cannot": 9141,
      "clear": 9142,
      "capital": 9143,
      "détach": 9144,
      "keen": 9145,
      "tombant": 9146,
      "continuaient": 9147,
      "siles": 9148,
      "artiste": 9149,
      "amies": 9150,
      "fromage": 9151,
      "faces": 9152,
      "occupe": 9153,
      "signor": 9154,
      "acheté": 9155,
      "louis": 9156,
      "jolies": 9157,
      "suffo": 9158,
      "engagé": 9159,
      "délire": 9160,
      "balcon": 9161,
      "circul": 9162,
      "clocher": 9163,
      "émue": 9164,
      "mètre": 9165,
      "remplie": 9166,
      "streng": 9167,
      "dences": 9168,
      "lourds": 9169,
      "chiennes": 9170,
      "embarquer": 9171,
      "nourris": 9172,
      "ralent": 9173,
      "contact": 9174,
      "contentement": 9175,
      "étrangère": 9176,
      "séparation": 9177,
      "arraché": 9178,
      "enfermé": 9179,
      "astille": 9180,
      "principa": 9181,
      "aiguille": 9182,
      "volontaire": 9183,
      "Liber": 9184,
      "brillante": 9185,
      "réunion": 9186,
      "endormir": 9187,
      "frappée": 9188,
      "étonner": 9189,
      "obéis": 9190,
      "attendez": 9191,
      "bagages": 9192,
      "élégante": 9193,
      "réveillé": 9194,
      "livrée": 9195,
      "consentement": 9196,
      "dérange": 9197,
      "mesurait": 9198,
      "industr": 9199,
      "enfuir": 9200,
      "husband": 9201,
      "protection": 9202,
      "réclamer": 9203,
      "prairie": 9204,
      "struck": 9205,
      "améli": 9206,
      "gathe": 9207,
      "beauty": 9208,
      "_Abraham": 9209,
      "Université": 9210,
      "Vierge": 9211,
      "help": 9212,
      "mollusques": 9213,
      "Hôtel": 9214,
      "fresh": 9215,
      "baronnet": 9216,
      "Afrique": 9217,
      "cargaison": 9218,
      "Bastille": 9219,
      "Clu": 9220,
      "Cop": 9221,
      "Fal": 9222,
      "Grace": 9223,
      "Hume": 9224,
      "Lap": 9225,
      "Pouv": 9226,
      "Suez": 9227,
      "cien": 9228,
      "call": 9229,
      "darde": 9230,
      "ered": 9231,
      "eded": 9232,
      "flun": 9233,
      "oche": 9234,
      "paie": 9235,
      "sister": 9236,
      "sainte": 9237,
      "wagon": 9238,
      "zire": 9239,
      "éveiller": 9240,
      "ouï": 9241,
      "remor": 9242,
      "retenu": 9243,
      "recogn": 9244,
      "lade": 9245,
      "teurs": 9246,
      "étique": 9247,
      "convenir": 9248,
      "commettre": 9249,
      "débor": 9250,
      "dénou": 9251,
      "aplomb": 9252,
      "plut": 9253,
      "cote": 9254,
      "copi": 9255,
      "grains": 9256,
      "vey": 9257,
      "molle": 9258,
      "vibr": 9259,
      "exposer": 9260,
      "biens": 9261,
      "became": 9262,
      "popul": 9263,
      "allèrent": 9264,
      "faith": 9265,
      "mies": 9266,
      "gnée": 9267,
      "pencha": 9268,
      "Lake": 9269,
      "ophy": 9270,
      "coupés": 9271,
      "obt": 9272,
      "nues": 9273,
      "view": 9274,
      "dog": 9275,
      "garant": 9276,
      "saisissant": 9277,
      "cône": 9278,
      "égor": 9279,
      "calmer": 9280,
      "Marchiennes": 9281,
      "barreaux": 9282,
      "giques": 9283,
      "espion": 9284,
      "mités": 9285,
      "curieuse": 9286,
      "appelez": 9287,
      "sillon": 9288,
      "soldier": 9289,
      "roman": 9290,
      "buvait": 9291,
      "expliquait": 9292,
      "pouces": 9293,
      "infâme": 9294,
      "descendaient": 9295,
      "gallop": 9296,
      "agitée": 9297,
      "satisfaire": 9298,
      "quarts": 9299,
      "apercevant": 9300,
      "flotte": 9301,
      "traversait": 9302,
      "vivacité": 9303,
      "enfonça": 9304,
      "interrompre": 9305,
      "remarque": 9306,
      "accusé": 9307,
      "causaient": 9308,
      "Alzire": 9309,
      "Lincoln_": 9310,
      "stop": 9311,
      "richesses": 9312,
      "abondance": 9313,
      "bague": 9314,
      "recommandé": 9315,
      "débit": 9316,
      "trottoir": 9317,
      "achevait": 9318,
      "envahis": 9319,
      "déranger": 9320,
      "indul": 9321,
      "kilometres": 9322,
      "wife": 9323,
      "intimité": 9324,
      "vêtue": 9325,
      "insista": 9326,
      "récolte": 9327,
      "learned": 9328,
      "Rochefort": 9329,
      "vulgaire": 9330,
      "tourbillon": 9331,
      "paradis": 9332,
      "limites": 9333,
      "Sab": 9334,
      "VIII": 9335,
      "barri": 9336,
      "caire": 9337,
      "dalles": 9338,
      "fest": 9339,
      "flé": 9340,
      "hant": 9341,
      "lente": 9342,
      "nit": 9343,
      "niers": 9344,
      "sti": 9345,
      "yez": 9346,
      "Êtes": 9347,
      "envi": 9348,
      "espere": 9349,
      "real": 9350,
      "reins": 9351,
      "indé": 9352,
      "teinte": 9353,
      "chât": 9354,
      "étreinte": 9355,
      "trépi": 9356,
      "jeant": 9357,
      "jealous": 9358,
      "réal": 9359,
      "dénon": 9360,
      "appare": 9361,
[...]
