{
  "version": "1.0",
  "truncation": null,
  "padding": null,
  "added_tokens": [
    {
      "id": 0,
      "content": "[UNK]",
      "single_word": false,
      "lstrip": false,
      "rstrip": false,
      "normalized": false,
      "special": true
    },
    {
      "id": 1,
      "content": "[SOS]",
      "single_word": false,
      "lstrip": false,
      "rstrip": false,
      "normalized": false,
      "special": true
    },
    {
      "id": 2,
      "content": "[EOS]",
      "single_word": false,
      "lstrip": false,
      "rstrip": false,
      "normalized": false,
      "special": true
    },
    {
      "id": 3,
      "content": "[PAD]",
      "single_word": false,
      "lstrip": false,
      "rstrip": false,
      "normalized": false,
      "special": true
    }
  ],
  "normalizer": null,
  "pre_tokenizer": {
    "type": "Whitespace"
  },
  "post_processor": null,
  "decoder": null,
  "model": {
    "type": "BPE",
    "dropout": null,
    "unk_token": null,
    "continuing_subword_prefix": null,
    "end_of_word_suffix": null,
    "fuse_unk": false,
    "byte_fallback": false,
    "ignore_merges": false,
    "vocab": {
      "[UNK]": 0,
      "[SOS]": 1,
      "[EOS]": 2,
      "[PAD]": 3,
      "!": 4,
      "\"": 5,
      "#": 6,
      "$": 7,
      "%": 8,
      "&": 9,
      "'": 10,
      "(": 11,
      ")": 12,
      "*": 13,
      "+": 14,
      ",": 15,
      "-": 16,
      ".": 17,
      "/": 18,
      "0": 19,
      "1": 20,
      "2": 21,
      "3": 22,
      "4": 23,
      "5": 24,
      "6": 25,
      "7": 26,
      "8": 27,
      "9": 28,
      ":": 29,
      ";": 30,
      "=": 31,
      ">": 32,
      "?": 33,
      "A": 34,
      "B": 35,
      "C": 36,
      "D": 37,
      "E": 38,
      "F": 39,
      "G": 40,
      "H": 41,
      "I": 42,
      "J": 43,
      "K": 44,
      "L": 45,
      "M": 46,
      "N": 47,
      "O": 48,
      "P": 49,
      "Q": 50,
      "R": 51,
      "S": 52,
      "T": 53,
      "U": 54,
      "V": 55,
      "W": 56,
      "X": 57,
      "Y": 58,
      "Z": 59,
      "[": 60,
      "]": 61,
      "_": 62,
      "`": 63,
      "a": 64,
      "b": 65,
      "c": 66,
      "d": 67,
      "e": 68,
      "f": 69,
      "g": 70,
      "h": 71,
      "i": 72,
      "j": 73,
      "k": 74,
      "l": 75,
      "m": 76,
      "n": 77,
      "o": 78,
      "p": 79,
      "q": 80,
      "r": 81,
      "s": 82,
      "t": 83,
      "u": 84,
      "v": 85,
      "w": 86,
      "x": 87,
      "y": 88,
      "z": 89,
      "{": 90,
      "}": 91,
      "~": 92,
      "£": 93,
      "«": 94,
      "°": 95,
      "»": 96,
      "Æ": 97,
      "Ç": 98,
      "É": 99,
      "à": 100,
      "â": 101,
      "ã": 102,
      "ä": 103,
      "æ": 104,
      "ç": 105,
      "è": 106,
      "é": 107,
      "ê": 108,
      "ë": 109,
      "î": 110,
      "ï": 111,
      "ô": 112,
      "ö": 113,
      "ù": 114,
      "û": 115,
      "ü": 116,
      "Œ": 117,
      "œ": 118,
      "έ": 119,
      "ί": 120,
      "α": 121,
      "β": 122,
      "γ": 123,
      "ε": 124,
      "ι": 125,
      "κ": 126,
      "λ": 127,
      "μ": 128,
      "ν": 129,
      "ο": 130,
      "τ": 131,
      "φ": 132,
      "ϊ": 133,
      "ό": 134,
      "А": 135,
      "Г": 136,
      "Н": 137,
      "–": 138,
      "—": 139,
      "‘": 140,
      "’": 141,
      "“": 142,
      "”": 143,
      "…": 144,
      "−": 145,
      "he": 146,
      "in": 147,
      "the": 148,
      "an": 149,
      "re": 150,
      "ou": 151,
      "on": 152,
      "th": 153,
      "er": 154,
      "en": 155,
      "at": 156,
      "is": 157,
      "ed": 158,
      "as": 159,
      "to": 160,
      "and": 161,
      "of": 162,
      "le": 163,
      "ing": 164,
      "ar": 165,
      "it": 166,
      "or": 167,
      "es": 168,
      "ll": 169,
      "se": 170,
      "ha": 171,
      "me": 172,
      "st": 173,
      "de": 174,
      "be": 175,
      "hi": 176,
      "no": 177,
      "ce": 178,
      "ro": 179,
      "ch": 180,
      "was": 181,
      "ve": 182,
      "ent": 183,
      "wi": 184,
      "ld": 185,
      "al": 186,
      "that": 187,
      "li": 188,
      "ut": 189,
      "ri": 190,
      "ly": 191,
      "we": 192,
      "gh": 193,
      "you": 194,
      "his": 195,
      "ir": 196,
      "ver": 197,
      "for": 198,
      "with": 199,
      "la": 200,
      "un": 201,
      "sa": 202,
      "ho": 203,
      "id": 204,
      "had": 205,
      "ion": 206,
      "qu": 207,
      "ur": 208,
      "so": 209,
      "co": 210,
      "all": 211,
      "her": 212,
      "lo": 213,
      "ter": 214,
      "et": 215,
      "ra": 216,
      "ould": 217,
      "not": 218,
      "mo": 219,
      "ne": 220,
      "ta": 221,
      "ght": 222,
      "ad": 223,
      "il": 224,
      "us": 225,
      "The": 226,
      "my": 227,
      "ma": 228,
      "him": 229,
      "out": 230,
      "whi": 231,
      "our": 232,
      "fe": 233,
      "red": 234,
      "pe": 235,
      "ac": 236,
      "su": 237,
      "ther": 238,
      "ab": 239,
      "ay": 240,
      "te": 241,
      "con": 242,
      "ke": 243,
      "ti": 244,
      "po": 245,
      "one": 246,
      "which": 247,
      "do": 248,
      "si": 249,
      ".\"": 250,
      "she": 251,
      "res": 252,
      "mp": 253,
      "nd": 254,
      "up": 255,
      "ge": 256,
      "have": 257,
      "ard": 258,
      "man": 259,
      "ca": 260,
      "by": 261,
      "ous": 262,
      "go": 263,
      "this": 264,
      "ct": 265,
      "rom": 266,
      "but": 267,
      "am": 268,
      "les": 269,
      "ant": 270,
      "ck": 271,
      "who": 272,
      "ex": 273,
      "hat": 274,
      "if": 275,
      "ment": 276,
      "from": 277,
      "od": 278,
      "were": 279,
      "said": 280,
      "whe": 281,
      "lf": 282,
      "fo": 283,
      "they": 284,
      "end": 285,
      "ag": 286,
      "ast": 287,
      "ow": 288,
      "per": 289,
      "would": 290,
      ",\"": 291,
      "now": 292,
      "very": 293,
      "ul": 294,
      "est": 295,
      "fa": 296,
      "are": 297,
      "wo": 298,
      "fi": 299,
      "thing": 300,
      "ess": 301,
      "ong": 302,
      "par": 303,
      "them": 304,
      "ust": 305,
      "rou": 306,
      "self": 307,
      "ain": 308,
      "ation": 309,
      "ap": 310,
      "He": 311,
      "che": 312,
      "ok": 313,
      "ind": 314,
      "el": 315,
      "sh": 316,
      "?\"": 317,
      "ist": 318,
      "ven": 319,
      "see": 320,
      "some": 321,
      "wor": 322,
      "ure": 323,
      "their": 324,
      "ble": 325,
      "way": 326,
      "bo": 327,
      "ight": 328,
      "there": 329,
      "ill": 330,
      "der": 331,
      "could": 332,
      "ran": 333,
      "pro": 334,
      "been": 335,
      "ass": 336,
      "will": 337,
      "ate": 338,
      "com": 339,
      "ine": 340,
      "que": 341,
      "ite": 342,
      "ait": 343,
      "It": 344,
      "pr": 345,
      "ic": 346,
      "!\"": 347,
      "af": 348,
      "--": 349,
      "day": 350,
      "vo": 351,
      "when": 352,
      "wn": 353,
      "other": 354,
      "med": 355,
      "what": 356,
      "ers": 357,
      "ru": 358,
      "itt": 359,
      "ved": 360,
      "ry": 361,
      "op": 362,
      "ans": 363,
      "au": 364,
      "more": 365,
      "di": 366,
      "your": 367,
      "gn": 368,
      "mb": 369,
      "gre": 370,
      "ound": 371,
      "thou": 372,
      "ence": 373,
      "urn": 374,
      "tain": 375,
      "des": 376,
      "any": 377,
      "pla": 378,
      "king": 379,
      "fore": 380,
      "du": 381,
      "then": 382,
      "nt": 383,
      "ci": 384,
      "dis": 385,
      "vi": 386,
      "ort": 387,
      "But": 388,
      "into": 389,
      "tre": 390,
      "let": 391,
      "pp": 392,
      "long": 393,
      "like": 394,
      "know": 395,
      "able": 396,
      "lu": 397,
      "again": 398,
      "ity": 399,
      "av": 400,
      "pre": 401,
      "ance": 402,
      "its": 403,
      "time": 404,
      "did": 405,
      "pos": 406,
      "men": 407,
      "hed": 408,
      "int": 409,
      "over": 410,
      "qui": 411,
      "cou": 412,
      "hand": 413,
      "And": 414,
      "ave": 415,
      "can": 416,
      "mon": 417,
      "upon": 418,
      "ish": 419,
      "two": 420,
      "rep": 421,
      "turn": 422,
      "ep": 423,
      "ittle": 424,
      "son": 425,
      "than": 426,
      "comp": 427,
      "ser": 428,
      "pl": 429,
      "little": 430,
      "je": 431,
      "gi": 432,
      "om": 433,
      "ress": 434,
      "should": 435,
      "ated": 436,
      "ked": 437,
      "une": 438,
      "look": 439,
      "went": 440,
      "ving": 441,
      "sto": 442,
      "say": 443,
      "only": 444,
      "art": 445,
      "sp": 446,
      "im": 447,
      "ng": 448,
      "made": 449,
      "about": 450,
      "ried": 451,
      "read": 452,
      "came": 453,
      "ree": 454,
      "come": 455,
      "ty": 456,
      "ear": 457,
      "tho": 458,
      "has": 459,
      "sha": 460,
      "gu": 461,
      "ie": 462,
      "led": 463,
      "tra": 464,
      "before": 465,
      "sho": 466,
      "mar": 467,
      "fir": 468,
      "great": 469,
      "mu": 470,
      "after": 471,
      "ob": 472,
      "ions": 473,
      "We": 474,
      "under": 475,
      "ack": 476,
      "ey": 477,
      "thought": 478,
      "less": 479,
      "ise": 480,
      "She": 481,
      "sur": 482,
      "use": 483,
      "even": 484,
      "down": 485,
      "himself": 486,
      "ame": 487,
      "ces": 488,
      "ol": 489,
      "clo": 490,
      "mes": 491,
      "ft": 492,
      "must": 493,
      "ward": 494,
      "min": 495,
      "pea": 496,
      "ves": 497,
      "car": 498,
      "these": 499,
      "You": 500,
      "pass": 501,
      "ps": 502,
      "good": 503,
      "every": 504,
      "well": 505,
      "without": 506,
      "part": 507,
      "age": 508,
      "ire": 509,
      "ally": 510,
      "ach": 511,
      "low": 512,
      "fri": 513,
      "ced": 514,
      "ary": 515,
      "most": 516,
      "where": 517,
      "land": 518,
      "back": 519,
      "never": 520,
      "ang": 521,
      "row": 522,
      "cer": 523,
      "arm": 524,
      "first": 525,
      "light": 526,
      "ness": 527,
      "wat": 528,
      "ath": 529,
      "such": 530,
      "air": 531,
      "lt": 532,
      "mis": 533,
      "head": 534,
      "llow": 535,
      "off": 536,
      "much": 537,
      "Mr": 538,
      "new": 539,
      "ened": 540,
      "mi": 541,
      "No": 542,
      "mor": 543,
      "ink": 544,
      "In": 545,
      "beg": 546,
      "cle": 547,
      "word": 548,
      "cor": 549,
      "don": 550,
      "bet": 551,
      "pi": 552,
      "last": 553,
      "What": 554,
      "ful": 555,
      "ning": 556,
      "cont": 557,
      "ai": 558,
      "cre": 559,
      "pt": 560,
      "might": 561,
      "moment": 562,
      "mer": 563,
      "ouse": 564,
      "round": 565,
      "ice": 566,
      "nothing": 567,
      "fu": 568,
      "ide": 569,
      "ux": 570,
      "cha": 571,
      "eyes": 572,
      "chi": 573,
      "ined": 574,
      "fort": 575,
      "cr": 576,
      "here": 577,
      "still": 578,
      "There": 579,
      "lied": 580,
      "how": 581,
      "elle": 582,
      "room": 583,
      "act": 584,
      "get": 585,
      "just": 586,
      "Ar": 587,
      "found": 588,
      "lad": 589,
      "This": 590,
      ",'": 591,
      "pas": 592,
      "lie": 593,
      "make": 594,
      "They": 595,
      "ner": 596,
      "imp": 597,
      "young": 598,
      "being": 599,
      "night": 600,
      "ken": 601,
      "aut": 602,
      "set": 603,
      "gr": 604,
      "ten": 605,
      "old": 606,
      "side": 607,
      "ple": 608,
      "rest": 609,
      "ever": 610,
      "ged": 611,
      "uli": 612,
      "At": 613,
      "ren": 614,
      "hor": 615,
      "replied": 616,
      "away": 617,
      "pres": 618,
      "cap": 619,
      "ins": 620,
      "ince": 621,
      "saw": 622,
      "friend": 623,
      "éta": 624,
      "three": 625,
      "ue": 626,
      "rough": 627,
      "shall": 628,
      "take": 629,
      "count": 630,
      "too": 631,
      "cl": 632,
      "bro": 633,
      "put": 634,
      "Then": 635,
      "hy": 636,
      "left": 637,
      "face": 638,
      "vent": 639,
      "ef": 640,
      "dist": 641,
      "pect": 642,
      "ille": 643,
      "took": 644,
      "while": 645,
      "ted": 646,
      "ud": 647,
      ".'": 648,
      "eng": 649,
      "ses": 650,
      "ished": 651,
      "ks": 652,
      "door": 653,
      "tor": 654,
      "think": 655,
      "call": 656,
      "place": 657,
      "ction": 658,
      "Juli": 659,
      "own": 660,
      "pour": 661,
      "pa": 662,
      "dans": 663,
      "house": 664,
      "Julien": 665,
      "cas": 666,
      "hun": 667,
      "turned": 668,
      "sou": 669,
      "tell": 670,
      "point": 671,
      "those": 672,
      "happ": 673,
      "bre": 674,
      "tagn": 675,
      "cri": 676,
      "hour": 677,
      "sent": 678,
      "may": 679,
      "woman": 680,
      "tic": 681,
      "Artagn": 682,
      "Artagnan": 683,
      "through": 684,
      "seemed": 685,
      "br": 686,
      "ies": 687,
      "ches": 688,
      "sel": 689,
      "den": 690,
      "ious": 691,
      "ched": 692,
      "cour": 693,
      "though": 694,
      "ber": 695,
      "pu": 696,
      "once": 697,
      "soon": 698,
      "cur": 699,
      "gent": 700,
      "lui": 701,
      "gg": 702,
      "ais": 703,
      "dou": 704,
      "myself": 705,
      "vous": 706,
      "jo": 707,
      "ting": 708,
      "life": 709,
      "ling": 710,
      "dit": 711,
      "bi": 712,
      "bed": 713,
      "asked": 714,
      "eur": 715,
      "inst": 716,
      "right": 717,
      "going": 718,
      "ways": 719,
      "ters": 720,
      "mber": 721,
      "cu": 722,
      "mat": 723,
      "heard": 724,
      "pri": 725,
      "full": 726,
      "ré": 727,
      "val": 728,
      "sil": 729,
      "shi": 730,
      "cried": 731,
      "hu": 732,
      "col": 733,
      "cei": 734,
      "stre": 735,
      "love": 736,
      "pleas": 737,
      "ready": 738,
      "stand": 739,
      "ily": 740,
      "ss": 741,
      "same": 742,
      "dra": 743,
      "inter": 744,
      "water": 745,
      "gra": 746,
      "lan": 747,
      "wer": 748,
      "want": 749,
      "att": 750,
      "iz": 751,
      "certain": 752,
      "ord": 753,
      "vis": 754,
      "hen": 755,
      "était": 756,
      "having": 757,
      "looked": 758,
      "year": 759,
      "temp": 760,
      "ak": 761,
      "heart": 762,
      "cause": 763,
      "cent": 764,
      "ot": 765,
      "got": 766,
      "sible": 767,
      "thos": 768,
      "exp": 769,
      "La": 770,
      "Ne": 771,
      "cy": 772,
      "nor": 773,
      "Yes": 774,
      "tout": 775,
      "yet": 776,
      "told": 777,
      "adame": 778,
      "give": 779,
      "against": 780,
      "fin": 781,
      "cess": 782,
      "cho": 783,
      "So": 784,
      "wards": 785,
      "ris": 786,
      "vers": 787,
      "bit": 788,
      "began": 789,
      "another": 790,
      "As": 791,
      "aster": 792,
      "ars": 793,
      "oc": 794,
      "ough": 795,
      "oft": 796,
      "har": 797,
      "ings": 798,
      "used": 799,
      "far": 800,
      "tal": 801,
      "child": 802,
      "dé": 803,
      "nat": 804,
      "follow": 805,
      "ons": 806,
      "rice": 807,
      "mou": 808,
      "avait": 809,
      "ween": 810,
      "My": 811,
      "ised": 812,
      "form": 813,
      "Mon": 814,
      "ée": 815,
      "cla": 816,
      "That": 817,
      "cted": 818,
      "four": 819,
      "felt": 820,
      "work": 821,
      "seen": 822,
      "Fab": 823,
      "find": 824,
      "lat": 825,
      "mais": 826,
      "cal": 827,
      "pped": 828,
      "half": 829,
      "sol": 830,
      "sure": 831,
      "plus": 832,
      "always": 833,
      "contin": 834,
      "between": 835,
      "mind": 836,
      "whom": 837,
      "Par": 838,
      "iss": 839,
      "appea": 840,
      "appeared": 841,
      "Mar": 842,
      "sm": 843,
      "times": 844,
      "gen": 845,
      "Fabrice": 846,
      "ton": 847,
      "On": 848,
      "lar": 849,
      "ier": 850,
      "herself": 851,
      "lady": 852,
      "open": 853,
      "sieur": 854,
      "few": 855,
      "spea": 856,
      "days": 857,
      "rema": 858,
      "ene": 859,
      "near": 860,
      "ations": 861,
      "jour": 862,
      "reg": 863,
      "sea": 864,
      "ating": 865,
      "Well": 866,
      "spo": 867,
      "gl": 868,
      "sat": 869,
      "morning": 870,
      "When": 871,
      "rent": 872,
      "doub": 873,
      "ither": 874,
      "each": 875,
      "ste": 876,
      "ently": 877,
      "fer": 878,
      "knew": 879,
      "arri": 880,
      "appe": 881,
      "wever": 882,
      "hands": 883,
      "add": 884,
      "ople": 885,
      "ond": 886,
      "Madame": 887,
      "order": 888,
      "bla": 889,
      "cro": 890,
      "iness": 891,
      "Her": 892,
      "gave": 893,
      "wait": 894,
      "dow": 895,
      "many": 896,
      "Ma": 897,
      "voice": 898,
      "dif": 899,
      "haps": 900,
      "evening": 901,
      "belie": 902,
      "gentle": 903,
      "ive": 904,
      "run": 905,
      "quite": 906,
      "feel": 907,
      "passed": 908,
      "win": 909,
      "possible": 910,
      "taken": 911,
      "ures": 912,
      "enough": 913,
      "trou": 914,
      "ster": 915,
      "If": 916,
      "bod": 917,
      "tru": 918,
      "mid": 919,
      "ments": 920,
      "selves": 921,
      "ended": 922,
      "fect": 923,
      "people": 924,
      "Le": 925,
      "sing": 926,
      "done": 927,
      "Je": 928,
      "va": 929,
      "sub": 930,
      "spe": 931,
      "dire": 932,
      "mother": 933,
      "whole": 934,
      "since": 935,
      "cut": 936,
      "fall": 937,
      "wal": 938,
      "Oh": 939,
      "lle": 940,
      "father": 941,
      "lled": 942,
      "table": 943,
      "His": 944,
      "things": 945,
      "ign": 946,
      "stood": 947,
      "continu": 948,
      "cul": 949,
      "dre": 950,
      "quest": 951,
      "words": 952,
      "char": 953,
      "lau": 954,
      "hear": 955,
      "lic": 956,
      "conf": 957,
      "fam": 958,
      "cons": 959,
      "Pen": 960,
      "gir": 961,
      "van": 962,
      "name": 963,
      "deed": 964,
      "ils": 965,
      "ark": 966,
      "rus": 967,
      "poor": 968,
      "wr": 969,
      "croft": 970,
      "tu": 971,
      "six": 972,
      "ref": 973,
      "eas": 974,
      "sk": 975,
      "itu": 976,
      "dden": 977,
      "world": 978,
      "cet": 979,
      "lay": 980,
      "ts": 981,
      "whose": 982,
      "Ro": 983,
      "ls": 984,
      "avec": 985,
      "xt": 986,
      "sed": 987,
      "stran": 988,
      "rought": 989,
      "bu": 990,
      "vid": 991,
      "emp": 992,
      "Pencroft": 993,
      "Co": 994,
      "sign": 995,
      "suf": 996,
      "ather": 997,
      "vered": 998,
      "dred": 999,
      "hon": 1000,
      "window": 1001,
      "ms": 1002,
      "longer": 1003,
      "hundred": 1004,
      "body": 1005,
      "sir": 1006,
      "brought": 1007,
      "something": 1008,
      "called": 1009,
      "five": 1010,
      "ison": 1011,
      "doubt": 1012,
      "feet": 1013,
      "pen": 1014,
      "also": 1015,
      "wall": 1016,
      "bri": 1017,
      "met": 1018,
      "dev": 1019,
      "ressed": 1020,
      "person": 1021,
      "port": 1022,
      "uring": 1023,
      "mand": 1024,
      "ask": 1025,
      "God": 1026,
      "sen": 1027,
      "fire": 1028,
      "ately": 1029,
      "kind": 1030,
      "ron": 1031,
      "because": 1032,
      "ick": 1033,
      "unt": 1034,
      "ger": 1035,
      "hus": 1036,
      "stru": 1037,
      "hold": 1038,
      "hard": 1039,
      "ors": 1040,
      "ular": 1041,
      "years": 1042,
      "lp": 1043,
      "towards": 1044,
      "bus": 1045,
      "care": 1046,
      "ceived": 1047,
      "nu": 1048,
      "hind": 1049,
      "..": 1050,
      "leave": 1051,
      "already": 1052,
      "hes": 1053,
      "perhaps": 1054,
      "captain": 1055,
      "band": 1056,
      "better": 1057,
      "least": 1058,
      "ition": 1059,
      "black": 1060,
      "dark": 1061,
      "ason": 1062,
      "na": 1063,
      "ig": 1064,
      "coming": 1065,
      "alone": 1066,
      "till": 1067,
      "vie": 1068,
      "large": 1069,
      "bl": 1070,
      "ject": 1071,
      "master": 1072,
      "almost": 1073,
      "yed": 1074,
      "return": 1075,
      "str": 1076,
      "fact": 1077,
      "bien": 1078,
      "ides": 1079,
      "ère": 1080,
      "both": 1081,
      "minut": 1082,
      "Athos": 1083,
      "sort": 1084,
      "compan": 1085,
      "ith": 1086,
      "ousand": 1087,
      "boat": 1088,
      "cked": 1089,
      "pet": 1090,
      "ned": 1091,
      "For": 1092,
      "ship": 1093,
      "da": 1094,
      "sudden": 1095,
      "gether": 1096,
      "té": 1097,
      "thousand": 1098,
      "next": 1099,
      "abo": 1100,
      "together": 1101,
      "gone": 1102,
      "ian": 1103,
      "ery": 1104,
      "speak": 1105,
      "ze": 1106,
      "themselves": 1107,
      "arding": 1108,
      "dear": 1109,
      "anything": 1110,
      "ys": 1111,
      "clock": 1112,
      "ied": 1113,
      "ient": 1114,
      "serv": 1115,
      "ane": 1116,
      "mme": 1117,
      "sle": 1118,
      "tri": 1119,
      "tion": 1120,
      "ants": 1121,
      "mag": 1122,
      "tered": 1123,
      "thus": 1124,
      "behind": 1125,
      "To": 1126,
      "sup": 1127,
      "keep": 1128,
      "pur": 1129,
      "tran": 1130,
      "won": 1131,
      "bar": 1132,
      "indeed": 1133,
      "Ho": 1134,
      "cid": 1135,
      "wife": 1136,
      "fear": 1137,
      "cks": 1138,
      "arms": 1139,
      "cher": 1140,
      "sc": 1141,
      "island": 1142,
      "road": 1143,
      "voir": 1144,
      "everything": 1145,
      "iled": 1146,
      "wenty": 1147,
      "rather": 1148,
      "Is": 1149,
      "wered": 1150,
      "bes": 1151,
      "uncle": 1152,
      "wh": 1153,
      "among": 1154,
      "Mo": 1155,
      "appear": 1156,
      "Harding": 1157,
      "dro": 1158,
      "pose": 1159,
      "cept": 1160,
      "ring": 1161,
      "ye": 1162,
      "ered": 1163,
      "hur": 1164,
      "show": 1165,
      "prof": 1166,
      "present": 1167,
      "Monsieur": 1168,
      "How": 1169,
      "Char": 1170,
      "bon": 1171,
      "fell": 1172,
      "grand": 1173,
      "All": 1174,
      "however": 1175,
      "bour": 1176,
      "covered": 1177,
      "suc": 1178,
      "Ah": 1179,
      "country": 1180,
      "Paris": 1181,
      "does": 1182,
      "ga": 1183,
      "cus": 1184,
      "ground": 1185,
      "als": 1186,
      "ying": 1187,
      "along": 1188,
      "asse": 1189,
      "quel": 1190,
      "cette": 1191,
      "list": 1192,
      "surpr": 1193,
      "bert": 1194,
      "mur": 1195,
      "wind": 1196,
      "expect": 1197,
      "looking": 1198,
      "swe": 1199,
      "enne": 1200,
      "wood": 1201,
      "fut": 1202,
      "tro": 1203,
      "twenty": 1204,
      "letter": 1205,
      "continued": 1206,
      "ding": 1207,
      "mit": 1208,
      "chan": 1209,
      "fine": 1210,
      "ached": 1211,
      "Cap": 1212,
      "sion": 1213,
      "ister": 1214,
      "cond": 1215,
      "sun": 1216,
      "Con": 1217,
      "blo": 1218,
      "lost": 1219,
      "remained": 1220,
      "ths": 1221,
      "step": 1222,
      "girl": 1223,
      "fair": 1224,
      "known": 1225,
      "ardin": 1226,
      "Sir": 1227,
      "sail": 1228,
      "cold": 1229,
      "Why": 1230,
      "!'": 1231,
      "thir": 1232,
      "believe": 1233,
      "cir": 1234,
      "returned": 1235,
      "beaut": 1236,
      "course": 1237,
      "above": 1238,
      "00": 1239,
      "ceed": 1240,
      "anger": 1241,
      "ville": 1242,
      "home": 1243,
      "né": 1244,
      "given": 1245,
      "Eng": 1246,
      "Captain": 1247,
      "fl": 1248,
      "appro": 1249,
      "engine": 1250,
      "wish": 1251,
      "sett": 1252,
      "hours": 1253,
      "ele": 1254,
      "pie": 1255,
      "need": 1256,
      "friends": 1257,
      "high": 1258,
      "second": 1259,
      "foot": 1260,
      "oney": 1261,
      "small": 1262,
      "fully": 1263,
      "death": 1264,
      "oud": 1265,
      "ets": 1266,
      "tou": 1267,
      "mean": 1268,
      "kept": 1269,
      "Be": 1270,
      "Fo": 1271,
      "Mi": 1272,
      "flo": 1273,
      "ards": 1274,
      "rel": 1275,
      "lice": 1276,
      "fast": 1277,
      "case": 1278,
      "white": 1279,
      "sound": 1280,
      "ès": 1281,
      "sever": 1282,
      "hope": 1283,
      "idea": 1284,
      "instant": 1285,
      "ank": 1286,
      "Il": 1287,
      "eld": 1288,
      "laugh": 1289,
      "ining": 1290,
      "simp": 1291,
      "Now": 1292,
      "short": 1293,
      "?'": 1294,
      "posed": 1295,
      "ges": 1296,
      "question": 1297,
      "fran": 1298,
      "liz": 1299,
      "stra": 1300,
      "aux": 1301,
      "Miss": 1302,
      "brother": 1303,
      "aw": 1304,
      "sight": 1305,
      "ped": 1306,
      "inte": 1307,
      "necess": 1308,
      "ff": 1309,
      "reason": 1310,
      "supp": 1311,
      "Do": 1312,
      "terri": 1313,
      "main": 1314,
      "understand": 1315,
      "eye": 1316,
      "followed": 1317,
      "held": 1318,
      "dep": 1319,
      "allow": 1320,
      "became": 1321,
      "peri": 1322,
      "duches": 1323,
      "says": 1324,
      "pain": 1325,
      "money": 1326,
      "arch": 1327,
      "silence": 1328,
      "dered": 1329,
      "pret": 1330,
      "gener": 1331,
      "ety": 1332,
      "bot": 1333,
      "others": 1334,
      "One": 1335,
      "opened": 1336,
      "husband": 1337,
      "ral": 1338,
      "sor": 1339,
      "Qu": 1340,
      "often": 1341,
      "happy": 1342,
      "Mrs": 1343,
      "ute": 1344,
      "making": 1345,
      "answered": 1346,
      "draw": 1347,
      "Me": 1348,
      "live": 1349,
      "ni": 1350,
      "obli": 1351,
      "obser": 1352,
      "offi": 1353,
      "cannot": 1354,
      "repe": 1355,
      "fellow": 1356,
      "vol": 1357,
      "Milady": 1358,
      "cup": 1359,
      "rose": 1360,
      "prom": 1361,
      "ual": 1362,
      "Herbert": 1363,
      "bra": 1364,
      "formed": 1365,
      "cra": 1366,
      "ret": 1367,
      "minutes": 1368,
      "matter": 1369,
      "Eliz": 1370,
      "ilus": 1371,
      "autilus": 1372,
      "Eliza": 1373,
      "stri": 1374,
      "anim": 1375,
      "ature": 1376,
      "Nautilus": 1377,
      "duchesse": 1378,
      "reme": 1379,
      "rage": 1380,
      "itude": 1381,
      "help": 1382,
      "ought": 1383,
      "emb": 1384,
      "bene": 1385,
      "quar": 1386,
      "power": 1387,
      "deep": 1388,
      "Go": 1389,
      "lin": 1390,
      "−−": 1391,
      "Ren": 1392,
      "eight": 1393,
      "faire": 1394,
      "oun": 1395,
      "ER": 1396,
      "gy": 1397,
      "imag": 1398,
      "ared": 1399,
      "engineer": 1400,
      "dle": 1401,
      "resu": 1402,
      "best": 1403,
      "pal": 1404,
      "ized": 1405,
      "added": 1406,
      "pra": 1407,
      "mir": 1408,
      "pay": 1409,
      "lly": 1410,
      "dead": 1411,
      "aient": 1412,
      "ardinal": 1413,
      "rie": 1414,
      "comm": 1415,
      "riage": 1416,
      "diffi": 1417,
      "strange": 1418,
      "ati": 1419,
      "vel": 1420,
      "bur": 1421,
      "igh": 1422,
      "shore": 1423,
      "nes": 1424,
      "ley": 1425,
      "aring": 1426,
      "dri": 1427,
      "entered": 1428,
      "medi": 1429,
      "close": 1430,
      "true": 1431,
      "attent": 1432,
      "family": 1433,
      "fac": 1434,
      "Bo": 1435,
      "prison": 1436,
      "Af": 1437,
      "An": 1438,
      "habit": 1439,
      "taking": 1440,
      "advan": 1441,
      "answer": 1442,
      "vice": 1443,
      "really": 1444,
      "beth": 1445,
      "pit": 1446,
      "stu": 1447,
      "suddenly": 1448,
      "thin": 1449,
      "Elizabeth": 1450,
      "beneath": 1451,
      "Renal": 1452,
      "enter": 1453,
      "comme": 1454,
      "ited": 1455,
      "ham": 1456,
      "ider": 1457,
      "cell": 1458,
      "urs": 1459,
      "Por": 1460,
      "rying": 1461,
      "rust": 1462,
      "Cy": 1463,
      "mist": 1464,
      "bring": 1465,
      "Jane": 1466,
      "during": 1467,
      "reco": 1468,
      "difficul": 1469,
      "After": 1470,
      "gs": 1471,
      "move": 1472,
      "excla": 1473,
      "kill": 1474,
      "why": 1475,
      "position": 1476,
      "sleep": 1477,
      "Cha": 1478,
      "être": 1479,
      "bor": 1480,
      "tes": 1481,
      "lé": 1482,
      "ase": 1483,
      "carried": 1484,
      "nous": 1485,
      "pré": 1486,
      "die": 1487,
      "mal": 1488,
      "Charles": 1489,
      "dest": 1490,
      "several": 1491,
      "Cyrus": 1492,
      "Fran": 1493,
      "Fogg": 1494,
      "St": 1495,
      "cing": 1496,
      "ror": 1497,
      "ific": 1498,
      "women": 1499,
      "earth": 1500,
      "either": 1501,
      "kes": 1502,
      "mile": 1503,
      "horse": 1504,
      "until": 1505,
      "tom": 1506,
      "sum": 1507,
      "whether": 1508,
      "Bes": 1509,
      "thre": 1510,
      "past": 1511,
      "atta": 1512,
      "manner": 1513,
      "rid": 1514,
      "voy": 1515,
      "placed": 1516,
      "por": 1517,
      "ously": 1518,
      "ats": 1519,
      "aint": 1520,
      "start": 1521,
      "express": 1522,
      "glass": 1523,
      "Bon": 1524,
      "children": 1525,
      "fron": 1526,
      "ler": 1527,
      "ances": 1528,
      "fied": 1529,
      "fortune": 1530,
      "fif": 1531,
      "cross": 1532,
      "convers": 1533,
      "cardinal": 1534,
      "satis": 1535,
      "fur": 1536,
      "ught": 1537,
      "ages": 1538,
      "clear": 1539,
      "pon": 1540,
      "Jo": 1541,
      "spoke": 1542,
      "xed": 1543,
      "resol": 1544,
      "board": 1545,
      "plain": 1546,
      "viol": 1547,
      "nature": 1548,
      "quis": 1549,
      "ques": 1550,
      "real": 1551,
      "fright": 1552,
      "strong": 1553,
      "Porthos": 1554,
      "cs": 1555,
      "leav": 1556,
      "natur": 1557,
      "interest": 1558,
      "mine": 1559,
      "become": 1560,
      "iron": 1561,
      "tend": 1562,
      "ade": 1563,
      "gar": 1564,
      "rup": 1565,
      "break": 1566,
      "joy": 1567,
      "gro": 1568,
      "um": 1569,
      "within": 1570,
      "rap": 1571,
      "seeing": 1572,
      "fish": 1573,
      "fait": 1574,
      "With": 1575,
      "homme": 1576,
      "comple": 1577,
      "Lord": 1578,
      "cast": 1579,
      "lit": 1580,
      "stopped": 1581,
      "passa": 1582,
      "spir": 1583,
      "guer": 1584,
      "leng": 1585,
      "secre": 1586,
      "plan": 1587,
      "imed": 1588,
      "book": 1589,
      "pleasure": 1590,
      "yes": 1591,
      "ased": 1592,
      "worth": 1593,
      "comte": 1594,
      "ens": 1595,
      "ates": 1596,
      "ists": 1597,
      "sus": 1598,
      "motion": 1599,
      "aven": 1600,
      "begin": 1601,
      "ds": 1602,
      "ching": 1603,
      "means": 1604,
      "saying": 1605,
      "Ara": 1606,
      "sal": 1607,
      "tive": 1608,
      "prince": 1609,
      "yourself": 1610,
      "account": 1611,
      "HA": 1612,
      "mad": 1613,
      "gentleman": 1614,
      "regard": 1615,
      "sister": 1616,
      "fra": 1617,
      "gall": 1618,
      "urent": 1619,
      "perfect": 1620,
      "Re": 1621,
      "fla": 1622,
      "wee": 1623,
      "miles": 1624,
      "lips": 1625,
      "consider": 1626,
      "net": 1627,
      "ably": 1628,
      "--\"": 1629,
      "immedi": 1630,
      "Nemo": 1631,
      "bow": 1632,
      "fit": 1633,
      "lett": 1634,
      "war": 1635,
      "Here": 1636,
      "certainly": 1637,
      "stair": 1638,
      "resh": 1639,
      "wanted": 1640,
      "scar": 1641,
      "gard": 1642,
      "sive": 1643,
      "pale": 1644,
      "mouth": 1645,
      "town": 1646,
      "itself": 1647,
      "teen": 1648,
      "remar": 1649,
      "ney": 1650,
      "exc": 1651,
      "occas": 1652,
      "Al": 1653,
      "gé": 1654,
      "seil": 1655,
      "hair": 1656,
      "tienne": 1657,
      "desp": 1658,
      "occup": 1659,
      "lect": 1660,
      "necessary": 1661,
      "gun": 1662,
      "rit": 1663,
      "guerite": 1664,
      "Marguerite": 1665,
      "Se": 1666,
      "lish": 1667,
      "received": 1668,
      "thoughts": 1669,
      "sold": 1670,
      "quick": 1671,
      "length": 1672,
      "iful": 1673,
      "therefore": 1674,
      "Étienne": 1675,
      "aston": 1676,
      "front": 1677,
      "cum": 1678,
      "Aramis": 1679,
      "ctor": 1680,
      "danger": 1681,
      "ries": 1682,
      "iling": 1683,
      "ieux": 1684,
      "crow": 1685,
      "fre": 1686,
      "lear": 1687,
      "ult": 1688,
      "cat": 1689,
      "thro": 1690,
      "lling": 1691,
      "dream": 1692,
      "blow": 1693,
      "exclaimed": 1694,
      "slow": 1695,
      "pou": 1696,
      "ility": 1697,
      "sometimes": 1698,
      "human": 1699,
      "conversation": 1700,
      "tried": 1701,
      "ending": 1702,
      "app": 1703,
      "quiet": 1704,
      "talk": 1705,
      "companions": 1706,
      "ded": 1707,
      "ured": 1708,
      "stay": 1709,
      "boy": 1710,
      "burn": 1711,
      "reached": 1712,
      "drew": 1713,
      "blood": 1714,
      "ket": 1715,
      "sad": 1716,
      "chair": 1717,
      "anx": 1718,
      "distance": 1719,
      "standing": 1720,
      "francs": 1721,
      "else": 1722,
      "struck": 1723,
      "kne": 1724,
      "const": 1725,
      "trees": 1726,
      "Roche": 1727,
      "field": 1728,
      "cient": 1729,
      "Let": 1730,
      "cking": 1731,
      "Th": 1732,
      "mus": 1733,
      "meet": 1734,
      "cious": 1735,
      "poss": 1736,
      "ical": 1737,
      "closed": 1738,
      "arrived": 1739,
      "bad": 1740,
      "ging": 1741,
      "flow": 1742,
      "fortun": 1743,
      "ix": 1744,
      "ranite": 1745,
      "diffe": 1746,
      "Conseil": 1747,
      "Har": 1748,
      "cli": 1749,
      "és": 1750,
      "augh": 1751,
      "complete": 1752,
      "extre": 1753,
      "isted": 1754,
      "De": 1755,
      "cru": 1756,
      "nar": 1757,
      "wished": 1758,
      "partic": 1759,
      "puis": 1760,
      "fan": 1761,
      "ja": 1762,
      "neither": 1763,
      "Neb": 1764,
      "clu": 1765,
      "jud": 1766,
      "tained": 1767,
      "avy": 1768,
      "vou": 1769,
      "ening": 1770,
      "respect": 1771,
      "terrible": 1772,
      "glo": 1773,
      "deux": 1774,
      "impossible": 1775,
      "fered": 1776,
      "view": 1777,
      "daugh": 1778,
      "eat": 1779,
      "tears": 1780,
      "business": 1781,
      "ones": 1782,
      "ross": 1783,
      "itted": 1784,
      "company": 1785,
      "immediately": 1786,
      "Spi": 1787,
      "tone": 1788,
      "wild": 1789,
      "smo": 1790,
      "vait": 1791,
      "zed": 1792,
      "lived": 1793,
      "Ned": 1794,
      "fle": 1795,
      "vit": 1796,
      "wound": 1797,
      "ême": 1798,
      "bey": 1799,
      "ph": 1800,
      "vre": 1801,
      "vic": 1802,
      "mois": 1803,
      "wel": 1804,
      "os": 1805,
      "shout": 1806,
      "dition": 1807,
      "waiting": 1808,
      "secret": 1809,
      "ution": 1810,
      "Spilett": 1811,
      "By": 1812,
      "From": 1813,
      "Pr": 1814,
      "hing": 1815,
      "These": 1816,
      "passion": 1817,
      "possess": 1818,
      "TH": 1819,
      "ming": 1820,
      "inner": 1821,
      "chang": 1822,
      "law": 1823,
      "Some": 1824,
      "recogn": 1825,
      "Can": 1826,
      "exam": 1827,
      "bly": 1828,
      "wa": 1829,
      "whis": 1830,
      "ushed": 1831,
      "import": 1832,
      "Tre": 1833,
      "moi": 1834,
      "gentlemen": 1835,
      "sailor": 1836,
      "grow": 1837,
      "around": 1838,
      "lying": 1839,
      "courage": 1840,
      "moved": 1841,
      "Laurent": 1842,
      "change": 1843,
      "free": 1844,
      "gri": 1845,
      "ues": 1846,
      "vill": 1847,
      "shut": 1848,
      "itting": 1849,
      "ordin": 1850,
      "beautiful": 1851,
      "Ch": 1852,
      "tle": 1853,
      "easy": 1854,
      "ible": 1855,
      "chance": 1856,
      "neigh": 1857,
      "calm": 1858,
      "lead": 1859,
      "natural": 1860,
      "shad": 1861,
      "degre": 1862,
      "produ": 1863,
      "brea": 1864,
      "jours": 1865,
      "Mahe": 1866,
      "ination": 1867,
      "mbre": 1868,
      "Therese": 1869,
      "rence": 1870,
      "mé": 1871,
      "vé": 1872,
      "piece": 1873,
      "pes": 1874,
      "rious": 1875,
      "circum": 1876,
      "rer": 1877,
      "hile": 1878,
      "gold": 1879,
      "pers": 1880,
      "mma": 1881,
      "warm": 1882,
      "reach": 1883,
      "Jean": 1884,
      "aul": 1885,
      "top": 1886,
      "lls": 1887,
      "dress": 1888,
      "fresh": 1889,
      "arran": 1890,
      "deal": 1891,
      "pretty": 1892,
      "CHA": 1893,
      "Lon": 1894,
      "ace": 1895,
      "loved": 1896,
      "line": 1897,
      "chur": 1898,
      "river": 1899,
      "post": 1900,
      "ext": 1901,
      "play": 1902,
      "stone": 1903,
      "repeated": 1904,
      "attention": 1905,
      "London": 1906,
      "demand": 1907,
      "Come": 1908,
      "cry": 1909,
      "noise": 1910,
      "obliged": 1911,
      "observed": 1912,
      "Mme": 1913,
      "serious": 1914,
      "soul": 1915,
      "Ge": 1916,
      "TER": 1917,
      "hang": 1918,
      "pat": 1919,
      "squ": 1920,
      "lue": 1921,
      "gue": 1922,
      "Com": 1923,
      "heavy": 1924,
      "tern": 1925,
      "broken": 1926,
      "walked": 1927,
      "Dar": 1928,
      "bir": 1929,
      "ball": 1930,
      "affe": 1931,
      "months": 1932,
      "wonder": 1933,
      "However": 1934,
      "ents": 1935,
      "living": 1936,
      "sli": 1937,
      "incre": 1938,
      "feeling": 1939,
      "smile": 1940,
      "thick": 1941,
      "tory": 1942,
      "Harris": 1943,
      "House": 1944,
      "sy": 1945,
      "expected": 1946,
      "fro": 1947,
      "dies": 1948,
      "steps": 1949,
      "English": 1950,
      "ric": 1951,
      "occasion": 1952,
      "vin": 1953,
      "delight": 1954,
      "forward": 1955,
      "condu": 1956,
      "Geor": 1957,
      "sans": 1958,
      "tee": 1959,
      "CHAP": 1960,
      "ju": 1961,
      "essor": 1962,
      "monsieur": 1963,
      "partout": 1964,
      "midst": 1965,
      "bread": 1966,
      "raised": 1967,
      "vessel": 1968,
      "Darcy": 1969,
      "ras": 1970,
      "coun": 1971,
      "Pier": 1972,
      "evid": 1973,
      "heure": 1974,
      "belong": 1975,
      "simple": 1976,
      "raid": 1977,
      "chief": 1978,
      "happened": 1979,
      "Maheu": 1980,
      "ette": 1981,
      "Gu": 1982,
      "cab": 1983,
      "gate": 1984,
      "mere": 1985,
      "remember": 1986,
      "scarce": 1987,
      "gain": 1988,
      "vag": 1989,
      "ût": 1990,
      "ert": 1991,
      "rain": 1992,
      "mble": 1993,
      "tous": 1994,
      "Passe": 1995,
      "coast": 1996,
      "conce": 1997,
      "Po": 1998,
      "ia": 1999,
      "circumst": 2000,
      "afraid": 2001,
      "Not": 2002,
      "Ay": 2003,
      "beau": 2004,
      "fois": 2005,
      "ager": 2006,
      "silent": 2007,
      "même": 2008,
      "bound": 2009,
      "fing": 2010,
      "turning": 2011,
      "Passepartout": 2012,
      "nam": 2013,
      "getting": 2014,
      "furn": 2015,
      "tage": 2016,
      "prin": 2017,
      "suffi": 2018,
      "servant": 2019,
      "tempt": 2020,
      "church": 2021,
      "Du": 2022,
      "morrow": 2023,
      "bb": 2024,
      "rès": 2025,
      "deli": 2026,
      "utter": 2027,
      "tel": 2028,
      "later": 2029,
      "Alice": 2030,
      "mort": 2031,
      "ities": 2032,
      "seven": 2033,
      "entire": 2034,
      "cover": 2035,
      "priest": 2036,
      "ose": 2037,
      "orter": 2038,
      "acqu": 2039,
      "big": 2040,
      "été": 2041,
      "ering": 2042,
      "neur": 2043,
      "concer": 2044,
      "fas": 2045,
      "wise": 2046,
      "charac": 2047,
      "rapid": 2048,
      "Never": 2049,
      "shop": 2050,
      "happiness": 2051,
      "ceive": 2052,
      "walk": 2053,
      "bottom": 2054,
      ",−−": 2055,
      "effect": 2056,
      "crowd": 2057,
      "slight": 2058,
      "thed": 2059,
      "state": 2060,
      "cape": 2061,
      "mbled": 2062,
      "desc": 2063,
      "Don": 2064,
      "pan": 2065,
      "scho": 2066,
      "except": 2067,
      "object": 2068,
      "leaving": 2069,
      "sequ": 2070,
      "termin": 2071,
      "streng": 2072,
      "Island": 2073,
      "len": 2074,
      "var": 2075,
      "ense": 2076,
      "prob": 2077,
      "prevent": 2078,
      "particular": 2079,
      "accor": 2080,
      "fixed": 2081,
      "carriage": 2082,
      "presence": 2083,
      "trouble": 2084,
      "suffer": 2085,
      "direct": 2086,
      "thinking": 2087,
      "garden": 2088,
      "Who": 2089,
      "wret": 2090,
      "ante": 2091,
      "usual": 2092,
      "assu": 2093,
      "leur": 2094,
      "qual": 2095,
      "aded": 2096,
      "reply": 2097,
      "watch": 2098,
      "Cand": 2099,
      "dinner": 2100,
      "rend": 2101,
      "visit": 2102,
      "surprised": 2103,
      "burst": 2104,
      "Saint": 2105,
      "forgot": 2106,
      "laid": 2107,
      "core": 2108,
      "doing": 2109,
      "prit": 2110,
      "coup": 2111,
      "daughter": 2112,
      "Emma": 2113,
      "charm": 2114,
      "opin": 2115,
      "colon": 2116,
      "Meaul": 2117,
      "Meaulnes": 2118,
      "Cather": 2119,
      "Fri": 2120,
      "soci": 2121,
      "giving": 2122,
      "ceeded": 2123,
      "CHAPTER": 2124,
      "across": 2125,
      "antly": 2126,
      "creature": 2127,
      "Catherine": 2128,
      "shar": 2129,
      "surface": 2130,
      "fight": 2131,
      "Candide": 2132,
      "II": 2133,
      "late": 2134,
      "thes": 2135,
      "single": 2136,
      "wav": 2137,
      "affair": 2138,
      "story": 2139,
      "spite": 2140,
      "Joh": 2141,
      "Math": 2142,
      "dr": 2143,
      "caught": 2144,
      "desire": 2145,
      "phe": 2146,
      "uttered": 2147,
      "conceal": 2148,
      "atures": 2149,
      "fig": 2150,
      "comes": 2151,
      "week": 2152,
      "Rochester": 2153,
      "school": 2154,
      "Mais": 2155,
      "bell": 2156,
      "venture": 2157,
      "appearance": 2158,
      "Ben": 2159,
      "Lo": 2160,
      "Land": 2161,
      "event": 2162,
      "ury": 2163,
      "extra": 2164,
      "pping": 2165,
      "mission": 2166,
      "pub": 2167,
      "speaking": 2168,
      "surprise": 2169,
      "fool": 2170,
      "filled": 2171,
      "slowly": 2172,
      "force": 2173,
      "acieux": 2174,
      "talking": 2175,
      "strength": 2176,
      "amp": 2177,
      "arr": 2178,
      "peu": 2179,
      "running": 2180,
      "Bonacieux": 2181,
      "bank": 2182,
      "inf": 2183,
      "ilde": 2184,
      "exist": 2185,
      "grew": 2186,
      "John": 2187,
      "mas": 2188,
      "ising": 2189,
      "agree": 2190,
      "rud": 2191,
      "rench": 2192,
      "thirty": 2193,
      "passage": 2194,
      "different": 2195,
      "Per": 2196,
      "magn": 2197,
      "common": 2198,
      "middle": 2199,
      "Where": 2200,
      "mass": 2201,
      "fav": 2202,
      "Mathilde": 2203,
      "ann": 2204,
      "heads": 2205,
      "pointed": 2206,
      "stret": 2207,
      "waited": 2208,
      "extreme": 2209,
      "cand": 2210,
      "hall": 2211,
      "quired": 2212,
      "shadow": 2213,
      "lement": 2214,
      "exact": 2215,
      "England": 2216,
      "George": 2217,
      "understood": 2218,
      "truth": 2219,
      "devil": 2220,
      "showed": 2221,
      "Besides": 2222,
      "sit": 2223,
      "spr": 2224,
      "lia": 2225,
      "rait": 2226,
      "contr": 2227,
      "où": 2228,
      "oire": 2229,
      "rich": 2230,
      "threw": 2231,
      "cean": 2232,
      "experi": 2233,
      "nearly": 2234,
      "cided": 2235,
      "drawing": 2236,
      "aged": 2237,
      "blue": 2238,
      "lean": 2239,
      "rock": 2240,
      "lot": 2241,
      "oute": 2242,
      "passing": 2243,
      "subject": 2244,
      "Good": 2245,
      "ité": 2246,
      "accept": 2247,
      "seems": 2248,
      "effort": 2249,
      "Lu": 2250,
      "fet": 2251,
      "cially": 2252,
      "confess": 2253,
      "character": 2254,
      "opinion": 2255,
      "Mus": 2256,
      "Your": 2257,
      "cis": 2258,
      "former": 2259,
      "tired": 2260,
      "Mole": 2261,
      "French": 2262,
      "gust": 2263,
      "spre": 2264,
      "reporter": 2265,
      "beyond": 2266,
      "bles": 2267,
      "uni": 2268,
      "pock": 2269,
      "corner": 2270,
      "windows": 2271,
      "success": 2272,
      "Treville": 2273,
      "Every": 2274,
      "rton": 2275,
      "emplo": 2276,
      "Ayrton": 2277,
      "box": 2278,
      "easily": 2279,
      "...": 2280,
      "oned": 2281,
      "bear": 2282,
      "following": 2283,
      "journey": 2284,
      "expression": 2285,
      "beginning": 2286,
      "pter": 2287,
      "inct": 2288,
      "number": 2289,
      "THE": 2290,
      "spread": 2291,
      "ussi": 2292,
      "shoulders": 2293,
      "walls": 2294,
      "scarcely": 2295,
      "Lou": 2296,
      "send": 2297,
      "separ": 2298,
      "rocks": 2299,
      "sole": 2300,
      "mbling": 2301,
      "chamber": 2302,
      "ually": 2303,
      "espe": 2304,
      "suppose": 2305,
      "figure": 2306,
      "Gring": 2307,
      "King": 2308,
      "cred": 2309,
      "broke": 2310,
      "darkness": 2311,
      "stairs": 2312,
      "Gringoire": 2313,
      "Pro": 2314,
      "month": 2315,
      "afterwards": 2316,
      "resumed": 2317,
      "Un": 2318,
      "dread": 2319,
      "situ": 2320,
      "thor": 2321,
      "sav": 2322,
      "peut": 2323,
      "faith": 2324,
      "latter": 2325,
      "hardly": 2326,
      "mistress": 2327,
      "Granite": 2328,
      "usion": 2329,
      "perceived": 2330,
      "grat": 2331,
      "IN": 2332,
      "gli": 2333,
      "toward": 2334,
      "memor": 2335,
      "lace": 2336,
      "neck": 2337,
      "condition": 2338,
      "horses": 2339,
      "gest": 2340,
      "decided": 2341,
      "ladies": 2342,
      "vain": 2343,
      "forget": 2344,
      "green": 2345,
      "sense": 2346,
      "resolved": 2347,
      "Hol": 2348,
      "disappeared": 2349,
      "breath": 2350,
      "iers": 2351,
      "seized": 2352,
      "moun": 2353,
      "speci": 2354,
      "vil": 2355,
      "ator": 2356,
      "dog": 2357,
      "ial": 2358,
      "married": 2359,
      "distur": 2360,
      "dressed": 2361,
      "ung": 2362,
      "sait": 2363,
      "log": 2364,
      "service": 2365,
      "immen": 2366,
      "waters": 2367,
      "kete": 2368,
      "Bar": 2369,
      "pend": 2370,
      "escape": 2371,
      "letters": 2372,
      "ordinary": 2373,
      "waves": 2374,
      "dut": 2375,
      "jest": 2376,
      "mill": 2377,
      "phi": 2378,
      "soft": 2379,
      "confid": 2380,
      "general": 2381,
      "jamais": 2382,
      "Muskete": 2383,
      "especially": 2384,
      "kiss": 2385,
      "lamp": 2386,
      "died": 2387,
      "quarter": 2388,
      "Vo": 2389,
      "depart": 2390,
      "besides": 2391,
      "avoir": 2392,
      "admir": 2393,
      "sult": 2394,
      "horiz": 2395,
      "Jim": 2396,
      "mn": 2397,
      "autre": 2398,
      "occur": 2399,
      "public": 2400,
      "clothes": 2401,
      "hung": 2402,
      "spot": 2403,
      "despair": 2404,
      "Bennet": 2405,
      "try": 2406,
      "throw": 2407,
      "below": 2408,
      "alth": 2409,
      "France": 2410,
      "quickly": 2411,
      "horizon": 2412,
      "consequ": 2413,
      "direction": 2414,
      "further": 2415,
      "fashi": 2416,
      "spect": 2417,
      "tour": 2418,
      "ener": 2419,
      "command": 2420,
      "carry": 2421,
      "yeux": 2422,
      "sharp": 2423,
      "mountain": 2424,
      "avo": 2425,
      "phy": 2426,
      "rate": 2427,
      "wit": 2428,
      "lait": 2429,
      "didn": 2430,
      "cloud": 2431,
      "neighbour": 2432,
      "race": 2433,
      "ishment": 2434,
      "moments": 2435,
      "grave": 2436,
      "cident": 2437,
      "quelque": 2438,
      "Just": 2439,
      "fles": 2440,
      "terror": 2441,
      "ardon": 2442,
      "glance": 2443,
      "cit": 2444,
      "seated": 2445,
      "rope": 2446,
      "glad": 2447,
      "none": 2448,
      "hood": 2449,
      "future": 2450,
      "floor": 2451,
      "straight": 2452,
      "Bing": 2453,
      "écri": 2454,
      "instru": 2455,
      "strugg": 2456,
      "hesit": 2457,
      "perfectly": 2458,
      "cure": 2459,
      "nest": 2460,
      "wed": 2461,
      "knows": 2462,
      "handsome": 2463,
      "interrup": 2464,
      "rising": 2465,
      "killed": 2466,
      "Au": 2467,
      "fat": 2468,
      "lies": 2469,
      "cture": 2470,
      "street": 2471,
      "narrow": 2472,
      "Holmes": 2473,
      "zz": 2474,
      "orm": 2475,
      "myster": 2476,
      "ices": 2477,
      "forest": 2478,
      "listened": 2479,
      "aur": 2480,
      "oured": 2481,
      "key": 2482,
      "sky": 2483,
      "géné": 2484,
      "changed": 2485,
      "Clé": 2486,
      "save": 2487,
      "arent": 2488,
      "fallen": 2489,
      "circumstances": 2490,
      "Bingley": 2491,
      "En": 2492,
      "iced": 2493,
      "knowled": 2494,
      "please": 2495,
      "finished": 2496,
      "honest": 2497,
      "anxious": 2498,
      "moiselle": 2499,
      "Clélia": 2500,
      "Ce": 2501,
      "chest": 2502,
      "offer": 2503,
      "Cam": 2504,
      "ake": 2505,
      "ont": 2506,
      "colle": 2507,
      "affection": 2508,
      "Gide": 2509,
      "gover": 2510,
      "temps": 2511,
      "trois": 2512,
      "animal": 2513,
      "Gideon": 2514,
      "Fel": 2515,
      "cin": 2516,
      "encore": 2517,
      "ater": 2518,
      "mention": 2519,
      "ici": 2520,
      "guard": 2521,
      "gged": 2522,
      "noble": 2523,
      "lac": 2524,
      "coat": 2525,
      "paper": 2526,
      "welve": 2527,
      "Ver": 2528,
      "stud": 2529,
      "ady": 2530,
      "watched": 2531,
      "stream": 2532,
      "pleased": 2533,
      "allowed": 2534,
      "fifty": 2535,
      "Felton": 2536,
      "twi": 2537,
      "weak": 2538,
      "tim": 2539,
      "deser": 2540,
      "justice": 2541,
      "advantage": 2542,
      "ago": 2543,
      "bare": 2544,
      "prou": 2545,
      "Made": 2546,
      "),": 2547,
      "bas": 2548,
      "isto": 2549,
      "unity": 2550,
      "difficulty": 2551,
      "frequ": 2552,
      "ior": 2553,
      "immense": 2554,
      "proper": 2555,
      "sport": 2556,
      "susp": 2557,
      "village": 2558,
      "pound": 2559,
      "vir": 2560,
      "exe": 2561,
      "fold": 2562,
      "north": 2563,
      "steam": 2564,
      "Hen": 2565,
      "sin": 2566,
      "sca": 2567,
      "heaven": 2568,
      "quin": 2569,
      "mot": 2570,
      "third": 2571,
      "mil": 2572,
      "sand": 2573,
      "height": 2574,
      "escap": 2575,
      "beat": 2576,
      "stop": 2577,
      "believed": 2578,
      "Prof": 2579,
      "twelve": 2580,
      "super": 2581,
      "shot": 2582,
      "pleasant": 2583,
      "sweet": 2584,
      "pieces": 2585,
      "jou": 2586,
      "beast": 2587,
      "après": 2588,
      "descri": 2589,
      "content": 2590,
      "ladder": 2591,
      "Chapter": 2592,
      ",--": 2593,
      "Will": 2594,
      "pun": 2595,
      "orders": 2596,
      "ounced": 2597,
      "voyage": 2598,
      "Gri": 2599,
      "Ly": 2600,
      "ild": 2601,
      "stro": 2602,
      "entre": 2603,
      "ush": 2604,
      "ours": 2605,
      "queen": 2606,
      "talked": 2607,
      "tis": 2608,
      "pec": 2609,
      "speed": 2610,
      "Professor": 2611,
      "bs": 2612,
      "brow": 2613,
      "pau": 2614,
      "zen": 2615,
      "reck": 2616,
      "acon": 2617,
      "spent": 2618,
      "knees": 2619,
      "rant": 2620,
      "discovered": 2621,
      "trave": 2622,
      "corn": 2623,
      "drawn": 2624,
      "approach": 2625,
      "teeth": 2626,
      "ées": 2627,
      "dont": 2628,
      "temper": 2629,
      "opening": 2630,
      "thrown": 2631,
      "stif": 2632,
      "noon": 2633,
      "und": 2634,
      "rang": 2635,
      "stor": 2636,
      "counten": 2637,
      "attle": 2638,
      "walking": 2639,
      "entirely": 2640,
      "eu": 2641,
      "non": 2642,
      "path": 2643,
      "spl": 2644,
      "offered": 2645,
      "roof": 2646,
      "jeune": 2647,
      "early": 2648,
      "Camille": 2649,
      "gle": 2650,
      "vig": 2651,
      "peace": 2652,
      "Nothing": 2653,
      "wrong": 2654,
      "Ri": 2655,
      "imo": 2656,
      "vast": 2657,
      "weather": 2658,
      "coal": 2659,
      "fais": 2660,
      "remain": 2661,
      "tant": 2662,
      "alle": 2663,
      "marriage": 2664,
      "firm": 2665,
      "lower": 2666,
      "stranger": 2667,
      "build": 2668,
      "Nor": 2669,
      "loud": 2670,
      "chant": 2671,
      "Marquis": 2672,
      "apart": 2673,
      "ba": 2674,
      "intell": 2675,
      "deta": 2676,
      "chet": 2677,
      "ears": 2678,
      "Mont": 2679,
      "Very": 2680,
      "ghed": 2681,
      "ired": 2682,
      "def": 2683,
      "treat": 2684,
      "petit": 2685,
      "grou": 2686,
      "hill": 2687,
      "forced": 2688,
      "ilt": 2689,
      "itten": 2690,
      "ressing": 2691,
      "étaient": 2692,
      "RE": 2693,
      "ile": 2694,
      "outside": 2695,
      "premi": 2696,
      "lieu": 2697,
      "regular": 2698,
      "write": 2699,
      "empty": 2700,
      "charming": 2701,
      "ocean": 2702,
      "pill": 2703,
      "pond": 2704,
      "ences": 2705,
      "although": 2706,
      "convi": 2707,
      "plate": 2708,
      "refle": 2709,
      "nine": 2710,
      "ina": 2711,
      "assi": 2712,
      "semb": 2713,
      "abbe": 2714,
      "toute": 2715,
      "Pierre": 2716,
      "according": 2717,
      "pocket": 2718,
      "Are": 2719,
      "Master": 2720,
      "sence": 2721,
      "wine": 2722,
      "enorm": 2723,
      "iting": 2724,
      "forth": 2725,
      "loss": 2726,
      "aband": 2727,
      "pursu": 2728,
      "degrees": 2729,
      "Ca": 2730,
      "ban": 2731,
      "bright": 2732,
      "là": 2733,
      "west": 2734,
      "theless": 2735,
      "shoulder": 2736,
      "execut": 2737,
      "ctive": 2738,
      "madame": 2739,
      "relie": 2740,
      "accus": 2741,
      "excell": 2742,
      "south": 2743,
      "learned": 2744,
      "Did": 2745,
      "Rue": 2746,
      "Su": 2747,
      "mour": 2748,
      "atre": 2749,
      "suis": 2750,
      "els": 2751,
      "news": 2752,
      "double": 2753,
      "movement": 2754,
      "drink": 2755,
      "ben": 2756,
      "ead": 2757,
      "lers": 2758,
      "regre": 2759,
      "opport": 2760,
      "shook": 2761,
      "Parme": 2762,
      "petite": 2763,
      "colonists": 2764,
      "existence": 2765,
      "Et": 2766,
      "Ra": 2767,
      "police": 2768,
      "ouses": 2769,
      "parti": 2770,
      "ker": 2771,
      "forty": 2772,
      "sie": 2773,
      "fashion": 2774,
      "bran": 2775,
      "meters": 2776,
      "farther": 2777,
      "settled": 2778,
      "breakfast": 2779,
      "Perhaps": 2780,
      "Ex": 2781,
      "dare": 2782,
      "pac": 2783,
      "swi": 2784,
      "ash": 2785,
      "lift": 2786,
      "mount": 2787,
      "satisfied": 2788,
      "AN": 2789,
      "ois": 2790,
      "knowing": 2791,
      "crime": 2792,
      "instead": 2793,
      "pride": 2794,
      "atience": 2795,
      "square": 2796,
      "leag": 2797,
      "stir": 2798,
      "hop": 2799,
      "lod": 2800,
      "rance": 2801,
      "cler": 2802,
      "forgotten": 2803,
      "May": 2804,
      "bal": 2805,
      "mmes": 2806,
      "pé": 2807,
      "heur": 2808,
      "inhabit": 2809,
      "search": 2810,
      "wide": 2811,
      "liber": 2812,
      "lose": 2813,
      "maid": 2814,
      "seem": 2815,
      "tender": 2816,
      "Ind": 2817,
      "sword": 2818,
      "fee": 2819,
      "companion": 2820,
      "duty": 2821,
      "countenance": 2822,
      "hast": 2823,
      "tall": 2824,
      "leg": 2825,
      "quo": 2826,
      "accomp": 2827,
      "cience": 2828,
      "minute": 2829,
      "purpose": 2830,
      "fifteen": 2831,
      "avoid": 2832,
      "aussi": 2833,
      "pity": 2834,
      "pisto": 2835,
      "seig": 2836,
      "unic": 2837,
      "ield": 2838,
      "obst": 2839,
      "horri": 2840,
      "approached": 2841,
      "officer": 2842,
      "enormous": 2843,
      "Bu": 2844,
      "Have": 2845,
      "sitting": 2846,
      "reli": 2847,
      "comfort": 2848,
      "ots": 2849,
      "honour": 2850,
      "000": 2851,
      "started": 2852,
      "worthy": 2853,
      "occupied": 2854,
      "fortunate": 2855,
      "Mademoiselle": 2856,
      "Fix": 2857,
      "eut": 2858,
      "itor": 2859,
      "mbe": 2860,
      "zing": 2861,
      "armed": 2862,
      "liked": 2863,
      "noticed": 2864,
      "arer": 2865,
      "preser": 2866,
      "Canad": 2867,
      "bou": 2868,
      "jet": 2869,
      "vary": 2870,
      "camp": 2871,
      "oppos": 2872,
      "tree": 2873,
      "action": 2874,
      "toutes": 2875,
      "scene": 2876,
      "beauty": 2877,
      "flesh": 2878,
      "iety": 2879,
      "incl": 2880,
      "asimo": 2881,
      "legs": 2882,
      "ingu": 2883,
      "meas": 2884,
      "moon": 2885,
      "ctions": 2886,
      "amid": 2887,
      "wned": 2888,
      "written": 2889,
      "listen": 2890,
      "Quasimo": 2891,
      "difficult": 2892,
      "Quasimodo": 2893,
      "Lin": 2894,
      "cous": 2895,
      "cart": 2896,
      "dry": 2897,
      "ative": 2898,
      "grace": 2899,
      "faces": 2900,
      "bent": 2901,
      "city": 2902,
      "willing": 2903,
      "psy": 2904,
      "distingu": 2905,
      "rushed": 2906,
      "result": 2907,
      "violent": 2908,
      "vague": 2909,
      "Was": 2910,
      "bility": 2911,
      "houses": 2912,
      "yield": 2913,
      "determin": 2914,
      "fever": 2915,
      "doctor": 2916,
      "climb": 2917,
      "iment": 2918,
      "kno": 2919,
      "sous": 2920,
      "ines": 2921,
      "stick": 2922,
      "stones": 2923,
      "del": 2924,
      "wore": 2925,
      "mured": 2926,
      "girls": 2927,
      "adventure": 2928,
      "ourselves": 2929,
      "ends": 2930,
      "coln": 2931,
      "vided": 2932,
      "support": 2933,
      "Lincoln": 2934,
      "18": 2935,
      "Mou": 2936,
      "eût": 2937,
      "aste": 2938,
      "ache": 2939,
      "excellent": 2940,
      "ires": 2941,
      "inn": 2942,
      "coll": 2943,
      "party": 2944,
      "class": 2945,
      "paid": 2946,
      "falling": 2947,
      "spring": 2948,
      "général": 2949,
      "regret": 2950,
      "Canadian": 2951,
      "em": 2952,
      "prend": 2953,
      "murmured": 2954,
      "motionless": 2955,
      "jesty": 2956,
      "Amer": 2957,
      "rise": 2958,
      "ende": 2959,
      "iture": 2960,
      "liqu": 2961,
      "unknown": 2962,
      "moor": 2963,
      "absol": 2964,
      "possi": 2965,
      "plant": 2966,
      "ideas": 2967,
      "faction": 2968,
      "tranqu": 2969,
      "yellow": 2970,
      "contrary": 2971,
      "Two": 2972,
      "ital": 2973,
      "tait": 2974,
      "ishing": 2975,
      "ignor": 2976,
      "laughing": 2977,
      "stretched": 2978,
      "pressed": 2979,
      "repro": 2980,
      "atter": 2981,
      "cts": 2982,
      "whatever": 2983,
      "simply": 2984,
      "increased": 2985,
      "memory": 2986,
      ".,": 2987,
      "Of": 2988,
      "cot": 2989,
      "cost": 2990,
      "sui": 2991,
      "polit": 2992,
      "marry": 2993,
      "rooms": 2994,
      "lines": 2995,
      "reed": 2996,
      "ray": 2997,
      "spirit": 2998,
      "bru": 2999,
      "game": 3000,
      "ôt": 3001,
      "soir": 3002,
      "princi": 3003,
      "Fer": 3004,
      "agit": 3005,
      "ieu": 3006,
      "magnific": 3007,
      "escaped": 3008,
      "cé": 3009,
      "gan": 3010,
      "host": 3011,
      "moving": 3012,
      "likely": 3013,
      "langu": 3014,
      "explo": 3015,
      "holding": 3016,
      "blind": 3017,
      "Friday": 3018,
      "dy": 3019,
      "leep": 3020,
      "devo": 3021,
      "thern": 3022,
      "chee": 3023,
      "prud": 3024,
      "surround": 3025,
      "pier": 3026,
      "doors": 3027,
      "seigneur": 3028,
      "Li": 3029,
      "sé": 3030,
      "winter": 3031,
      "alous": 3032,
      "ference": 3033,
      "huge": 3034,
      "animals": 3035,
      "threat": 3036,
      "shouted": 3037,
      "opportunity": 3038,
      "mbered": 3039,
      "Ger": 3040,
      "eager": 3041,
      "pardon": 3042,
      "wing": 3043,
      "ange": 3044,
      "itty": 3045,
      "pray": 3046,
      "completely": 3047,
      "Louis": 3048,
      "occurred": 3049,
      "apo": 3050,
      "notice": 3051,
      "makes": 3052,
      "femme": 3053,
      "pow": 3054,
      "exha": 3055,
      "prote": 3056,
      "votre": 3057,
      "miser": 3058,
      "ize": 3059,
      "Top": 3060,
      "fun": 3061,
      "faint": 3062,
      "luck": 3063,
      "ression": 3064,
      "feelings": 3065,
      "profound": 3066,
      "trop": 3067,
      "ON": 3068,
      "Plan": 3069,
      "attempt": 3070,
      "safe": 3071,
      "uneas": 3072,
      "train": 3073,
      "Bovary": 3074,
      "Our": 3075,
      "ump": 3076,
      "stup": 3077,
      "Their": 3078,
      "resent": 3079,
      "discus": 3080,
      "smiled": 3081,
      "promised": 3082,
      "burning": 3083,
      "absolute": 3084,
      "Phile": 3085,
      "inv": 3086,
      "deacon": 3087,
      "lock": 3088,
      "cheval": 3089,
      "venir": 3090,
      "pron": 3091,
      "compla": 3092,
      "crossed": 3093,
      "Phileas": 3094,
      "Pho": 3095,
      "ête": 3096,
      "nel": 3097,
      "avant": 3098,
      "served": 3099,
      "breast": 3100,
      "toujours": 3101,
      "promise": 3102,
      "suspic": 3103,
      "During": 3104,
      "bled": 3105,
      "fond": 3106,
      "slo": 3107,
      "sides": 3108,
      "asleep": 3109,
      "esta": 3110,
      "vere": 3111,
      "current": 3112,
      "quelques": 3113,
      "Planchet": 3114,
      "Eu": 3115,
      "ory": 3116,
      "places": 3117,
      "cano": 3118,
      "pied": 3119,
      "joined": 3120,
      "touched": 3121,
      "fancy": 3122,
      "exactly": 3123,
      "opposite": 3124,
      "Ber": 3125,
      "pot": 3126,
      "guess": 3127,
      "Only": 3128,
      "beside": 3129,
      "succeeded": 3130,
      "important": 3131,
      "While": 3132,
      "dam": 3133,
      "ere": 3134,
      "ech": 3135,
      "sla": 3136,
      "iter": 3137,
      "melan": 3138,
      "weight": 3139,
      "prepa": 3140,
      "attend": 3141,
      "reflect": 3142,
      "situation": 3143,
      "cise": 3144,
      "edge": 3145,
      "saved": 3146,
      "hot": 3147,
      "greatly": 3148,
      "charge": 3149,
      "assured": 3150,
      "pounds": 3151,
      "ebus": 3152,
      "trust": 3153,
      "wis": 3154,
      "deb": 3155,
      "curi": 3156,
      "bitter": 3157,
      "settlers": 3158,
      "Phoebus": 3159,
      "prepared": 3160,
      "flat": 3161,
      "wha": 3162,
      "heat": 3163,
      "heures": 3164,
      "expla": 3165,
      "court": 3166,
      "chose": 3167,
      "quietly": 3168,
      "society": 3169,
      "proud": 3170,
      "melancho": 3171,
      "bill": 3172,
      "lors": 3173,
      "indic": 3174,
      "brid": 3175,
      "communic": 3176,
      "advanced": 3177,
      "rudence": 3178,
      "melancholy": 3179,
      "eper": 3180,
      "test": 3181,
      "seas": 3182,
      "meant": 3183,
      "hig": 3184,
      "nobody": 3185,
      "caused": 3186,
      "worse": 3187,
      "rank": 3188,
      "dia": 3189,
      "greater": 3190,
      "oland": 3191,
      "minist": 3192,
      "donner": 3193,
      "fami": 3194,
      "depths": 3195,
      "wretched": 3196,
      "Car": 3197,
      "spar": 3198,
      "star": 3199,
      "terday": 3200,
      "feared": 3201,
      "consent": 3202,
      "chen": 3203,
      "broad": 3204,
      "supper": 3205,
      "wounded": 3206,
      "ah": 3207,
      "nou": 3208,
      "tres": 3209,
      "tong": 3210,
      "quand": 3211,
      "coach": 3212,
      "contra": 3213,
      "disait": 3214,
      "skin": 3215,
      "agreeable": 3216,
      "tur": 3217,
      "delic": 3218,
      "cela": 3219,
      "entend": 3220,
      "fati": 3221,
      "mach": 3222,
      "pris": 3223,
      "brill": 3224,
      "trans": 3225,
      "archdeacon": 3226,
      "strike": 3227,
      "porte": 3228,
      "AR": 3229,
      "bag": 3230,
      "zy": 3231,
      "inform": 3232,
      "quet": 3233,
      "ami": 3234,
      "commen": 3235,
      "New": 3236,
      "questions": 3237,
      "touch": 3238,
      "fingers": 3239,
      "vres": 3240,
      "seat": 3241,
      "decla": 3242,
      "hoped": 3243,
      "suit": 3244,
      "monde": 3245,
      "finding": 3246,
      "ease": 3247,
      "osity": 3248,
      "interrupted": 3249,
      "knowledge": 3250,
      "exhaust": 3251,
      "cation": 3252,
      "dem": 3253,
      "rote": 3254,
      "agreed": 3255,
      "played": 3256,
      "sought": 3257,
      "astonished": 3258,
      "leagues": 3259,
      "Che": 3260,
      "gin": 3261,
      "wand": 3262,
      "recon": 3263,
      "adm": 3264,
      "assist": 3265,
      "corral": 3266,
      "runk": 3267,
      "storm": 3268,
      "Lady": 3269,
      "Mer": 3270,
      "vul": 3271,
      "wrote": 3272,
      "nose": 3273,
      "influ": 3274,
      "Que": 3275,
      "trying": 3276,
      "çon": 3277,
      "quise": 3278,
      "quire": 3279,
      "chambre": 3280,
      "grass": 3281,
      "gypsy": 3282,
      "Europe": 3283,
      "ama": 3284,
      "scr": 3285,
      "yard": 3286,
      "station": 3287,
      "conne": 3288,
      "tily": 3289,
      "venge": 3290,
      "silver": 3291,
      "honor": 3292,
      "grief": 3293,
      "arrange": 3294,
      "sufficient": 3295,
      "enced": 3296,
      "ashed": 3297,
      "using": 3298,
      "absence": 3299,
      "faut": 3300,
      "thank": 3301,
      "plat": 3302,
      "gallery": 3303,
      "physi": 3304,
      "horrible": 3305,
      "Gr": 3306,
      "Les": 3307,
      "fis": 3308,
      "oper": 3309,
      "chev": 3310,
      "mistaken": 3311,
      "capable": 3312,
      "pulled": 3313,
      "sens": 3314,
      "Had": 3315,
      "dir": 3316,
      "dying": 3317,
      "kit": 3318,
      "rodu": 3319,
      "introdu": 3320,
      "greatest": 3321,
      "powerful": 3322,
      "smoke": 3323,
      "birds": 3324,
      "twice": 3325,
      "bid": 3326,
      "enant": 3327,
      "velo": 3328,
      "sacri": 3329,
      "moins": 3330,
      "design": 3331,
      "trembling": 3332,
      "putting": 3333,
      "Yet": 3334,
      "dan": 3335,
      "ality": 3336,
      "unable": 3337,
      "tap": 3338,
      "reading": 3339,
      "angry": 3340,
      "horror": 3341,
      "visible": 3342,
      "spoken": 3343,
      "Comp": 3344,
      "transport": 3345,
      "acquaint": 3346,
      "Elle": 3347,
      "battle": 3348,
      "dining": 3349,
      "sions": 3350,
      "poison": 3351,
      "lets": 3352,
      "plun": 3353,
      "arrival": 3354,
      "singular": 3355,
      "gazed": 3356,
      "satisfaction": 3357,
      "candle": 3358,
      "Musketeers": 3359,
      "determined": 3360,
      "magnificent": 3361,
      "IS": 3362,
      "Kitty": 3363,
      "jus": 3364,
      "ître": 3365,
      "attra": 3366,
      "isters": 3367,
      "rolled": 3368,
      "acc": 3369,
      "intent": 3370,
      "useless": 3371,
      "elect": 3372,
      "Mean": 3373,
      "books": 3374,
      "conduct": 3375,
      "evidently": 3376,
      "kitchen": 3377,
      "Roland": 3378,
      "Val": 3379,
      "Wick": 3380,
      "loso": 3381,
      "speech": 3382,
      "servants": 3383,
      "imagine": 3384,
      "quoi": 3385,
      "Si": 3386,
      "Sou": 3387,
      "han": 3388,
      "song": 3389,
      "scre": 3390,
      "asc": 3391,
      "asp": 3392,
      "ordered": 3393,
      "nom": 3394,
      "rien": 3395,
      "streets": 3396,
      "sorry": 3397,
      "destro": 3398,
      "remark": 3399,
      "jump": 3400,
      "nal": 3401,
      "reve": 3402,
      "sau": 3403,
      "shud": 3404,
      "yesterday": 3405,
      "judge": 3406,
      "growing": 3407,
      "produced": 3408,
      "arranged": 3409,
      "extremely": 3410,
      "establ": 3411,
      "Wickham": 3412,
      "pure": 3413,
      "snow": 3414,
      "receive": 3415,
      "tide": 3416,
      "bold": 3417,
      "ggest": 3418,
      "laughed": 3419,
      "remembered": 3420,
      "east": 3421,
      "fou": 3422,
      "gal": 3423,
      "nais": 3424,
      "tin": 3425,
      "taste": 3426,
      "assure": 3427,
      "hide": 3428,
      "persu": 3429,
      "discover": 3430,
      "sidered": 3431,
      "rested": 3432,
      "famous": 3433,
      "dared": 3434,
      "supposed": 3435,
      "rieres": 3436,
      "leaves": 3437,
      "suspect": 3438,
      "heureux": 3439,
      "Look": 3440,
      "favour": 3441,
      "philoso": 3442,
      "Verrieres": 3443,
      "sacrifi": 3444,
      "aper": 3445,
      "pin": 3446,
      "thered": 3447,
      "eness": 3448,
      "lest": 3449,
      "alive": 3450,
      "hole": 3451,
      "lover": 3452,
      "considered": 3453,
      "onel": 3454,
      "due": 3455,
      "lighted": 3456,
      "sentence": 3457,
      "stead": 3458,
      "returning": 3459,
      "prac": 3460,
      "rupt": 3461,
      "Pe": 3462,
      "pper": 3463,
      "meter": 3464,
      "depuis": 3465,
      "notre": 3466,
      "clean": 3467,
      "presented": 3468,
      "laughter": 3469,
      "period": 3470,
      "particularly": 3471,
      "concealed": 3472,
      "Henry": 3473,
      "anti": 3474,
      "esse": 3475,
      "irrit": 3476,
      "ford": 3477,
      "sake": 3478,
      "quer": 3479,
      "goes": 3480,
      "appre": 3481,
      "jealous": 3482,
      "ols": 3483,
      "priv": 3484,
      "Coll": 3485,
      "brave": 3486,
      "frightful": 3487,
      "equal": 3488,
      "lun": 3489,
      "rob": 3490,
      "resist": 3491,
      "upper": 3492,
      "horn": 3493,
      "distant": 3494,
      "penet": 3495,
      "triump": 3496,
      "anxiety": 3497,
      "Thus": 3498,
      "chim": 3499,
      "gment": 3500,
      "lord": 3501,
      "rous": 3502,
      "ism": 3503,
      "conven": 3504,
      "contre": 3505,
      "itement": 3506,
      "cial": 3507,
      "répon": 3508,
      "Majesty": 3509,
      "refused": 3510,
      "suffered": 3511,
      "portion": 3512,
      "cruel": 3513,
      "degree": 3514,
      "rapidly": 3515,
      "departure": 3516,
      "Collins": 3517,
      "ES": 3518,
      "een": 3519,
      "pushed": 3520,
      "vais": 3521,
      "tomed": 3522,
      "ties": 3523,
      "comb": 3524,
      "calcul": 3525,
      "bonheur": 3526,
      "ceeding": 3527,
      "astonishment": 3528,
      "pendant": 3529,
      "endeav": 3530,
      "aunt": 3531,
      "youth": 3532,
      "advice": 3533,
      "peas": 3534,
      "sick": 3535,
      "owed": 3536,
      "couldn": 3537,
      "duke": 3538,
      "thanks": 3539,
      "finite": 3540,
      "carefully": 3541,
      "Maheude": 3542,
      "arrass": 3543,
      "inet": 3544,
      "required": 3545,
      "becoming": 3546,
      "reser": 3547,
      "sont": 3548,
      "grande": 3549,
      "born": 3550,
      "Ab": 3551,
      "dai": 3552,
      "nier": 3553,
      "route": 3554,
      "ancient": 3555,
      "unless": 3556,
      "unhappy": 3557,
      "rare": 3558,
      "shel": 3559,
      "worn": 3560,
      "minence": 3561,
      "creatures": 3562,
      "hearing": 3563,
      "embarrass": 3564,
      "gesture": 3565,
      "thrust": 3566,
      "asking": 3567,
      "indif": 3568,
      "playing": 3569,
      "calling": 3570,
      "dreadful": 3571,
      "miserable": 3572,
      "Winter": 3573,
      "pse": 3574,
      "astic": 3575,
      "cool": 3576,
      "parts": 3577,
      "presently": 3578,
      "listening": 3579,
      "recognized": 3580,
      "influence": 3581,
      "Mary": 3582,
      "asing": 3583,
      "vet": 3584,
      "vering": 3585,
      "etc": 3586,
      "note": 3587,
      "neys": 3588,
      "près": 3589,
      "audi": 3590,
      "tains": 3591,
      "depend": 3592,
      "driven": 3593,
      "vinced": 3594,
      "counter": 3595,
      "extraordinary": 3596,
      "**": 3597,
      "ald": 3598,
      "aid": 3599,
      "dust": 3600,
      "pher": 3601,
      "reux": 3602,
      "rade": 3603,
      "contemp": 3604,
      "shed": 3605,
      "chez": 3606,
      "shame": 3607,
      "brown": 3608,
      "spec": 3609,
      "confidence": 3610,
      "electric": 3611,
      "Mor": 3612,
      "ec": 3613,
      "pair": 3614,
      "health": 3615,
      "betra": 3616,
      "history": 3617,
      "soli": 3618,
      "accompan": 3619,
      "ables": 3620,
      "respond": 3621,
      "author": 3622,
      "grey": 3623,
      "observ": 3624,
      "frightened": 3625,
      "weeks": 3626,
      "ckingham": 3627,
      "finger": 3628,
      "probably": 3629,
      "employ": 3630,
      "Buckingham": 3631,
      "ax": 3632,
      "œur": 3633,
      "enfin": 3634,
      "iti": 3635,
      "delay": 3636,
      "adv": 3637,
      "pered": 3638,
      "proved": 3639,
      "mbs": 3640,
      "dually": 3641,
      "looks": 3642,
      "Notre": 3643,
      "Indeed": 3644,
      "imagination": 3645,
      "considerable": 3646,
      "accustomed": 3647,
      "cousin": 3648,
      "Far": 3649,
      "gne": 3650,
      "ishop": 3651,
      "lais": 3652,
      "explain": 3653,
      "desired": 3654,
      "report": 3655,
      "earnest": 3656,
      "curious": 3657,
      "stern": 3658,
      "Jehan": 3659,
      "conscious": 3660,
      "prendre": 3661,
      "ule": 3662,
      "lives": 3663,
      "wear": 3664,
      "hollow": 3665,
      "fault": 3666,
      "propos": 3667,
      "yours": 3668,
      "writing": 3669,
      "damp": 3670,
      "keeping": 3671,
      "Homais": 3672,
      "summer": 3673,
      "disturbed": 3674,
      "Raquin": 3675,
      "explained": 3676,
      "lou": 3677,
      "lis": 3678,
      "rist": 3679,
      "èrent": 3680,
      "ceased": 3681,
      "share": 3682,
      "marked": 3683,
      "afternoon": 3684,
      "engaged": 3685,
      "gging": 3686,
      "events": 3687,
      "platform": 3688,
      "cô": 3689,
      "ny": 3690,
      "orous": 3691,
      "vert": 3692,
      "uses": 3693,
      "features": 3694,
      "somewhat": 3695,
      "rows": 3696,
      "ceiving": 3697,
      "eleven": 3698,
      "bottle": 3699,
      "observe": 3700,
      "bree": 3701,
      "ole": 3702,
      "erville": 3703,
      "ushing": 3704,
      "food": 3705,
      "appar": 3706,
      "seek": 3707,
      "igence": 3708,
      "slept": 3709,
      "hurried": 3710,
      "importance": 3711,
      "stupid": 3712,
      "Vous": 3713,
      "pul": 3714,
      "tw": 3715,
      "vant": 3716,
      "tow": 3717,
      "suggest": 3718,
      "palais": 3719,
      "directly": 3720,
      "Meanwhile": 3721,
      "Clau": 3722,
      "Hans": 3723,
      "OF": 3724,
      "OR": 3725,
      "inside": 3726,
      "accident": 3727,
      "conclu": 3728,
      "oked": 3729,
      "avaient": 3730,
      "telling": 3731,
      "vision": 3732,
      "smiling": 3733,
      "swear": 3734,
      "fields": 3735,
      "kerchief": 3736,
      "language": 3737,
      "bless": 3738,
      "glan": 3739,
      "kni": 3740,
      "nur": 3741,
      "level": 3742,
      "cep": 3743,
      "lier": 3744,
      "exer": 3745,
      "assez": 3746,
      "suffering": 3747,
      "leaning": 3748,
      "apartment": 3749,
      "cers": 3750,
      "emotion": 3751,
      "vity": 3752,
      "ony": 3753,
      "consult": 3754,
      "convinced": 3755,
      "anyone": 3756,
      "prepar": 3757,
      "reek": 3758,
      "marquis": 3759,
      "crew": 3760,
      "gently": 3761,
      "join": 3762,
      "ively": 3763,
      "mettre": 3764,
      "catch": 3765,
      "meeting": 3766,
      "Lydia": 3767,
      "powder": 3768,
      "tongue": 3769,
      "Claude": 3770,
      "Fair": 3771,
      "Would": 3772,
      "cun": 3773,
      "fal": 3774,
      "fant": 3775,
      "aled": 3776,
      "sage": 3777,
      "explan": 3778,
      "comfor": 3779,
      "mbers": 3780,
      "prefer": 3781,
      "ints": 3782,
      "marquise": 3783,
      "mud": 3784,
      "cries": 3785,
      "visions": 3786,
      "risk": 3787,
      "merely": 3788,
      "descend": 3789,
      "gleam": 3790,
      "intelligence": 3791,
      "Dame": 3792,
      "Dieu": 3793,
      "San": 3794,
      "io": 3795,
      "inno": 3796,
      "quatre": 3797,
      "soil": 3798,
      "acle": 3799,
      "goat": 3800,
      "handkerchief": 3801,
      "Because": 3802,
      "examined": 3803,
      "côté": 3804,
      "Or": 3805,
      "omy": 3806,
      "tue": 3807,
      "ises": 3808,
      "sigh": 3809,
      "serait": 3810,
      "impression": 3811,
      "cured": 3812,
      "finally": 3813,
      "depth": 3814,
      "office": 3815,
      "Chaval": 3816,
      "possession": 3817,
      "frequently": 3818,
      "OU": 3819,
      "oon": 3820,
      "itary": 3821,
      "demain": 3822,
      "entrance": 3823,
      "quit": 3824,
      "gens": 3825,
      "trouver": 3826,
      "buried": 3827,
      "ridic": 3828,
      "hanging": 3829,
      "bbing": 3830,
      "Montsou": 3831,
      "Company": 3832,
      "jusqu": 3833,
      "triumph": 3834,
      "Span": 3835,
      "bun": 3836,
      "bits": 3837,
      "rese": 3838,
      "ché": 3839,
      "lake": 3840,
      "unfortunate": 3841,
      "gious": 3842,
      "carrying": 3843,
      "aware": 3844,
      "violence": 3845,
      "grown": 3846,
      "dangerous": 3847,
      "pouvait": 3848,
      "stayed": 3849,
      "breaking": 3850,
      "ample": 3851,
      "liberty": 3852,
      "Long": 3853,
      "bul": 3854,
      "sang": 3855,
      "sisters": 3856,
      "tent": 3857,
      "enjoy": 3858,
      "toi": 3859,
      "aches": 3860,
      "tea": 3861,
      "pol": 3862,
      "ified": 3863,
      "guide": 3864,
      "shoes": 3865,
      "misery": 3866,
      "species": 3867,
      "curiosity": 3868,
      "EN": 3869,
      "dwell": 3870,
      "labour": 3871,
      "som": 3872,
      "appoint": 3873,
      "cile": 3874,
      "represent": 3875,
      "built": 3876,
      "fastened": 3877,
      "soldiers": 3878,
      "possessed": 3879,
      "Nevertheless": 3880,
      "execution": 3881,
      "az": 3882,
      "aille": 3883,
      "granite": 3884,
      "isn": 3885,
      "esprit": 3886,
      "severe": 3887,
      "sty": 3888,
      "aloud": 3889,
      "liar": 3890,
      "rier": 3891,
      "quelle": 3892,
      "ained": 3893,
      "ically": 3894,
      "aff": 3895,
      "longed": 3896,
      "posit": 3897,
      "artin": 3898,
      "donc": 3899,
      "remarked": 3900,
      "nouve": 3901,
      "acquaintance": 3902,
      "accompanied": 3903,
      "Hall": 3904,
      "Since": 3905,
      "dess": 3906,
      "vas": 3907,
      "stam": 3908,
      "deaf": 3909,
      "beheld": 3910,
      "quant": 3911,
      "rable": 3912,
      "acy": 3913,
      "superi": 3914,
      "dolp": 3915,
      "voices": 3916,
      "furious": 3917,
      "ventured": 3918,
      "belonged": 3919,
      "favor": 3920,
      "struggle": 3921,
      "15": 3922,
      "Martin": 3923,
      "Rob": 3924,
      "aim": 3925,
      "evil": 3926,
      "sire": 3927,
      "cade": 3928,
      "ulous": 3929,
      "intended": 3930,
      "watching": 3931,
      "distress": 3932,
      "sooner": 3933,
      "staircase": 3934,
      "mysterious": 3935,
      "Cer": 3936,
      "Prudence": 3937,
      "nie": 3938,
      "orig": 3939,
      "beha": 3940,
      "terms": 3941,
      "agger": 3942,
      "space": 3943,
      "ships": 3944,
      "centre": 3945,
      "dropped": 3946,
      "flowers": 3947,
      "swift": 3948,
      "mounted": 3949,
      "Mercy": 3950,
      "Fe": 3951,
      "fru": 3952,
      "pir": 3953,
      "plu": 3954,
      "sw": 3955,
      "angu": 3956,
      "hopes": 3957,
      "tied": 3958,
      "worked": 3959,
      "mony": 3960,
      "stock": 3961,
      "angle": 3962,
      "appears": 3963,
      "address": 3964,
      "brig": 3965,
      "fury": 3966,
      "blows": 3967,
      "separated": 3968,
      "clouds": 3969,
      "governess": 3970,
      "splend": 3971,
      "Col": 3972,
      "Eh": 3973,
      "Place": 3974,
      "emer": 3975,
      "fille": 3976,
      "ica": 3977,
      "âme": 3978,
      "beach": 3979,
      "dom": 3980,
      "compre": 3981,
      "constantly": 3982,
      "cinq": 3983,
      "faisait": 3984,
      "absolutely": 3985,
      "specta": 3986,
      "Eminence": 3987,
      "lk": 3988,
      "ners": 3989,
      "ency": 3990,
      "alais": 3991,
      "sais": 3992,
      "rai": 3993,
      "moder": 3994,
      "parler": 3995,
      "miss": 3996,
      "confused": 3997,
      "signal": 3998,
      "drive": 3999,
      "fanci": 4000,
      "Such": 4001,
      "Ice": 4002,
      "ale": 4003,
      "pave": 4004,
      "leurs": 4005,
      "hers": 4006,
      "dozen": 4007,
      "mps": 4008,
      "geon": 4009,
      "Ital": 4010,
      "serve": 4011,
      "sprang": 4012,
      "cloak": 4013,
      "picture": 4014,
      "hunger": 4015,
      "mates": 4016,
      "signed": 4017,
      "names": 4018,
      "écria": 4019,
      "surrounded": 4020,
      "superior": 4021,
      "origin": 4022,
      "Bel": 4023,
      "Dr": 4024,
      "Henne": 4025,
      "Jup": 4026,
      "arse": 4027,
      "rays": 4028,
      "absor": 4029,
      "amour": 4030,
      "amond": 4031,
      "fier": 4032,
      "working": 4033,
      "bore": 4034,
      "boys": 4035,
      "interior": 4036,
      "Leva": 4037,
      "subst": 4038,
      "disturb": 4039,
      "request": 4040,
      "argu": 4041,
      "hither": 4042,
      "nephe": 4043,
      "abrupt": 4044,
      "tire": 4045,
      "ainsi": 4046,
      "indi": 4047,
      "proceeded": 4048,
      "distra": 4049,
      "matters": 4050,
      "collect": 4051,
      "interval": 4052,
      "century": 4053,
      "enemy": 4054,
      "cutting": 4055,
      "devant": 4056,
      "deeply": 4057,
      "bringing": 4058,
      "attack": 4059,
      "spirits": 4060,
      "Duke": 4061,
      "nephew": 4062,
      "Rou": 4063,
      "yal": 4064,
      "remor": 4065,
      "arily": 4066,
      "meme": 4067,
      "keen": 4068,
      "haste": 4069,
      "generally": 4070,
      "imagined": 4071,
      "waist": 4072,
      "delighted": 4073,
      "evident": 4074,
      "faithful": 4075,
      "lifted": 4076,
      "familiar": 4077,
      "Rassi": 4078,
      "sn": 4079,
      "anno": 4080,
      "refu": 4081,
      "aside": 4082,
      "season": 4083,
      "vern": 4084,
      "nearer": 4085,
      "diamond": 4086,
      "pressure": 4087,
      "gradually": 4088,
      "addressed": 4089,
      "Leon": 4090,
      "supply": 4091,
      "concern": 4092,
      "mentioned": 4093,
      "declared": 4094,
      "Hu": 4095,
      "IV": 4096,
      "West": 4097,
      "fen": 4098,
      "farm": 4099,
      "sank": 4100,
      "thunder": 4101,
      "weary": 4102,
      "etre": 4103,
      "couple": 4104,
      "avez": 4105,
      "compass": 4106,
      "cript": 4107,
      "crown": 4108,
      "gaze": 4109,
      "settlement": 4110,
      "archite": 4111,
      "linen": 4112,
      "Sometimes": 4113,
      "seriously": 4114,
      "probable": 4115,
      "savage": 4116,
      "knife": 4117,
      "Wat": 4118,
      "cœur": 4119,
      "gers": 4120,
      "hero": 4121,
      "atmo": 4122,
      "attemp": 4123,
      "verse": 4124,
      "ading": 4125,
      "failed": 4126,
      "assass": 4127,
      "ruin": 4128,
      "vingt": 4129,
      "reader": 4130,
      "guest": 4131,
      "pick": 4132,
      "fortnight": 4133,
      "arrive": 4134,
      "drowned": 4135,
      "instantly": 4136,
      "guns": 4137,
      "fly": 4138,
      "hé": 4139,
      "swall": 4140,
      "aspect": 4141,
      "llen": 4142,
      "vey": 4143,
      "idée": 4144,
      "poet": 4145,
      "caut": 4146,
      "shru": 4147,
      "vois": 4148,
      "plais": 4149,
      "treated": 4150,
      "cesse": 4151,
      "happen": 4152,
      "numer": 4153,
      "drove": 4154,
      "tesse": 4155,
      "experienced": 4156,
      "fetch": 4157,
      "consequence": 4158,
      "approaching": 4159,
      "premier": 4160,
      "fatigue": 4161,
      "Ade": 4162,
      "Even": 4163,
      "Te": 4164,
      "mult": 4165,
      "informed": 4166,
      "hidden": 4167,
      "ado": 4168,
      "mage": 4169,
      "tible": 4170,
      "cheer": 4171,
      "posing": 4172,
      "eping": 4173,
      "misfortune": 4174,
      "pict": 4175,
      "contri": 4176,
      "bowed": 4177,
      "flew": 4178,
      "descended": 4179,
      "August": 4180,
      "branches": 4181,
      "Hennebeau": 4182,
      "atmosp": 4183,
      "Sun": 4184,
      "hit": 4185,
      "père": 4186,
      "sl": 4187,
      "uced": 4188,
      "incident": 4189,
      "façon": 4190,
      "rane": 4191,
      "proof": 4192,
      "compli": 4193,
      "colour": 4194,
      "doubtless": 4195,
      "More": 4196,
      "gallant": 4197,
      "Alas": 4198,
      "admiration": 4199,
      "private": 4200,
      "Tho": 4201,
      "cles": 4202,
      "dain": 4203,
      "eux": 4204,
      "gion": 4205,
      "tomb": 4206,
      "offee": 4207,
      "seul": 4208,
      "chol": 4209,
      "fax": 4210,
      "cessive": 4211,
      "passeng": 4212,
      "everybody": 4213,
      "clever": 4214,
      "donn": 4215,
      "profess": 4216,
      "eleg": 4217,
      "présent": 4218,
      "clearly": 4219,
      "excuse": 4220,
      "Prince": 4221,
      "fatal": 4222,
      "bridge": 4223,
      "Fairfax": 4224,
      "\"'": 4225,
      "Port": 4226,
      "aire": 4227,
      "gam": 4228,
      "sme": 4229,
      "suite": 4230,
      "domes": 4231,
      "dull": 4232,
      "compar": 4233,
      "shape": 4234,
      "cris": 4235,
      "impro": 4236,
      "distinct": 4237,
      "charged": 4238,
      "doesn": 4239,
      "frame": 4240,
      "learn": 4241,
      "affairs": 4242,
      "arrê": 4243,
      "reflected": 4244,
      "cheeks": 4245,
      "delicate": 4246,
      "Aou": 4247,
      "fate": 4248,
      "pent": 4249,
      "vap": 4250,
      "heap": 4251,
      "dete": 4252,
      "beam": 4253,
      "roll": 4254,
      "ram": 4255,
      "whence": 4256,
      "impatience": 4257,
      "claim": 4258,
      "painful": 4259,
      "entering": 4260,
      "excited": 4261,
      "gained": 4262,
      "pauvre": 4263,
      "Certain": 4264,
      "Levaque": 4265,
      "Aouda": 4266,
      "coffee": 4267,
      "nation": 4268,
      "recomm": 4269,
      "retired": 4270,
      "era": 4271,
      "haut": 4272,
      "libr": 4273,
      "takes": 4274,
      "peine": 4275,
      "telle": 4276,
      "hate": 4277,
      "fail": 4278,
      "otherwise": 4279,
      "store": 4280,
      "lessly": 4281,
      "lted": 4282,
      "mith": 4283,
      "soup": 4284,
      "izing": 4285,
      "March": 4286,
      "drop": 4287,
      "repeat": 4288,
      "soldier": 4289,
      "Dongo": 4290,
      "deserted": 4291,
      "virtue": 4292,
      "group": 4293,
      "dolphe": 4294,
      "gend": 4295,
      "wra": 4296,
      "relat": 4297,
      "oub": 4298,
      "meth": 4299,
      "timid": 4300,
      "sip": 4301,
      "amou": 4302,
      "shade": 4303,
      "everywhere": 4304,
      "autres": 4305,
      "uliar": 4306,
      "gathered": 4307,
      "murder": 4308,
      "peculiar": 4309,
      "intention": 4310,
      "Cor": 4311,
      "Fort": 4312,
      "Stre": 4313,
      "etern": 4314,
      "vu": 4315,
      "yards": 4316,
      "inj": 4317,
      "attered": 4318,
      "ros": 4319,
      "wet": 4320,
      "raged": 4321,
      "trembled": 4322,
      "jected": 4323,
      "obtain": 4324,
      "nervous": 4325,
      "Chris": 4326,
      "beaucoup": 4327,
      "ignorant": 4328,
      "daily": 4329,
      "Adele": 4330,
      "Ad": 4331,
      "Pac": 4332,
      "fus": 4333,
      "mut": 4334,
      "lowered": 4335,
      "aving": 4336,
      "sons": 4337,
      "torn": 4338,
      "rép": 4339,
      "meaning": 4340,
      "prisoner": 4341,
      "constant": 4342,
      "Harrison": 4343,
      "Guards": 4344,
      "furnished": 4345,
      "brilli": 4346,
      "pavement": 4347,
      "Father": 4348,
      "equ": 4349,
      "fled": 4350,
      "gid": 4351,
      "iet": 4352,
      "mast": 4353,
      "remind": 4354,
      "removed": 4355,
      "deck": 4356,
      "bearing": 4357,
      "rir": 4358,
      "terre": 4359,
      "size": 4360,
      "woke": 4361,
      "elbow": 4362,
      "Its": 4363,
      "disgust": 4364,
      "passer": 4365,
      "crit": 4366,
      "setting": 4367,
      "hypo": 4368,
      "tort": 4369,
      "value": 4370,
      "trouva": 4371,
      "sincere": 4372,
      "kindness": 4373,
      "Bessie": 4374,
      "apparent": 4375,
      "gloomy": 4376,
      "slightly": 4377,
      "various": 4378,
      "III": 4379,
      "gratitude": 4380,
      "study": 4381,
      "convicts": 4382,
      "plunged": 4383,
      "Am": 4384,
      "blan": 4385,
      "science": 4386,
      "vation": 4387,
      "raison": 4388,
      "pear": 4389,
      "procur": 4390,
      "jection": 4391,
      "travers": 4392,
      "brut": 4393,
      "dragged": 4394,
      "remains": 4395,
      "thusi": 4396,
      "flood": 4397,
      "Reed": 4398,
      "rers": 4399,
      "experience": 4400,
      "solemn": 4401,
      "witness": 4402,
      "plateau": 4403,
      "abandoned": 4404,
      "wishes": 4405,
      "solid": 4406,
      "ajou": 4407,
      "ique": 4408,
      "ians": 4409,
      "hend": 4410,
      "inking": 4411,
      "recovered": 4412,
      "onder": 4413,
      "enthusi": 4414,
      "meat": 4415,
      "widow": 4416,
      "alt": 4417,
      "manage": 4418,
      "prove": 4419,
      "volu": 4420,
      "intense": 4421,
      "spend": 4422,
      "spare": 4423,
      "mistake": 4424,
      "directed": 4425,
      "Rodolphe": 4426,
      "persons": 4427,
      "hurry": 4428,
      "needed": 4429,
      "throat": 4430,
      "Poor": 4431,
      "announced": 4432,
      "citade": 4433,
      "Cape": 4434,
      "clerk": 4435,
      "refuge": 4436,
      "Fir": 4437,
      "gai": 4438,
      "ws": 4439,
      "enjo": 4440,
      "atin": 4441,
      "acity": 4442,
      "keys": 4443,
      "tip": 4444,
      "fix": 4445,
      "figu": 4446,
      "chemist": 4447,
      "works": 4448,
      "proposed": 4449,
      "leton": 4450,
      "monster": 4451,
      "begun": 4452,
      "exped": 4453,
      "expressed": 4454,
      "sleeping": 4455,
      "plainly": 4456,
      "naturally": 4457,
      "bird": 4458,
      "details": 4459,
      "hastened": 4460,
      "vengeance": 4461,
      "Pacific": 4462,
      "Bet": 4463,
      "arose": 4464,
      "veget": 4465,
      "maud": 4466,
      "tier": 4467,
      "venait": 4468,
      "worst": 4469,
      "dix": 4470,
      "trace": 4471,
      "mark": 4472,
      "angers": 4473,
      "shire": 4474,
      "continue": 4475,
      "troubled": 4476,
      "amongst": 4477,
      "related": 4478,
      "officers": 4479,
      "brain": 4480,
      "violently": 4481,
      "fortunately": 4482,
      "Comte": 4483,
      "concerned": 4484,
      "employed": 4485,
      "building": 4486,
      "sacrifice": 4487,
      "method": 4488,
      "Bask": 4489,
      "LE": 4490,
      "jor": 4491,
      "rated": 4492,
      "insult": 4493,
      "ashes": 4494,
      "alors": 4495,
      "livres": 4496,
      "limbs": 4497,
      "quette": 4498,
      "keeper": 4499,
      "vious": 4500,
      "omin": 4501,
      "sentiment": 4502,
      "hearts": 4503,
      "emple": 4504,
      "baron": 4505,
      "relief": 4506,
      "Certainly": 4507,
      "Bour": 4508,
      "Cune": 4509,
      "Take": 4510,
      "crying": 4511,
      "gly": 4512,
      "harm": 4513,
      "pup": 4514,
      "tles": 4515,
      "âte": 4516,
      "rez": 4517,
      "tower": 4518,
      "ller": 4519,
      "usually": 4520,
      "resc": 4521,
      "fired": 4522,
      "shone": 4523,
      "prog": 4524,
      "ruined": 4525,
      "dim": 4526,
      "forehead": 4527,
      "lettre": 4528,
      "obtained": 4529,
      "crushed": 4530,
      "presque": 4531,
      "capital": 4532,
      "personne": 4533,
      "fellows": 4534,
      "ounce": 4535,
      "pays": 4536,
      "gund": 4537,
      "dressing": 4538,
      "symp": 4539,
      "uttering": 4540,
      "masters": 4541,
      "Musketeer": 4542,
      "kissed": 4543,
      "mystery": 4544,
      "false": 4545,
      "library": 4546,
      "Cunegund": 4547,
      "py": 4548,
      "hea": 4549,
      "atic": 4550,
      "sters": 4551,
      "decl": 4552,
      "lava": 4553,
      "hotel": 4554,
      "ource": 4555,
      "hatred": 4556,
      "parl": 4557,
      "composed": 4558,
      "repent": 4559,
      "picked": 4560,
      "pace": 4561,
      "sensible": 4562,
      "flung": 4563,
      "necessity": 4564,
      "porter": 4565,
      "music": 4566,
      "Jeanlin": 4567,
      "extended": 4568,
      "cabin": 4569,
      "glimp": 4570,
      "frequent": 4571,
      "America": 4572,
      "Cro": 4573,
      "Gi": 4574,
      "Gre": 4575,
      "Tis": 4576,
      "bac": 4577,
      "equi": 4578,
      "fy": 4579,
      "asped": 4580,
      "leap": 4581,
      "aries": 4582,
      "weap": 4583,
      "admit": 4584,
      "accent": 4585,
      "contained": 4586,
      "managed": 4587,
      "provisions": 4588,
      "resses": 4589,
      "rendered": 4590,
      "ditions": 4591,
      "naked": 4592,
      "sorts": 4593,
      "Mosca": 4594,
      "custom": 4595,
      "woods": 4596,
      "quarters": 4597,
      "stuff": 4598,
      "slip": 4599,
      "obstin": 4600,
      "spectacle": 4601,
      "Mil": 4602,
      "dru": 4603,
      "swell": 4604,
      "renew": 4605,
      "ese": 4606,
      "raft": 4607,
      "constru": 4608,
      "oking": 4609,
      "process": 4610,
      "plans": 4611,
      "arts": 4612,
      "mari": 4613,
      "mies": 4614,
      "Without": 4615,
      "knee": 4616,
      "named": 4617,
      "acquain": 4618,
      "foolish": 4619,
      "efforts": 4620,
      "ING": 4621,
      "mountains": 4622,
      "ministre": 4623,
      "appointment": 4624,
      "Watson": 4625,
      "Chim": 4626,
      "Latin": 4627,
      "Vir": 4628,
      "gla": 4629,
      "ration": 4630,
      "wl": 4631,
      "asm": 4632,
      "tools": 4633,
      "ali": 4634,
      "hosp": 4635,
      "sombre": 4636,
      "geois": 4637,
      "cave": 4638,
      "amuse": 4639,
      "points": 4640,
      "tical": 4641,
      "instinct": 4642,
      "match": 4643,
      "metres": 4644,
      "attached": 4645,
      "slipped": 4646,
      "prevented": 4647,
      "formerly": 4648,
      "abandon": 4649,
      "paces": 4650,
      "pronounced": 4651,
      "gendar": 4652,
      "AT": 4653,
      "mm": 4654,
      "task": 4655,
      "vine": 4656,
      "edu": 4657,
      "toler": 4658,
      "arti": 4659,
      "ador": 4660,
      "ambit": 4661,
      "indign": 4662,
      "blew": 4663,
      "comtesse": 4664,
      "gives": 4665,
      "shaft": 4666,
      "trade": 4667,
      "hurt": 4668,
      "circle": 4669,
      "elder": 4670,
      "madam": 4671,
      "throwing": 4672,
      "stiff": 4673,
      "spark": 4674,
      "explanation": 4675,
      "innocent": 4676,
      "ranean": 4677,
      "citadelle": 4678,
      "Chimneys": 4679,
      "Bou": 4680,
      "Jack": 4681,
      "nut": 4682,
      "obe": 4683,
      "pare": 4684,
      "parent": 4685,
      "lime": 4686,
      "wealth": 4687,
      "tail": 4688,
      "resto": 4689,
      "caution": 4690,
      "example": 4691,
      "boots": 4692,
      "prospect": 4693,
      "protest": 4694,
      "----": 4695,
      "anybody": 4696,
      "valu": 4697,
      "purch": 4698,
      "showing": 4699,
      "professor": 4700,
      "accepted": 4701,
      "Everything": 4702,
      "Grimaud": 4703,
      "reflection": 4704,
      "whale": 4705,
      "exhausted": 4706,
      "fancied": 4707,
      "remorse": 4708,
      "17": 4709,
      "Bishop": 4710,
      "Jac": 4711,
      "Tur": 4712,
      "drunk": 4713,
      "flight": 4714,
      "pressing": 4715,
      "inqu": 4716,
      "stat": 4717,
      "wicked": 4718,
      "alarm": 4719,
      "sheet": 4720,
      "bye": 4721,
      "appointed": 4722,
      "indis": 4723,
      "someone": 4724,
      "desper": 4725,
      "brand": 4726,
      "iously": 4727,
      "Before": 4728,
      "gallop": 4729,
      "folded": 4730,
      "pursued": 4731,
      "peasant": 4732,
      "Tell": 4733,
      "acquainted": 4734,
      "oth": 4735,
      "uary": 4736,
      "archev": 4737,
      "wheel": 4738,
      "affect": 4739,
      "vier": 4740,
      "monstr": 4741,
      "mater": 4742,
      "tuous": 4743,
      "settle": 4744,
      "vérit": 4745,
      "Ludo": 4746,
      "devoted": 4747,
      "uneasy": 4748,
      "Colonel": 4749,
      "First": 4750,
      "archevê": 4751,
      "16": 4752,
      "Oli": 4753,
      "schol": 4754,
      "tit": 4755,
      "vint": 4756,
      "issu": 4757,
      "chat": 4758,
      "chor": 4759,
      "hommes": 4760,
      "poir": 4761,
      "Heaven": 4762,
      "elles": 4763,
      "project": 4764,
      "miners": 4765,
      "engage": 4766,
      "wants": 4767,
      "terrified": 4768,
      "volcano": 4769,
      "leading": 4770,
      "affected": 4771,
      "possibly": 4772,
      "Valen": 4773,
      "advance": 4774,
      "fruit": 4775,
      "Ludovic": 4776,
      "Bra": 4777,
      "Sud": 4778,
      "iam": 4779,
      "iments": 4780,
      "von": 4781,
      "wreck": 4782,
      "inquired": 4783,
      "asons": 4784,
      "pel": 4785,
      "absur": 4786,
      "abund": 4787,
      "gown": 4788,
      "parce": 4789,
      "comment": 4790,
      "sera": 4791,
      "shaking": 4792,
      "goods": 4793,
      "achar": 4794,
      "begged": 4795,
      "matin": 4796,
      "bourgeois": 4797,
      "understanding": 4798,
      "summit": 4799,
      "gloom": 4800,
      "mingled": 4801,
      "deliver": 4802,
      "lendemain": 4803,
      "knocked": 4804,
      "Queen": 4805,
      "Tout": 4806,
      "bé": 4807,
      "vest": 4808,
      "insp": 4809,
      "remp": 4810,
      "reasons": 4811,
      "artic": 4812,
      "resse": 4813,
      "manners": 4814,
      "whenever": 4815,
      "shock": 4816,
      "murmur": 4817,
      "embra": 4818,
      "victim": 4819,
      "shadows": 4820,
      "philosopher": 4821,
      "répondit": 4822,
      "comfortable": 4823,
      "Cette": 4824,
      "flying": 4825,
      "ière": 4826,
      "kn": 4827,
      "loun": 4828,
      "tête": 4829,
      "ça": 4830,
      "écha": 4831,
      "retreat": 4832,
      "sevent": 4833,
      "chin": 4834,
      "irard": 4835,
      "loaded": 4836,
      "tement": 4837,
      "bored": 4838,
      "provided": 4839,
      "cloth": 4840,
      "corpse": 4841,
      "imper": 4842,
      "skill": 4843,
      "freed": 4844,
      "furniture": 4845,
      "suffici": 4846,
      "collection": 4847,
      "beasts": 4848,
      "pieds": 4849,
      "higher": 4850,
      "dirty": 4851,
      "passengers": 4852,
      "Baskerville": 4853,
      "lounge": 4854,
      ".”": 4855,
      "AS": 4856,
      "Ac": 4857,
      "IT": 4858,
      "Ju": 4859,
      "Upon": 4860,
      "XX": 4861,
      "invent": 4862,
      "anks": 4863,
      "recalled": 4864,
      "ouver": 4865,
      "eneur": 4866,
      "islet": 4867,
      "sell": 4868,
      "rolling": 4869,
      "hadn": 4870,
      "maint": 4871,
      "aby": 4872,
      "caval": 4873,
      "folk": 4874,
      "indre": 4875,
      "disco": 4876,
      "reput": 4877,
      "milieu": 4878,
      "cases": 4879,
      "pointing": 4880,
      "denly": 4881,
      "wanting": 4882,
      "finish": 4883,
      "bonne": 4884,
      "resolution": 4885,
      "inhabited": 4886,
      "preserved": 4887,
      "climbed": 4888,
      "reflections": 4889,
      "splendid": 4890,
      "absorbed": 4891,
      "Suddenly": 4892,
      "Jan": 4893,
      "Zachar": 4894,
      "bbed": 4895,
      "mate": 4896,
      "née": 4897,
      "uf": 4898,
      "stared": 4899,
      "rot": 4900,
      "forgive": 4901,
      "wholly": 4902,
      "perceive": 4903,
      "estate": 4904,
      "assur": 4905,
      "divided": 4906,
      "viour": 4907,
      "overcome": 4908,
      "mons": 4909,
      "monseigneur": 4910,
      "missed": 4911,
      "cleared": 4912,
      "mercy": 4913,
      "shir": 4914,
      "conscience": 4915,
      "vidence": 4916,
      "sorrow": 4917,
      "flame": 4918,
      "excitement": 4919,
      "shouting": 4920,
      "wonderful": 4921,
      "princesse": 4922,
      "credit": 4923,
      "itors": 4924,
      "Americ": 4925,
      "dwelling": 4926,
      "brilliant": 4927,
      "Valenod": 4928,
      "Zacharie": 4929,
      "Pirard": 4930,
      "bay": 4931,
      "bask": 4932,
      "uce": 4933,
      "yonder": 4934,
      "invit": 4935,
      "seam": 4936,
      "secure": 4937,
      "mechan": 4938,
      "alo": 4939,
      "ident": 4940,
      "pool": 4941,
      "ows": 4942,
      "dict": 4943,
      "travel": 4944,
      "useful": 4945,
      "mercer": 4946,
      "Armand": 4947,
      "grant": 4948,
      "distri": 4949,
      "lantern": 4950,
      "skir": 4951,
      "meantime": 4952,
      "eaten": 4953,
      "whispered": 4954,
      "thorough": 4955,
      "steamer": 4956,
      "liquid": 4957,
      "information": 4958,
      "guests": 4959,
      "pictures": 4960,
      "Red": 4961,
      "Rass": 4962,
      "dance": 4963,
      "uis": 4964,
      "revol": 4965,
      "organ": 4966,
      "decis": 4967,
      "iring": 4968,
      "coward": 4969,
      "ilty": 4970,
      "consu": 4971,
      "condem": 4972,
      "tian": 4973,
      "medit": 4974,
      "humble": 4975,
      "forms": 4976,
      "devoured": 4977,
      "barely": 4978,
      "invited": 4979,
      "comprehend": 4980,
      "Iceland": 4981,
      "Rasseneur": 4982,
      "!--": 4983,
      "14": 4984,
      "Son": 4985,
      "glow": 4986,
      "jaw": 4987,
      "ky": 4988,
      "isses": 4989,
      "vement": 4990,
      "unexpected": 4991,
      "rab": 4992,
      "modest": 4993,
      "male": 4994,
      "concl": 4995,
      "contempt": 4996,
      "whel": 4997,
      "wouldn": 4998,
      "daylight": 4999,
      "rue": 5000,
      "likewise": 5001,
      "hedge": 5002,
      "household": 5003,
      "southern": 5004,
      "choses": 5005,
      "sixteen": 5006,
      "globe": 5007,
      "whist": 5008,
      "anguish": 5009,
      "Alt": 5010,
      "Med": 5011,
      "Still": 5012,
      "Stap": 5013,
      "mute": 5014,
      "patience": 5015,
      "yer": 5016,
      "thie": 5017,
      "ata": 5018,
      "convul": 5019,
      "tice": 5020,
      "iff": 5021,
      "asted": 5022,
      "iller": 5023,
      "shown": 5024,
      "underwater": 5025,
      "lands": 5026,
      "younger": 5027,
      "crimin": 5028,
      "croy": 5029,
      "refuse": 5030,
      "stupe": 5031,
      "interesting": 5032,
      "occasions": 5033,
      "zzled": 5034,
      "shudder": 5035,
      "concluded": 5036,
      "eating": 5037,
      "pack": 5038,
      "yre": 5039,
      "ana": 5040,
      "mered": 5041,
      "lack": 5042,
      "tering": 5043,
      "rail": 5044,
      "adop": 5045,
      "conditions": 5046,
      "cage": 5047,
      "ender": 5048,
      "seeking": 5049,
      "overwhel": 5050,
      "roads": 5051,
      "gazing": 5052,
      "pretended": 5053,
      "lotte": 5054,
      "intelli": 5055,
      "inclined": 5056,
      "prudence": 5057,
      "indicated": 5058,
      "breeze": 5059,
      ",”": 5060,
      "Jes": 5061,
      "Napo": 5062,
      "Thur": 5063,
      "mul": 5064,
      "»,": 5065,
      "invol": 5066,
      "thither": 5067,
      "belle": 5068,
      "withstanding": 5069,
      "ided": 5070,
      "rades": 5071,
      "tear": 5072,
      "ambo": 5073,
      "exceeding": 5074,
      "provo": 5075,
      "ics": 5076,
      "dign": 5077,
      "preced": 5078,
      "precise": 5079,
      "complet": 5080,
      "enemies": 5081,
      "highly": 5082,
      "hanged": 5083,
      "savages": 5084,
      "energy": 5085,
      "timate": 5086,
      "religion": 5087,
      "distinguish": 5088,
      "architecture": 5089,
      "Sunday": 5090,
      "sufficiently": 5091,
      "discovery": 5092,
      "Thurs": 5093,
      "Aust": 5094,
      "IC": 5095,
      "lof": 5096,
      "nice": 5097,
      "press": 5098,
      "ashing": 5099,
      "estee": 5100,
      "celui": 5101,
      "veux": 5102,
      "ria": 5103,
      "rival": 5104,
      "histo": 5105,
      "acles": 5106,
      "respec": 5107,
      "butter": 5108,
      "permission": 5109,
      "somewhere": 5110,
      "treas": 5111,
      "guilty": 5112,
      "miner": 5113,
      "nevertheless": 5114,
      "cord": 5115,
      "lasted": 5116,
      "passe": 5117,
      "harpo": 5118,
      "trouvait": 5119,
      "bodies": 5120,
      "pens": 5121,
      "portrait": 5122,
      "purse": 5123,
      "succeed": 5124,
      "relations": 5125,
      "interested": 5126,
      "consequently": 5127,
      "banks": 5128,
      "tranquil": 5129,
      "suspicion": 5130,
      "lorsque": 5131,
      "towers": 5132,
      "style": 5133,
      "assassin": 5134,
      "Milan": 5135,
      "jack": 5136,
      "pant": 5137,
      "hell": 5138,
      "argent": 5139,
      "raising": 5140,
      "pole": 5141,
      "ulated": 5142,
      "isten": 5143,
      "proceed": 5144,
      "giment": 5145,
      "carpet": 5146,
      "everyone": 5147,
      "correspond": 5148,
      "surely": 5149,
      "wooden": 5150,
      "reasonable": 5151,
      "faced": 5152,
      "Francis": 5153,
      "fishing": 5154,
      "Three": 5155,
      "difference": 5156,
      "atmosphere": 5157,
      "Street": 5158,
      "Fin": 5159,
      "Pang": 5160,
      "bil": 5161,
      "bone": 5162,
      "gon": 5163,
      "lst": 5164,
      "rand": 5165,
      "vac": 5166,
      "cere": 5167,
      "saf": 5168,
      "conta": 5169,
      "cting": 5170,
      "civil": 5171,
      "plants": 5172,
      "gulf": 5173,
      "solitude": 5174,
      "breathing": 5175,
      "delivered": 5176,
      "wretch": 5177,
      "assumed": 5178,
      "render": 5179,
      "supported": 5180,
      "prudent": 5181,
      "betrayed": 5182,
      "stammered": 5183,
      "Sain": 5184,
      "Thorn": 5185,
      "lished": 5186,
      "éri": 5187,
      "hest": 5188,
      "infinite": 5189,
      "revi": 5190,
      "onde": 5191,
      "meal": 5192,
      "ceiling": 5193,
      "roar": 5194,
      "acher": 5195,
      "contain": 5196,
      "fill": 5197,
      "avan": 5198,
      "moral": 5199,
      "donné": 5200,
      "grâ": 5201,
      "counted": 5202,
      "Sorel": 5203,
      "maison": 5204,
      "Once": 5205,
      "signs": 5206,
      "nails": 5207,
      "Besan": 5208,
      "dreams": 5209,
      "fortunes": 5210,
      "cliff": 5211,
      "neighbor": 5212,
      "produce": 5213,
      "circumstance": 5214,
      "Votre": 5215,
      "stirred": 5216,
      "dancing": 5217,
      "jealousy": 5218,
      "Each": 5219,
      "Gardin": 5220,
      "Liz": 5221,
      "aust": 5222,
      "cated": 5223,
      "ius": 5224,
      "kers": 5225,
      "deceived": 5226,
      "colu": 5227,
      "teach": 5228,
      "manu": 5229,
      "promp": 5230,
      "marve": 5231,
      "torrent": 5232,
      "gray": 5233,
      "latitude": 5234,
      "steep": 5235,
      "licity": 5236,
      "swept": 5237,
      "imagin": 5238,
      "castle": 5239,
      "hesitated": 5240,
      "jumped": 5241,
      "behaviour": 5242,
      "parents": 5243,
      "bought": 5244,
      "dur": 5245,
      "fil": 5246,
      "mend": 5247,
      "mieux": 5248,
      "rejo": 5249,
      "isse": 5250,
      "stage": 5251,
      "bel": 5252,
      "laun": 5253,
      "loose": 5254,
      "convent": 5255,
      "upstairs": 5256,
      "plent": 5257,
      "gigan": 5258,
      "nuit": 5259,
      "expecting": 5260,
      "extent": 5261,
      "Voreux": 5262,
      "contented": 5263,
      "distinguished": 5264,
      "sensation": 5265,
      "polite": 5266,
      "maintenant": 5267,
      "condemned": 5268,
      "Thornfield": 5269,
      "Besancon": 5270,
      "column": 5271,
      "gigantic": 5272,
      "DE": 5273,
      "Galais": 5274,
      "cto": 5275,
      "gay": 5276,
      "lor": 5277,
      "ping": 5278,
      "rele": 5279,
      "reign": 5280,
      "allait": 5281,
      "raw": 5282,
      "connais": 5283,
      "shining": 5284,
      "voiture": 5285,
      "viously": 5286,
      "inted": 5287,
      "stories": 5288,
      "hastily": 5289,
      "corrid": 5290,
      "forming": 5291,
      "sixty": 5292,
      "buy": 5293,
      "quarrel": 5294,
      "movements": 5295,
      "chairs": 5296,
      "demanded": 5297,
      "rascal": 5298,
      "temperature": 5299,
      "Jacques": 5300,
      "archevêque": 5301,
      "Thursday": 5302,
      "Ing": 5303,
      "bber": 5304,
      "card": 5305,
      "fils": 5306,
      "gor": 5307,
      "gather": 5308,
      "hound": 5309,
      "insol": 5310,
      "utmost": 5311,
      "coats": 5312,
      "rais": 5313,
      "ability": 5314,
      "perm": 5315,
      "vile": 5316,
      "mont": 5317,
      "lightning": 5318,
      "papers": 5319,
      "hunting": 5320,
      "doubted": 5321,
      "valet": 5322,
      "confusion": 5323,
      "floating": 5324,
      "straw": 5325,
      "awk": 5326,
      "repeating": 5327,
      "golden": 5328,
      "Pierron": 5329,
      "pistoles": 5330,
      "reproach": 5331,
      "eagerly": 5332,
      "abruptly": 5333,
      "numerous": 5334,
      "glimpse": 5335,
      "10": 5336,
      "Es": 5337,
      "Listen": 5338,
      "ki": 5339,
      "nay": 5340,
      "ères": 5341,
      "reç": 5342,
      "rect": 5343,
      "edy": 5344,
      "eding": 5345,
      "holes": 5346,
      "loin": 5347,
      "taine": 5348,
      "mable": 5349,
      "shell": 5350,
      "exhi": 5351,
      "dish": 5352,
      "disappear": 5353,
      "discourse": 5354,
      "handed": 5355,
      "arted": 5356,
      "ieurs": 5357,
      "surtout": 5358,
      "price": 5359,
      "huit": 5360,
      "interro": 5361,
      "devour": 5362,
      "Charlotte": 5363,
      "sounded": 5364,
      "eighty": 5365,
      "Any": 5366,
      "voyait": 5367,
      "remarqu": 5368,
      "daughters": 5369,
      "fighting": 5370,
      "uniform": 5371,
      "weakness": 5372,
      "inhabitants": 5373,
      "Indian": 5374,
      "threatened": 5375,
      "fierce": 5376,
      "individ": 5377,
      "procurator": 5378,
      "lofty": 5379,
      "harpoon": 5380,
      "awkward": 5381,
      "Eyre": 5382,
      "Mare": 5383,
      "Pre": 5384,
      "egg": 5385,
      "fr": 5386,
      "mille": 5387,
      "ox": 5388,
      "pap": 5389,
      "vue": 5390,
      "éton": 5391,
      "reur": 5392,
      "tomorrow": 5393,
      "develo": 5394,
      "beating": 5395,
      "rol": 5396,
      "alter": 5397,
      "advent": 5398,
      "feu": 5399,
      "timber": 5400,
      "docu": 5401,
      "geo": 5402,
      "provin": 5403,
      "voix": 5404,
      "preva": 5405,
      "marble": 5406,
      "grate": 5407,
      "resting": 5408,
      "certainty": 5409,
      "ordre": 5410,
      "slee": 5411,
      "scattered": 5412,
      "whit": 5413,
      "bones": 5414,
      "frank": 5415,
      "committed": 5416,
      "judgment": 5417,
      "recognised": 5418,
      "relieved": 5419,
      "benef": 5420,
      "Excell": 5421,
      "operation": 5422,
      "chimney": 5423,
      "Those": 5424,
      "desperate": 5425,
      "reputation": 5426,
      "Pangloss": 5427,
      "Apri": 5428,
      "Est": 5429,
      "Whi": 5430,
      "ood": 5431,
      "infer": 5432,
      "ani": 5433,
      "ators": 5434,
      "stars": 5435,
      "aller": 5436,
      "raise": 5437,
      "taught": 5438,
      "ads": 5439,
      "active": 5440,
      "acknowled": 5441,
      "tie": 5442,
      "domin": 5443,
      "simil": 5444,
      "folly": 5445,
      "prodi": 5446,
      "comrades": 5447,
      "intri": 5448,
      "plor": 5449,
      "stopping": 5450,
      "minary": 5451,
      "peak": 5452,
      "coral": 5453,
      "curtain": 5454,
      "silk": 5455,
      "truly": 5456,
      "vanished": 5457,
      "troop": 5458,
      "retour": 5459,
      "helped": 5460,
      "destru": 5461,
      "badly": 5462,
      "smooth": 5463,
      "welcome": 5464,
      "birth": 5465,
      "inclination": 5466,
      "tranquill": 5467,
      "principal": 5468,
      "German": 5469,
      "highest": 5470,
      "nurse": 5471,
      "Gardiner": 5472,
      "Lizzy": 5473,
      "April": 5474,
      "';": 5475,
      "30": 5476,
      "AL": 5477,
      "Sat": 5478,
      "cune": 5479,
      "nment": 5480,
      "owe": 5481,
      "—\"": 5482,
      "ouv": 5483,
      "thr": 5484,
      "thy": 5485,
      "assa": 5486,
      "today": 5487,
      "hills": 5488,
      "wick": 5489,
      "wept": 5490,
      "fears": 5491,
      "reduced": 5492,
      "accompany": 5493,
      "arest": 5494,
      "affaire": 5495,
      "aud": 5496,
      "lux": 5497,
      "gré": 5498,
      "cursed": 5499,
      "color": 5500,
      "hence": 5501,
      "tempest": 5502,
      "expense": 5503,
      "Soon": 5504,
      "Roman": 5505,
      "brief": 5506,
      "wondered": 5507,
      "regarded": 5508,
      "patient": 5509,
      "softly": 5510,
      "scrup": 5511,
      "Virgin": 5512,
      "absurd": 5513,
      "American": 5514,
      "Altesse": 5515,
      "Stapleton": 5516,
      "Tom": 5517,
      "fé": 5518,
      "mity": 5519,
      "vée": 5520,
      "zo": 5521,
      "onna": 5522,
      "thian": 5523,
      "isen": 5524,
      "seu": 5525,
      "sees": 5526,
      "habits": 5527,
      "stable": 5528,
      "deci": 5529,
      "uted": 5530,
      "exposed": 5531,
      "agon": 5532,
      "headed": 5533,
      "chaque": 5534,
      "crater": 5535,
      "pull": 5536,
      "final": 5537,
      "larmes": 5538,
      "careful": 5539,
      "sounds": 5540,
      "prisonnier": 5541,
      "gros": 5542,
      "increasing": 5543,
      "neighbourhood": 5544,
      "instrument": 5545,
      "describe": 5546,
      "groups": 5547,
      "accomplished": 5548,
      "uneasiness": 5549,
      "guessed": 5550,
      "scream": 5551,
      "established": 5552,
      "quantity": 5553,
      "eternal": 5554,
      "equally": 5555,
      "progress": 5556,
      "freedom": 5557,
      "similar": 5558,
      "Des": 5559,
      "Egy": 5560,
      "aked": 5561,
      "iard": 5562,
      "ives": 5563,
      "muttered": 5564,
      "rat": 5565,
      "ève": 5566,
      "incess": 5567,
      "enclo": 5568,
      "itution": 5569,
      "cease": 5570,
      "cook": 5571,
      "radi": 5572,
      "nement": 5573,
      "tables": 5574,
      "ades": 5575,
      "addition": 5576,
      "abomin": 5577,
      "text": 5578,
      "timer": 5579,
      "amused": 5580,
      "avais": 5581,
      "pipe": 5582,
      "fulness": 5583,
      "chien": 5584,
      "sentiments": 5585,
      "rée": 5586,
      "attitude": 5587,
      "chosen": 5588,
      "plusieurs": 5589,
      "busy": 5590,
      "generous": 5591,
      "striking": 5592,
      "closely": 5593,
      "prisoners": 5594,
      "glasses": 5595,
      "drinking": 5596,
      "situated": 5597,
      "lorsqu": 5598,
      "admire": 5599,
      "observation": 5600,
      "Finally": 5601,
      "kilo": 5602,
      "20": 5603,
      "Ano": 5604,
      "Dian": 5605,
      "Gent": 5606,
      "Gré": 5607,
      "kisses": 5608,
      "pous": 5609,
      "page": 5610,
      "smith": 5611,
      "uit": 5612,
      "inclu": 5613,
      "recall": 5614,
      "stamp": 5615,
      "celle": 5616,
      "veyed": 5617,
      "altogether": 5618,
      "soit": 5619,
      "whilst": 5620,
      "peur": 5621,
      "respon": 5622,
      "astro": 5623,
      "permit": 5624,
      "inder": 5625,
      "vient": 5626,
      "tren": 5627,
      "precious": 5628,
      "landed": 5629,
      "crust": 5630,
      "choice": 5631,
      "choose": 5632,
      "risen": 5633,
      "rush": 5634,
      "islands": 5635,
      "Dece": 5636,
      "voulait": 5637,
      "logne": 5638,
      "Baron": 5639,
      "hesitation": 5640,
      "described": 5641,
      "stroke": 5642,
      "semblait": 5643,
      "agitated": 5644,
      "assistance": 5645,
      "remarkable": 5646,
      "Mortimer": 5647,
      "figures": 5648,
      "safety": 5649,
      "Having": 5650,
      "Mad": 5651,
      "Tu": 5652,
      "base": 5653,
      "fought": 5654,
      "wings": 5655,
      "çait": 5656,
      "êtes": 5657,
      "iner": 5658,
      "receiving": 5659,
      "onto": 5660,
      "thread": 5661,
      "encou": 5662,
      "arde": 5663,
      "army": 5664,
      "arrested": 5665,
      "ork": 5666,
      "metal": 5667,
      "stained": 5668,
      "demi": 5669,
      "costu": 5670,
      "usse": 5671,
      "abroad": 5672,
      "tight": 5673,
      "shells": 5674,
      "excur": 5675,
      "ify": 5676,
      "icy": 5677,
      "letting": 5678,
      "avons": 5679,
      "traces": 5680,
      "corps": 5681,
      "actually": 5682,
      "reste": 5683,
      "bras": 5684,
      "stem": 5685,
      "singing": 5686,
      "vanity": 5687,
      "circul": 5688,
      "seconds": 5689,
      "Bonadventure": 5690,
      "reality": 5691,
      "whisper": 5692,
      "candles": 5693,
      "specimen": 5694,
      "admirable": 5695,
      "instruments": 5696,
      "aurait": 5697,
      "Henri": 5698,
      "beaten": 5699,
      "religious": 5700,
      "feverish": 5701,
      "Belcher": 5702,
      "Marecha": 5703,
      "Ax": 5704,
      "Cour": 5705,
      "SE": 5706,
      "XI": 5707,
      "drank": 5708,
      "oh": 5709,
      "oil": 5710,
      "slu": 5711,
      "iny": 5712,
      "recollect": 5713,
      "thres": 5714,
      "atient": 5715,
      "isol": 5716,
      "asy": 5717,
      "beard": 5718,
      "mode": 5719,
      "whir": 5720,
      "abor": 5721,
      "sheep": 5722,
      "commission": 5723,
      "disput": 5724,
      "vide": 5725,
      "nights": 5726,
      "grin": 5727,
      "friendship": 5728,
      "lovely": 5729,
      "boats": 5730,
      "trick": 5731,
      "scand": 5732,
      "Conti": 5733,
      "Frank": 5734,
      "ridge": 5735,
      "balloon": 5736,
      "wedding": 5737,
      "collected": 5738,
      "suspected": 5739,
      "apprehen": 5740,
      "About": 5741,
      "audience": 5742,
      "expedition": 5743,
      "Great": 5744,
      "manufact": 5745,
      "Ingram": 5746,
      "Grégo": 5747,
      "December": 5748,
      "Axel": 5749,
      "Octo": 5750,
      "Wil": 5751,
      "bars": 5752,
      "gouver": 5753,
      "mess": 5754,
      "nons": 5755,
      "équ": 5756,
      "anchor": 5757,
      "ornam": 5758,
      "belly": 5759,
      "robe": 5760,
      "lip": 5761,
      "limit": 5762,
      "laquelle": 5763,
      "coarse": 5764,
      "motive": 5765,
      "advis": 5766,
      "pelled": 5767,
      "poly": 5768,
      "exagger": 5769,
      "bois": 5770,
      "icha": 5771,
      "cip": 5772,
      "turns": 5773,
      "march": 5774,
      "hors": 5775,
      "coloured": 5776,
      "blame": 5777,
      "attacked": 5778,
      "crossing": 5779,
      "reaching": 5780,
      "increase": 5781,
      "AND": 5782,
      "ascended": 5783,
      "itié": 5784,
      "preferred": 5785,
      "intervals": 5786,
      "valuable": 5787,
      "destruction": 5788,
      "Another": 5789,
      "threshold": 5790,
      "October": 5791,
      ".—": 5792,
      ":--": 5793,
      "Cac": 5794,
      "Im": 5795,
      "Phi": 5796,
      "Sher": 5797,
      "Scot": 5798,
      "Und": 5799,
      "aup": 5800,
      "eau": 5801,
      "ore": 5802,
      "inqui": 5803,
      "asha": 5804,
      "sacred": 5805,
      "loves": 5806,
      "rained": 5807,
      "notes": 5808,
      "moy": 5809,
      "acious": 5810,
      "dogs": 5811,
      "cavern": 5812,
      "exting": 5813,
      "agne": 5814,
      "jeun": 5815,
      "stomach": 5816,
      "trait": 5817,
      "track": 5818,
      "nerves": 5819,
      "effet": 5820,
      "curity": 5821,
      "joie": 5822,
      "humour": 5823,
      "Monseigneur": 5824,
      "yez": 5825,
      "attach": 5826,
      "See": 5827,
      "blowing": 5828,
      "examine": 5829,
      "delightful": 5830,
      "masses": 5831,
      "leaned": 5832,
      "forests": 5833,
      "tenderness": 5834,
      "discussion": 5835,
      "admitted": 5836,
      "Grand": 5837,
      "introduced": 5838,
      "destroyed": 5839,
      "resistance": 5840,
      "Spanish": 5841,
      "elegant": 5842,
      "Fortun": 5843,
      "obeyed": 5844,
      "Cacambo": 5845,
      "ashamed": 5846,
      "Fou": 5847,
      "echo": 5848,
      "uous": 5849,
      "vated": 5850,
      "ware": 5851,
      "zi": 5852,
      "heels": 5853,
      "recent": 5854,
      "ascertain": 5855,
      "leather": 5856,
      "staring": 5857,
      "quay": 5858,
      "abond": 5859,
      "consol": 5860,
      "prov": 5861,
      "shores": 5862,
      "parted": 5863,
      "Aronna": 5864,
      "impatient": 5865,
      "hull": 5866,
      "midnight": 5867,
      "bourn": 5868,
      "wishing": 5869,
      "bottles": 5870,
      "pouvoir": 5871,
      "wake": 5872,
      "belonging": 5873,
      "unique": 5874,
      "yielded": 5875,
      "cheek": 5876,
      "slope": 5877,
      "communication": 5878,
      "accused": 5879,
      "Longbourn": 5880,
      "Moreover": 5881,
      "Admir": 5882,
      "gendarmes": 5883,
      "ambition": 5884,
      "Gentle": 5885,
      "Fortunately": 5886,
      "Aronnax": 5887,
      "Ces": 5888,
      "Old": 5889,
      "awoke": 5890,
      "ctic": 5891,
      "déta": 5892,
      "fs": 5893,
      "pages": 5894,
      "sance": 5895,
      "envelo": 5896,
      "itable": 5897,
      "dec": 5898,
      "nomen": 5899,
      "aly": 5900,
      "notwithstanding": 5901,
      "mots": 5902,
      "ferent": 5903,
      "feather": 5904,
      "ulate": 5905,
      "longtemps": 5906,
      "prey": 5907,
      "spur": 5908,
      "vesti": 5909,
      "frigate": 5910,
      "lights": 5911,
      "merry": 5912,
      "acted": 5913,
      "Atlan": 5914,
      "cours": 5915,
      "akened": 5916,
      "pensa": 5917,
      "kindly": 5918,
      "offici": 5919,
      "embar": 5920,
      "velvet": 5921,
      "dreamed": 5922,
      "flowing": 5923,
      "frozen": 5924,
      "slightest": 5925,
      "thedral": 5926,
      "Providence": 5927,
      "measure": 5928,
      "hideous": 5929,
      "***": 5930,
      "torture": 5931,
      "ajouta": 5932,
      "Could": 5933,
      "GE": 5934,
      "Gover": 5935,
      "Hon": 5936,
      "June": 5937,
      "Micha": 5938,
      "Rod": 5939,
      "ST": 5940,
      "bat": 5941,
      "doute": 5942,
      "gas": 5943,
      "gau": 5944,
      "gates": 5945,
      "ien": 5946,
      "ost": 5947,
      "oath": 5948,
      "étran": 5949,
      "insu": 5950,
      "haven": 5951,
      "nore": 5952,
      "lique": 5953,
      "lovers": 5954,
      "aren": 5955,
      "beds": 5956,
      "honneur": 5957,
      "Hotel": 5958,
      "fearful": 5959,
      "block": 5960,
      "paying": 5961,
      "consideration": 5962,
      "phras": 5963,
      "possibility": 5964,
      "indifference": 5965,
      "ailleurs": 5966,
      "substance": 5967,
      "tellement": 5968,
      "January": 5969,
      "Sainte": 5970,
      "document": 5971,
      "Wilson": 5972,
      "Sherlock": 5973,
      "Cou": 5974,
      "Low": 5975,
      "Né": 5976,
      "Tow": 5977,
      "daring": 5978,
      "hut": 5979,
      "knot": 5980,
      "mming": 5981,
      "ét": 5982,
      "incred": 5983,
      "rels": 5984,
      "enchant": 5985,
      "atro": 5986,
      "istic": 5987,
      "asper": 5988,
      "haz": 5989,
      "urged": 5990,
      "logy": 5991,
      "abord": 5992,
      "mper": 5993,
      "fare": 5994,
      "somebody": 5995,
      "disposed": 5996,
      "tremble": 5997,
      "marks": 5998,
      "passions": 5999,
      "founded": 6000,
      "continually": 6001,
      "heartily": 6002,
      "murde": 6003,
      "flash": 6004,
      "relation": 6005,
      "craft": 6006,
      "extremity": 6007,
      "examining": 6008,
      "freely": 6009,
      "lamps": 6010,
      "descript": 6011,
      "lucky": 6012,
      "shuddered": 6013,
      "reserved": 6014,
      "profession": 6015,
      "amount": 6016,
      "enthusiasm": 6017,
      "conclusion": 6018,
      "exceedingly": 6019,
      "Four": 6020,
      "Sur": 6021,
      "Sure": 6022,
      "Temple": 6023,
      "fût": 6024,
      "grie": 6025,
      "vor": 6026,
      "theatre": 6027,
      "revo": 6028,
      "arches": 6029,
      "arched": 6030,
      "ites": 6031,
      "hid": 6032,
      "lids": 6033,
      "withdrew": 6034,
      "aces": 6035,
      "proportion": 6036,
      "grel": 6037,
      "dug": 6038,
      "disposition": 6039,
      "letti": 6040,
      "stoop": 6041,
      "shaken": 6042,
      "marine": 6043,
      "objection": 6044,
      "downstairs": 6045,
      "mixed": 6046,
      "tors": 6047,
      "curtains": 6048,
      "déses": 6049,
      "sublime": 6050,
      "ighed": 6051,
      "facts": 6052,
      "cidents": 6053,
      "ception": 6054,
      "atiently": 6055,
      "driving": 6056,
      "entertain": 6057,
      "hammer": 6058,
      "humanity": 6059,
      "millions": 6060,
      "reckon": 6061,
      "connection": 6062,
      "practice": 6063,
      "endeavour": 6064,
      "shelter": 6065,
      "indifferent": 6066,
      "Robin": 6067,
      "Christian": 6068,
      "Giletti": 6069,
      "monstrous": 6070,
      "Olivier": 6071,
      "thoroughly": 6072,
      "corridor": 6073,
      "extingu": 6074,
      "Gentlemen": 6075,
      "phrases": 6076,
      "Négrel": 6077,
      "Gener": 6078,
      "Man": 6079,
      "date": 6080,
      "pred": 6081,
      "trunk": 6082,
      "ugly": 6083,
      "hel": 6084,
      "rever": 6085,
      "remove": 6086,
      "require": 6087,
      "nod": 6088,
      "wels": 6089,
      "unusual": 6090,
      "sails": 6091,
      "locked": 6092,
      "notion": 6093,
      "neg": 6094,
      "tages": 6095,
      "upright": 6096,
      "performed": 6097,
      "bosom": 6098,
      "moreover": 6099,
      "aired": 6100,
      "casta": 6101,
      "harness": 6102,
      "fourth": 6103,
      "minds": 6104,
      "channel": 6105,
      "eighteen": 6106,
      "palace": 6107,
      "rieux": 6108,
      "drift": 6109,
      "complex": 6110,
      "burned": 6111,
      "separate": 6112,
      "pause": 6113,
      "corners": 6114,
      "India": 6115,
      "persuaded": 6116,
      "aperç": 6117,
      "embarrassed": 6118,
      "preparing": 6119,
      "ridicule": 6120,
      "swallowed": 6121,
      "embraced": 6122,
      "basket": 6123,
      "grâce": 6124,
      "plenty": 6125,
      "Which": 6126,
      "Bé": 6127,
      "Ed": 6128,
      "Gas": 6129,
      "bending": 6130,
      "gap": 6131,
      "gru": 6132,
      "ip": 6133,
      "kick": 6134,
      "las": 6135,
      "éle": 6136,
      "eds": 6137,
      "behold": 6138,
      "hip": 6139,
      "rill": 6140,
      "ride": 6141,
      "wearing": 6142,
      "quen": 6143,
      "losing": 6144,
      "whither": 6145,
      "supre": 6146,
      "existed": 6147,
      "ifice": 6148,
      "indul": 6149,
      "ights": 6150,
      "rude": 6151,
      "greet": 6152,
      "backs": 6153,
      "cording": 6154,
      "chait": 6155,
      "actions": 6156,
      "friendly": 6157,
      "instance": 6158,
      "formid": 6159,
      "regions": 6160,
      "stepped": 6161,
      "skiff": 6162,
      "senses": 6163,
      "navig": 6164,
      "trot": 6165,
      "sunk": 6166,
      "Sea": 6167,
      "vessels": 6168,
      "vagabond": 6169,
      "priests": 6170,
      "Louvre": 6171,
      "Barry": 6172,
      "defend": 6173,
      "threatening": 6174,
      "arrangement": 6175,
      "apparently": 6176,
      "Among": 6177,
      "enjoyed": 6178,
      "Croisen": 6179,
      "shirt": 6180,
      "Diana": 6181,
      "Fouque": 6182,
      "Admiral": 6183,
      "Croisenois": 6184,
      "Dans": 6185,
      "Down": 6186,
      "Edie": 6187,
      "Next": 6188,
      "Sta": 6189,
      "Tour": 6190,
      "dine": 6191,
      "ience": 6192,
      "nant": 6193,
      "erup": 6194,
      "lez": 6195,
      "stout": 6196,
      "definite": 6197,
      "ira": 6198,
      "mant": 6199,
      "parfa": 6200,
      "shine": 6201,
      "descent": 6202,
      "desert": 6203,
      "disappointment": 6204,
      "comprom": 6205,
      "shake": 6206,
      "gues": 6207,
      "carri": 6208,
      "furi": 6209,
      "prize": 6210,
      "humi": 6211,
      "central": 6212,
      "solitary": 6213,
      "winds": 6214,
      "severina": 6215,
      "supplied": 6216,
      "Both": 6217,
      "views": 6218,
      "phr": 6219,
      "breathe": 6220,
      "warmth": 6221,
      "effects": 6222,
      "première": 6223,
      "Sanseverina": 6224,
      "swiftly": 6225,
      "héros": 6226,
      "compliment": 6227,
      "education": 6228,
      "overwhelmed": 6229,
      "abominable": 6230,
      "Atlantic": 6231,
      "formidable": 6232,
      "Again": 6233,
      "Shall": 6234,
      "aks": 6235,
      "bis": 6236,
      "fid": 6237,
      "iest": 6238,
      "lone": 6239,
      "sink": 6240,
      "enfant": 6241,
      "tobac": 6242,
      "mead": 6243,
      "châte": 6244,
      "veil": 6245,
      "weigh": 6246,
      "redou": 6247,
      "teur": 6248,
      "ames": 6249,
      "odour": 6250,
      "elou": 6251,
      "venu": 6252,
      "urel": 6253,
      "vos": 6254,
      "landing": 6255,
      "landlord": 6256,
      "merald": 6257,
      "tenir": 6258,
      "shift": 6259,
      "fourteen": 6260,
      "addressing": 6261,
      "strangers": 6262,
      "lively": 6263,
      "burnt": 6264,
      "wounds": 6265,
      "phenomen": 6266,
      "Lothian": 6267,
      "pockets": 6268,
      "special": 6269,
      "superb": 6270,
      "bruary": 6271,
      "agitation": 6272,
      "machine": 6273,
      "amiable": 6274,
      "irritated": 6275,
      "February": 6276,
      "volume": 6277,
      "According": 6278,
      "provost": 6279,
      "completed": 6280,
      "?--": 6281,
      "Brit": 6282,
      "Clo": 6283,
      "Cross": 6284,
      "Dan": 6285,
      "Pres": 6286,
      "Tabor": 6287,
      "York": 6288,
      "aver": 6289,
      "aus": 6290,
      "crou": 6291,
      "lance": 6292,
      "mpe": 6293,
      "mère": 6294,
      "ssip": 6295,
      "tons": 6296,
      "umin": 6297,
      "ît": 6298,
      "inquire": 6299,
      "resign": 6300,
      "llis": 6301,
      "secured": 6302,
      "wasn": 6303,
      "vember": 6304,
      "alarmed": 6305,
      "weighed": 6306,
      "forbid": 6307,
      "absent": 6308,
      "upset": 6309,
      "Heights": 6310,
      "ounded": 6311,
      "dispos": 6312,
      "inté": 6313,
      "compag": 6314,
      "shaped": 6315,
      "obs": 6316,
      "mild": 6317,
      "November": 6318,
      "impert": 6319,
      "silently": 6320,
      "northern": 6321,
      "genu": 6322,
      "glit": 6323,
      "arriver": 6324,
      "subs": 6325,
      "personal": 6326,
      "embro": 6327,
      "starting": 6328,
      "salt": 6329,
      "breathed": 6330,
      "balls": 6331,
      "Prospect": 6332,
      "hungry": 6333,
      "neighbours": 6334,
      "branch": 6335,
      "obstacle": 6336,
      "chevaux": 6337,
      "represented": 6338,
      "hitherto": 6339,
      "detective": 6340,
      "heavi": 6341,
      "restored": 6342,
      "seulement": 6343,
      "phrase": 6344,
      "meralda": 6345,
      ".)": 6346,
      "Nous": 6347,
      "RO": 6348,
      "TO": 6349,
      "fling": 6350,
      "remo": 6351,
      "regiment": 6352,
      "toss": 6353,
      "solu": 6354,
      "raven": 6355,
      "admi": 6356,
      "sugar": 6357,
      "exasper": 6358,
      "wheels": 6359,
      "fic": 6360,
      "chemin": 6361,
      "kingdom": 6362,
      "correct": 6363,
      "impris": 6364,
      "souvent": 6365,
      "bedroom": 6366,
      "genius": 6367,
      "larger": 6368,
      "steel": 6369,
      "scra": 6370,
      "drops": 6371,
      "crack": 6372,
      "satisfy": 6373,
      "lettres": 6374,
      "Command": 6375,
      "conducted": 6376,
      "sharply": 6377,
      "brows": 6378,
      "stifled": 6379,
      "Mayor": 6380,
      "Mount": 6381,
      "amaze": 6382,
      "nouveau": 6383,
      "dessus": 6384,
      "fenêtre": 6385,
      "scholar": 6386,
      "adventures": 6387,
      "supreme": 6388,
      "tobacco": 6389,
      "Has": 6390,
      "Little": 6391,
      "Sa": 6392,
      "Sever": 6393,
      "Une": 6394,
      "aken": 6395,
      "border": 6396,
      "lus": 6397,
      "obey": 6398,
      "push": 6399,
      "trous": 6400,
      "seld": 6401,
      "lion": 6402,
      "utenant": 6403,
      "rive": 6404,
      "labor": 6405,
      "tale": 6406,
      "feast": 6407,
      "odd": 6408,
      "fog": 6409,
      "endant": 6410,
      "fires": 6411,
      "rule": 6412,
      "canvas": 6413,
      "impul": 6414,
      "joke": 6415,
      "Neither": 6416,
      "native": 6417,
      "workers": 6418,
      "remaining": 6419,
      "confined": 6420,
      "thousands": 6421,
      "awakened": 6422,
      "studied": 6423,
      "Bonne": 6424,
      "rappe": 6425,
      "Seine": 6426,
      "lackeys": 6427,
      "feeble": 6428,
      "preserve": 6429,
      "angel": 6430,
      "exercise": 6431,
      "affli": 6432,
      "domestic": 6433,
      "recommend": 6434,
      "reminded": 6435,
      "seventy": 6436,
      "respectable": 6437,
      "Esmeralda": 6438,
      "seldom": 6439,
      "Dom": 6440,
      "Mal": 6441,
      "ez": 6442,
      "ement": 6443,
      "gments": 6444,
      "oy": 6445,
      "scient": 6446,
      "vrai": 6447,
      "intimate": 6448,
      "orte": 6449,
      "secut": 6450,
      "haught": 6451,
      "meur": 6452,
      "belt": 6453,
      "becomes": 6454,
      "entôt": 6455,
      "laient": 6456,
      "macy": 6457,
      "tile": 6458,
      "excessive": 6459,
      "favou": 6460,
      "Helen": 6461,
      "aucune": 6462,
      "placing": 6463,
      "disorder": 6464,
      "readily": 6465,
      "champ": 6466,
      "capit": 6467,
      "insisted": 6468,
      "happily": 6469,
      "bientôt": 6470,
      "lane": 6471,
      "explic": 6472,
      "harsh": 6473,
      "genus": 6474,
      "laying": 6475,
      "dawn": 6476,
      "scen": 6477,
      "swee": 6478,
      "nées": 6479,
      "painted": 6480,
      "passait": 6481,
      "warned": 6482,
      "Seminary": 6483,
      "mortal": 6484,
      "accordingly": 6485,
      "amidst": 6486,
      "bruit": 6487,
      "commenced": 6488,
      "wandering": 6489,
      "connected": 6490,
      "South": 6491,
      "convenient": 6492,
      "wrapped": 6493,
      "parlour": 6494,
      "decision": 6495,
      "description": 6496,
      "Barrymore": 6497,
      "Bonnemort": 6498,
      "Bay": 6499,
      "Grant": 6500,
      "James": 6501,
      "Mes": 6502,
      "Vic": 6503,
      "fins": 6504,
      "lent": 6505,
      "swo": 6506,
      "sche": 6507,
      "enzi": 6508,
      "towed": 6509,
      "arre": 6510,
      "esc": 6511,
      "vex": 6512,
      "lair": 6513,
      "qué": 6514,
      "advers": 6515,
      "illes": 6516,
      "sibility": 6517,
      "para": 6518,
      "longue": 6519,
      "donne": 6520,
      "mighty": 6521,
      "chaise": 6522,
      "torted": 6523,
      "ggist": 6524,
      "issant": 6525,
      "singuli": 6526,
      "....": 6527,
      "trial": 6528,
      "custo": 6529,
      "fairly": 6530,
      "awake": 6531,
      "attentively": 6532,
      "cellar": 6533,
      "passages": 6534,
      "considering": 6535,
      "passionate": 6536,
      "villain": 6537,
      "objects": 6538,
      "colony": 6539,
      "lackey": 6540,
      "William": 6541,
      "lodging": 6542,
      "asping": 6543,
      "suggested": 6544,
      "plaisir": 6545,
      "druggist": 6546,
      "procession": 6547,
      "stupefied": 6548,
      "intelligent": 6549,
      "ceremony": 6550,
      "château": 6551,
      "amazement": 6552,
      "13": 6553,
      "25": 6554,
      "ME": 6555,
      "aking": 6556,
      "bout": 6557,
      "gif": 6558,
      "jà": 6559,
      "nis": 6560,
      "pits": 6561,
      "hemi": 6562,
      "edifice": 6563,
      "ingen": 6564,
      "hier": 6565,
      "sac": 6566,
      "ilà": 6567,
      "femmes": 6568,
      "sulp": 6569,
      "conde": 6570,
      "god": 6571,
      "comrade": 6572,
      "rum": 6573,
      "forever": 6574,
      "iere": 6575,
      "market": 6576,
      "pian": 6577,
      "deny": 6578,
      "continent": 6579,
      "gentlewoman": 6580,
      "tumult": 6581,
      "signific": 6582,
      "...'": 6583,
      "naître": 6584,
      "magist": 6585,
      "Hope": 6586,
      "meanwhile": 6587,
      "embrace": 6588,
      "borne": 6589,
      "warning": 6590,
      "catastro": 6591,
      "changing": 6592,
      "Englishman": 6593,
      "counsel": 6594,
      "confessed": 6595,
      "commander": 6596,
      "heavens": 6597,
      "vigorous": 6598,
      "graceful": 6599,
      "knock": 6600,
      "princip": 6601,
      "wandered": 6602,
      "destroy": 6603,
      "tiny": 6604,
      "contempl": 6605,
      "attempted": 6606,
      "article": 6607,
      "vérité": 6608,
      "precisely": 6609,
      "esteem": 6610,
      "passeport": 6611,
      "exhibit": 6612,
      "Gascon": 6613,
      "genuine": 6614,
      "Several": 6615,
      "Cresc": 6616,
      "Dre": 6617,
      "Pi": 6618,
      "Pour": 6619,
      "cable": 6620,
      "cards": 6621,
      "lles": 6622,
      "lust": 6623,
      "oes": 6624,
      "tard": 6625,
      "uries": 6626,
      "vy": 6627,
      "écile": 6628,
      "inti": 6629,
      "income": 6630,
      "arous": 6631,
      "dez": 6632,
      "washed": 6633,
      "riant": 6634,
      "iry": 6635,
      "verain": 6636,
      "forgetting": 6637,
      "loving": 6638,
      "ete": 6639,
      "mains": 6640,
      "abb": 6641,
      "silly": 6642,
      "parut": 6643,
      "appla": 6644,
      "illau": 6645,
      "aucun": 6646,
      "cie": 6647,
      "cipit": 6648,
      "precaution": 6649,
      "serge": 6650,
      "stove": 6651,
      "control": 6652,
      "acting": 6653,
      "paused": 6654,
      "souverain": 6655,
      "dense": 6656,
      "gger": 6657,
      "décou": 6658,
      "déjà": 6659,
      "sku": 6660,
      "Rose": 6661,
      "pense": 6662,
      "personage": 6663,
      "rememb": 6664,
      "flag": 6665,
      "soldats": 6666,
      "patron": 6667,
      "succession": 6668,
      "gestures": 6669,
      "zzling": 6670,
      "sinking": 6671,
      "North": 6672,
      "canoe": 6673,
      "iterranean": 6674,
      "attracted": 6675,
      "bundle": 6676,
      "cheerful": 6677,
      "distinctly": 6678,
      "contact": 6679,
      "costume": 6680,
      "Under": 6681,
      "Towards": 6682,
      "Crescenzi": 6683,
      ").": 6684,
      "Give": 6685,
      "Grace": 6686,
      "Nap": 6687,
      "PAR": 6688,
      "Ven": 6689,
      "fers": 6690,
      "nait": 6691,
      "oting": 6692,
      "wling": 6693,
      "çais": 6694,
      "onville": 6695,
      "isure": 6696,
      "leisure": 6697,
      "depri": 6698,
      "lament": 6699,
      "quitted": 6700,
      "therfield": 6701,
      "cared": 6702,
      "buted": 6703,
      "ament": 6704,
      "illumin": 6705,
      "queer": 6706,
      "anywhere": 6707,
      "plates": 6708,
      "chain": 6709,
      "cling": 6710,
      "tically": 6711,
      "attended": 6712,
      "Netherfield": 6713,
      "glor": 6714,
      "submer": 6715,
      "appearing": 6716,
      "commence": 6717,
      "stuck": 6718,
      "summon": 6719,
      "salon": 6720,
      "Seurel": 6721,
      "flowed": 6722,
      "recognize": 6723,
      "evidence": 6724,
      "Guillau": 6725,
      "leness": 6726,
      "rendre": 6727,
      "logical": 6728,
      "firmly": 6729,
      "ignorance": 6730,
      "politeness": 6731,
      "fisher": 6732,
      "proposal": 6733,
      "glanced": 6734,
      "toilet": 6735,
      "Rouen": 6736,
      "inquiry": 6737,
      "invitation": 6738,
      "Mediterranean": 6739,
      "eggs": 6740,
      "decide": 6741,
      "Michaud": 6742,
      "désespoir": 6743,
      "humili": 6744,
      "lonely": 6745,
      "Fle": 6746,
      "Hence": 6747,
      "Lys": 6748,
      "flan": 6749,
      "lant": 6750,
      "oak": 6751,
      "rul": 6752,
      "source": 6753,
      "xic": 6754,
      "retire": 6755,
      "thic": 6756,
      "ennu": 6757,
      "lequel": 6758,
      "defi": 6759,
      "rode": 6760,
      "unted": 6761,
      "coo": 6762,
      "local": 6763,
      "rag": 6764,
      "acti": 6765,
      "mante": 6766,
      "exchange": 6767,
      "prolonged": 6768,
      "prise": 6769,
      "thence": 6770,
      "songe": 6771,
      "series": 6772,
      "gie": 6773,
      "beforehand": 6774,
      "marécha": 6775,
      "steal": 6776,
      "rushing": 6777,
      "refus": 6778,
      "promen": 6779,
      "strongly": 6780,
      "dreaming": 6781,
      "twilight": 6782,
      "milk": 6783,
      "peaceful": 6784,
      "Rich": 6785,
      "bench": 6786,
      "suitable": 6787,
      "niece": 6788,
      "traversed": 6789,
      "jacket": 6790,
      "Satur": 6791,
      "admired": 6792,
      "100": 6793,
      "Him": 6794,
      "Lied": 6795,
      "Out": 6796,
      "Pont": 6797,
      "jur": 6798,
      "lon": 6799,
      "îtres": 6800,
      "ancy": 6801,
      "reprit": 6802,
      "encounter": 6803,
      "tore": 6804,
      "llus": 6805,
      "deeper": 6806,
      "roman": 6807,
      "rial": 6808,
      "rily": 6809,
      "rigid": 6810,
      "uns": 6811,
      "mare": 6812,
      "maîtres": 6813,
      "congrat": 6814,
      "resid": 6815,
      "explor": 6816,
      "foli": 6817,
      "owing": 6818,
      "paralle": 6819,
      "apan": 6820,
      "eling": 6821,
      "shrie": 6822,
      "--'": 6823,
      "viv": 6824,
      "intoxic": 6825,
      "pourrait": 6826,
      "throughout": 6827,
      "brist": 6828,
      "vault": 6829,
      "hearth": 6830,
      "devait": 6831,
      "chercher": 6832,
      "Does": 6833,
      "pains": 6834,
      "immediate": 6835,
      "occupation": 6836,
      "sadness": 6837,
      "covering": 6838,
      "wretches": 6839,
      "Lucas": 6840,
      "roofs": 6841,
      "collar": 6842,
      "Ferrier": 6843,
      "amazed": 6844,
      "fantastic": 6845,
      "assurance": 6846,
      "acknowledged": 6847,
      "enclosure": 6848,
      "Drebber": 6849,
      "Fleur": 6850,
      "XV": 6851,
      "Yonville": 6852,
      "batt": 6853,
      "fed": 6854,
      "gag": 6855,
      "lè": 6856,
      "lut": 6857,
      "piled": 6858,
      "sending": 6859,
      "wre": 6860,
      "inex": 6861,
      "revenge": 6862,
      "oux": 6863,
      "enbro": 6864,
      "atri": 6865,
      "arrest": 6866,
      "seule": 6867,
      "bells": 6868,
      "nombre": 6869,
      "vez": 6870,
      "entra": 6871,
      "union": 6872,
      "sobs": 6873,
      "lored": 6874,
      "raging": 6875,
      "adres": 6876,
      "sheets": 6877,
      "ardent": 6878,
      "manif": 6879,
      "extend": 6880,
      "endless": 6881,
      "boil": 6882,
      "illness": 6883,
      "dimin": 6884,
      "divers": 6885,
      "foreseen": 6886,
      "pretext": 6887,
      "stolen": 6888,
      "goodness": 6889,
      "backward": 6890,
      "armchair": 6891,
      "pture": 6892,
      "sentin": 6893,
      "gravity": 6894,
      "Major": 6895,
      "observing": 6896,
      "recover": 6897,
      "malheur": 6898,
      "despite": 6899,
      "poured": 6900,
      "flex": 6901,
      "system": 6902,
      "basin": 6903,
      "properly": 6904,
      "military": 6905,
      "travelling": 6906,
      "pillar": 6907,
      "conviction": 6908,
      "accomplish": 6909,
      "whales": 6910,
      "reserve": 6911,
      "embarrassment": 6912,
      "inspired": 6913,
      "abyss": 6914,
      "prompt": 6915,
      "Franklin": 6916,
      "gouverneur": 6917,
      "General": 6918,
      "Clopin": 6919,
      "heavily": 6920,
      "Naples": 6921,
      "Liedenbro": 6922,
      "Liedenbrock": 6923,
      "Baz": 6924,
      "Cal": 6925,
      "Cardinal": 6926,
      "Five": 6927,
      "Lheureux": 6928,
      "Mother": 6929,
      "Wait": 6930,
      "dened": 6931,
      "dangers": 6932,
      "gation": 6933,
      "jury": 6934,
      "lined": 6935,
      "ns": 6936,
      "pushing": 6937,
      "rê": 6938,
      "ât": 6939,
      "ôtel": 6940,
      "thee": 6941,
      "eries": 6942,
      "llers": 6943,
      "member": 6944,
      "veu": 6945,
      "alls": 6946,
      "doit": 6947,
      "gellis": 6948,
      "cathedral": 6949,
      "agent": 6950,
      "agony": 6951,
      "inevit": 6952,
      "ruins": 6953,
      "divine": 6954,
      "disdain": 6955,
      "viz": 6956,
      "cane": 6957,
      "repair": 6958,
      "afterward": 6959,
      "minister": 6960,
      "aime": 6961,
      "merchant": 6962,
      "Therefore": 6963,
      "ellement": 6964,
      "torment": 6965,
      "thinks": 6966,
      "crimes": 6967,
      "stands": 6968,
      "akes": 6969,
      "workmen": 6970,
      "believing": 6971,
      "consist": 6972,
      "nail": 6973,
      "eldest": 6974,
      "Quand": 6975,
      "resume": 6976,
      "exclam": 6977,
      "groan": 6978,
      "crowded": 6979,
      "Thank": 6980,
      "examination": 6981,
      "Tregellis": 6982,
      "grima": 6983,
      "heureuse": 6984,
      "memories": 6985,
      "atory": 6986,
      "struggled": 6987,
      "punishment": 6988,
      "detail": 6989,
      "devotion": 6990,
      "ceptible": 6991,
      "resembled": 6992,
      "pirates": 6993,
      "smell": 6994,
      "articles": 6995,
      "jaws": 6996,
      "grateful": 6997,
      "excursion": 6998,
      "scandal": 6999,
      "ornament": 7000,
      "extinguished": 7001,
      "trousers": 7002,
      "maréchal": 7003,
      "Bazin": 7004,
      "Dun": 7005,
      "IL": 7006,
      "Japan": 7007,
      "Mill": 7008,
      "Non": 7009,
      "bai": 7010,
      "barri": 7011,
      "dor": 7012,
      "jam": 7013,
      "kin": 7014,
      "oars": 7015,
      "rors": 7016,
      "sof": 7017,
      "swore": 7018,
      "très": 7019,
      "incapable": 7020,
      "reward": 7021,
      "resemb": 7022,
      "halt": 7023,
      "demon": 7024,
      "hiding": 7025,
      "lim": 7026,
      "moist": 7027,
      "acid": 7028,
      "parole": 7029,
      "discre": 7030,
      "prepare": 7031,
      "cargo": 7032,
      "angled": 7033,
      "tenant": 7034,
      "étais": 7035,
      "astern": 7036,
      "follows": 7037,
      "mouths": 7038,
      "journal": 7039,
      "successive": 7040,
      "questioned": 7041,
      "brothers": 7042,
      "sorte": 7043,
      "animated": 7044,
      "Bomb": 7045,
      "difficulties": 7046,
      "présence": 7047,
      "malheureux": 7048,
      "narr": 7049,
      "smoking": 7050,
      "phan": 7051,
      "ordinaire": 7052,
      "Islands": 7053,
      "vari": 7054,
      "loudly": 7055,
      "measured": 7056,
      "plantation": 7057,
      "nouvelle": 7058,
      "annoy": 7059,
      "specimens": 7060,
      "Saturday": 7061,
      "Faust": 7062,
      "IE": 7063,
      "Ou": 7064,
      "awaited": 7065,
      "batter": 7066,
      "clad": 7067,
      "flu": 7068,
      "fying": 7069,
      "fists": 7070,
      "ncy": 7071,
      "vable": 7072,
      "wen": 7073,
      "zes": 7074,
      "inc": 7075,
      "error": 7076,
      "beer": 7077,
      "nois": 7078,
      "cependant": 7079,
      "utch": 7080,
      "irres": 7081,
      "savoir": 7082,
      "savait": 7083,
      "idi": 7084,
      "copper": 7085,
      "usions": 7086,
      "mau": 7087,
      "max": 7088,
      "concent": 7089,
      "cken": 7090,
      "ulars": 7091,
      "shy": 7092,
      "asser": 7093,
      "avou": 7094,
      "presu": 7095,
      "canal": 7096,
      "immo": 7097,
      "firmed": 7098,
      "newsp": 7099,
      "pulling": 7100,
      "pleasing": 7101,
      "visited": 7102,
      "cents": 7103,
      "glory": 7104,
      "falls": 7105,
      "petits": 7106,
      "coldly": 7107,
      "stronger": 7108,
      "warn": 7109,
      "gardens": 7110,
      "Although": 7111,
      "Through": 7112,
      "victory": 7113,
      "utterly": 7114,
      "directions": 7115,
      "gravely": 7116,
      "guarded": 7117,
      "suspended": 7118,
      "buildings": 7119,
      "planted": 7120,
      "Berks": 7121,
      "People": 7122,
      "axe": 7123,
      "twisted": 7124,
      "Italie": 7125,
      "cautions": 7126,
      "pearl": 7127,
      "sympath": 7128,
      "weapon": 7129,
      "hospital": 7130,
      "material": 7131,
      "panting": 7132,
      "Bombay": 7133,
      "irresis": 7134,
      "500": 7135,
      "Abra": 7136,
      "Blan": 7137,
      "Kong": 7138,
      "Mous": 7139,
      "Mason": 7140,
      "Other": 7141,
      "dès": 7142,
      "image": 7143,
      "nets": 7144,
      "swords": 7145,
      "tar": 7146,
      "wes": 7147,
      "ino": 7148,
      "reappeared": 7149,
      "rejoined": 7150,
      "leon": 7151,
      "leaf": 7152,
      "searched": 7153,
      "stain": 7154,
      "uten": 7155,
      "rire": 7156,
      "conject": 7157,
      "pop": 7158,
      "amitié": 7159,
      "perfor": 7160,
      "estrade": 7161,
      "parish": 7162,
      "bolt": 7163,
      "boot": 7164,
      "boards": 7165,
      "commit": 7166,
      "afar": 7167,
      "dip": 7168,
      "mbly": 7169,
      "desires": 7170,
      "previous": 7171,
      "mond": 7172,
      "giant": 7173,
      "arty": 7174,
      "shoe": 7175,
      "partly": 7176,
      "created": 7177,
      "gets": 7178,
      "insist": 7179,
      "hunt": 7180,
      "steady": 7181,
      "aboard": 7182,
      "surprising": 7183,
      "relate": 7184,
      "allows": 7185,
      "advantages": 7186,
      "liter": 7187,
      "Gulf": 7188,
      "qualities": 7189,
      "motions": 7190,
      "Grivet": 7191,
      "entreat": 7192,
      "yielding": 7193,
      "pierced": 7194,
      "queton": 7195,
      "Chelan": 7196,
      "physical": 7197,
      "transports": 7198,
      "robber": 7199,
      "calculated": 7200,
      "authority": 7201,
      "earnestly": 7202,
      "glances": 7203,
      "executioner": 7204,
      "original": 7205,
      "annoyed": 7206,
      "slender": 7207,
      "obstinate": 7208,
      "Napoleon": 7209,
      "prevailed": 7210,
      "Excellence": 7211,
      "prodigious": 7212,
      "throng": 7213,
      "messeng": 7214,
      "moyen": 7215,
      "complexion": 7216,
      "furiously": 7217,
      "Abraham": 7218,
      "Mousqueton": 7219,
      "Chur": 7220,
      "Cécile": 7221,
      "Hur": 7222,
      "Hong": 7223,
      "bade": 7224,
      "cant": 7225,
      "faded": 7226,
      "mise": 7227,
      "san": 7228,
      "sway": 7229,
      "snat": 7230,
      "tun": 7231,
      "ème": 7232,
      "ini": 7233,
      "anne": 7234,
      "repose": 7235,
      "envoy": 7236,
      "oral": 7237,
      "seize": 7238,
      "halted": 7239,
      "altered": 7240,
      "weep": 7241,
      "irregular": 7242,
      "unconscious": 7243,
      "sale": 7244,
      "coin": 7245,
      "cock": 7246,
      "alled": 7247,
      "female": 7248,
      "convey": 7249,
      "pover": 7250,
      "poign": 7251,
      "manager": 7252,
      "amis": 7253,
      "diver": 7254,
      "foreign": 7255,
      "obsc": 7256,
      "carved": 7257,
      "rowed": 7258,
      "inkled": 7259,
      "merit": 7260,
      "beings": 7261,
      "aker": 7262,
      "clay": 7263,
      "tones": 7264,
      "barbar": 7265,
      "grounds": 7266,
      "thirteen": 7267,
      "piti": 7268,
      "interests": 7269,
      "planks": 7270,
      "catching": 7271,
      "Thanks": 7272,
      "particulars": 7273,
      "Georgi": 7274,
      "bounded": 7275,
      "quality": 7276,
      "annon": 7277,
      "vigor": 7278,
      "piercing": 7279,
      "prayers": 7280,
      "suspicions": 7281,
      "entendre": 7282,
      "revealed": 7283,
      "penetrated": 7284,
      "preparations": 7285,
      "emerged": 7286,
      "arguments": 7287,
      "mariage": 7288,
      "Austria": 7289,
      "carriages": 7290,
      "haughty": 7291,
      "maîtresse": 7292,
      "Fausta": 7293,
      "obscure": 7294,
      "11": 7295,
      "Avon": 7296,
      "Hold": 7297,
      "Pardon": 7298,
      "Sh": 7299,
      "Sil": 7300,
      "TE": 7301,
      "Trist": 7302,
      "bust": 7303,
      "gence": 7304,
      "ime": 7305,
      "mun": 7306,
      "mmer": 7307,
      "nour": 7308,
      "pâ": 7309,
      "sne": 7310,
      "scorn": 7311,
      "trun": 7312,
      "wave": 7313,
      "anta": 7314,
      "recollection": 7315,
      "atus": 7316,
      "llo": 7317,
      "hire": 7318,
      "chasse": 7319,
      "chase": 7320,
      "united": 7321,
      "loo": 7322,
      "neat": 7323,
      "ardes": 7324,
      "agers": 7325,
      "ults": 7326,
      "fiery": 7327,
      "illust": 7328,
      "pros": 7329,
      "aught": 7330,
      "cian": 7331,
      "compte": 7332,
      "gible": 7333,
      "traced": 7334,
      "marrying": 7335,
      "classi": 7336,
      "bris": 7337,
      "puzzled": 7338,
      "répond": 7339,
      "valley": 7340,
      "drag": 7341,
      "arriving": 7342,
      "lication": 7343,
      "blushed": 7344,
      "grands": 7345,
      "touching": 7346,
      "maintained": 7347,
      "strict": 7348,
      "burden": 7349,
      "Anne": 7350,
      "pitch": 7351,
      "madness": 7352,
      "persist": 7353,
      "Comme": 7354,
      "panes": 7355,
      "univers": 7356,
      "milly": 7357,
      "struggling": 7358,
      "reckoned": 7359,
      "Mouquette": 7360,
      "debt": 7361,
      "roused": 7362,
      "coolness": 7363,
      "gaiety": 7364,
      "weapons": 7365,
      "criminal": 7366,
      "Rosemilly": 7367,
      "poverty": 7368,
      ".−−": 7369,
      "12": 7370,
      "Afri": 7371,
      "Bank": 7372,
      "Brock": 7373,
      "Many": 7374,
      "Puis": 7375,
      "Sand": 7376,
      "Sac": 7377,
      "cad": 7378,
      "cence": 7379,
      "dried": 7380,
      "elo": 7381,
      "flatter": 7382,
      "mic": 7383,
      "pall": 7384,
      "rings": 7385,
      "tete": 7386,
      "vaient": 7387,
      "vility": 7388,
      "inher": 7389,
      "incon": 7390,
      "encourage": 7391,
      "issait": 7392,
      "associ": 7393,
      "legra": 7394,
      "nos": 7395,
      "novel": 7396,
      "ceta": 7397,
      "liff": 7398,
      "utions": 7399,
      "weeping": 7400,
      "saient": 7401,
      "holy": 7402,
      "quad": 7403,
      "load": 7404,
      "mait": 7405,
      "major": 7406,
      "acquired": 7407,
      "abled": 7408,
      "telegra": 7409,
      "geô": 7410,
      "perform": 7411,
      "faç": 7412,
      "range": 7413,
      "icious": 7414,
      "desol": 7415,
      "civility": 7416,
      "disagreeable": 7417,
      "intend": 7418,
      "canic": 7419,
      "serpent": 7420,
      "spared": 7421,
      "imes": 7422,
      "guine": 7423,
      "minous": 7424,
      "caract": 7425,
      "lightly": 7426,
      "offering": 7427,
      "chape": 7428,
      "puff": 7429,
      "joining": 7430,
      "colère": 7431,
      "pleasures": 7432,
      "harvest": 7433,
      "natured": 7434,
      "consisted": 7435,
      "brick": 7436,
      "magic": 7437,
      "volcanic": 7438,
      "praise": 7439,
      "factory": 7440,
      "applied": 7441,
      "bloody": 7442,
      "sadly": 7443,
      "wax": 7444,
      "shutters": 7445,
      "rash": 7446,
      "Duches": 7447,
      "consequences": 7448,
      "hesitate": 7449,
      "property": 7450,
      "executed": 7451,
      "hoping": 7452,
      "scrat": 7453,
      "favourite": 7454,
      "ecst": 7455,
      "moderate": 7456,
      "diamonds": 7457,
      "shrugged": 7458,
      "brutal": 7459,
      "deliverance": 7460,
      "incessantly": 7461,
      "eruption": 7462,
      "explicable": 7463,
      "Georgiana": 7464,
      "Brockle": 7465,
      "\"~": 7466,
      "Nature": 7467,
      "WH": 7468,
      "bli": 7469,
      "bite": 7470,
      "bond": 7471,
      "cate": 7472,
      "creek": 7473,
      "dure": 7474,
      "fits": 7475,
      "rating": 7476,
      "tast": 7477,
      "whim": 7478,
      "heed": 7479,
      "inward": 7480,
      "inctive": 7481,
      "independ": 7482,
      "inexplicable": 7483,
      "replaced": 7484,
      "onze": 7485,
      "thé": 7486,
      "erie": 7487,
      "espé": 7488,
      "semble": 7489,
      "seizing": 7490,
      "cele": 7491,
      "wire": 7492,
      "loge": 7493,
      "noted": 7494,
      "nearest": 7495,
      "sures": 7496,
      "conque": 7497,
      "endure": 7498,
      "indust": 7499,
      "aflo": 7500,
      "disgu": 7501,
      "disaster": 7502,
      "displayed": 7503,
      "coups": 7504,
      "monter": 7505,
      "earlier": 7506,
      "guards": 7507,
      "Were": 7508,
      "landers": 7509,
      "donna": 7510,
      "aimable": 7511,
      "imprudence": 7512,
      "rendez": 7513,
      "calls": 7514,
      "brings": 7515,
      "brush": 7516,
      "colonel": 7517,
      "visits": 7518,
      "centuries": 7519,
      "finest": 7520,
      "trouvé": 7521,
      "easier": 7522,
      "Coquen": 7523,
      "hurst": 7524,
      "expectation": 7525,
      "flour": 7526,
      "pretend": 7527,
      "attentions": 7528,
      "attentive": 7529,
      "ctors": 7530,
      "saddle": 7531,
      "constable": 7532,
      "Though": 7533,
      "Comment": 7534,
      "fools": 7535,
      "contrast": 7536,
      "aura": 7537,
      "anxiously": 7538,
      "ladders": 7539,
      "travellers": 7540,
      "siege": 7541,
      "pistols": 7542,
      "willingly": 7543,
      "explosion": 7544,
      "Like": 7545,
      "prayer": 7546,
      "protection": 7547,
      "damned": 7548,
      "families": 7549,
      "sheltered": 7550,
      "Robert": 7551,
      "missary": 7552,
      "distracted": 7553,
      "renewed": 7554,
      "issue": 7555,
      "involunt": 7556,
      "Marechale": 7557,
      "inquiries": 7558,
      "impertin": 7559,
      "Commander": 7560,
      "sweethe": 7561,
      "catastrophe": 7562,
      "aroused": 7563,
      "Guillaume": 7564,
      "Flem": 7565,
      "Church": 7566,
      "Tristan": 7567,
      "Coquenard": 7568,
      ";\"": 7569,
      "Après": 7570,
      "City": 7571,
      "Hal": 7572,
      "Lestrade": 7573,
      "Mid": 7574,
      "Nan": 7575,
      "Sep": 7576,
      "bend": 7577,
      "eh": 7578,
      "oted": 7579,
      "ske": 7580,
      "swing": 7581,
      "rear": 7582,
      "tot": 7583,
      "ingly": 7584,
      "itions": 7585,
      "haul": 7586,
      "defe": 7587,
      "hie": 7588,
      "ropes": 7589,
      "royal": 7590,
      "waste": 7591,
      "ential": 7592,
      "liers": 7593,
      "unpleasant": 7594,
      "cob": 7595,
      "alla": 7596,
      "ources": 7597,
      "poli": 7598,
      "mental": 7599,
      "astly": 7600,
      "ulations": 7601,
      "paraly": 7602,
      "provid": 7603,
      "desk": 7604,
      "desir": 7605,
      "dumb": 7606,
      "ciously": 7607,
      "discer": 7608,
      "longitude": 7609,
      "luminous": 7610,
      "repu": 7611,
      "spy": 7612,
      "trap": 7613,
      "tramp": 7614,
      "obed": 7615,
      "surgeon": 7616,
      "rounded": 7617,
      "imprud": 7618,
      "expen": 7619,
      "bride": 7620,
      "string": 7621,
      "strata": 7622,
      "dazzling": 7623,
      "sailors": 7624,
      "Quel": 7625,
      "accounts": 7626,
      "Christ": 7627,
      "Frilair": 7628,
      "glided": 7629,
      "neighbouring": 7630,
      "pursue": 7631,
      "parties": 7632,
      "packed": 7633,
      "coachman": 7634,
      "persuade": 7635,
      "steadily": 7636,
      "penetrate": 7637,
      "ineteen": 7638,
      "enjoyment": 7639,
      "modern": 7640,
      "Turtle": 7641,
      "statue": 7642,
      "consolation": 7643,
      "remembrance": 7644,
      "popular": 7645,
      "Brocklehurst": 7646,
      "celebr": 7647,
      "Froll": 7648,
      "Spe": 7649,
      "Speak": 7650,
      "Vol": 7651,
      "bast": 7652,
      "bark": 7653,
      "dled": 7654,
      "ldered": 7655,
      "nineteen": 7656,
      "pite": 7657,
      "sque": 7658,
      "vra": 7659,
      "sex": 7660,
      "decor": 7661,
      "ghost": 7662,
      "lame": 7663,
      "saving": 7664,
      "whip": 7665,
      "ayant": 7666,
      "ckle": 7667,
      "exchanged": 7668,
      "illart": 7669,
      "plains": 7670,
      "duel": 7671,
      "quivering": 7672,
      "monot": 7673,
      "repaired": 7674,
      "compared": 7675,
      "usement": 7676,
      "parting": 7677,
      "chapel": 7678,
      "actual": 7679,
      "matic": 7680,
      "moust": 7681,
      "formation": 7682,
      "regards": 7683,
      "Royal": 7684,
      "emptied": 7685,
      "huss": 7686,
      "bestowed": 7687,
      "profit": 7688,
      "Beau": 7689,
      "eyelids": 7690,
      "strangely": 7691,
      "Bologne": 7692,
      "garde": 7693,
      "flames": 7694,
      "bows": 7695,
      "lawyer": 7696,
      "grim": 7697,
      "furnish": 7698,
      "confession": 7699,
      "boxes": 7700,
      "duties": 7701,
      "departed": 7702,
      "instructions": 7703,
      "folds": 7704,
      "Lydie": 7705,
      "Rivers": 7706,
      "allest": 7707,
      "clergy": 7708,
      "avoided": 7709,
      "suivre": 7710,
      "observations": 7711,
      "ridiculous": 7712,
      "compassion": 7713,
      "vapor": 7714,
      "fusil": 7715,
      "Jesuit": 7716,
      "dignity": 7717,
      "marvell": 7718,
      "trente": 7719,
      "Court": 7720,
      "hemian": 7721,
      "piano": 7722,
      "Frollo": 7723,
      ".’": 7724,
      "Bri": 7725,
      "Greek": 7726,
      "Hatter": 7727,
      "Near": 7728,
      "Réqu": 7729,
      "XIII": 7730,
      "pment": 7731,
      "rême": 7732,
      "scor": 7733,
      "sings": 7734,
      "tand": 7735,
      "ude": 7736,
      "élo": 7737,
      "anci": 7738,
      "rece": 7739,
      "nobles": 7740,
      "choked": 7741,
      "veins": 7742,
      "holi": 7743,
      "sommes": 7744,
      "mollus": 7745,
      "posure": 7746,
      "sibly": 7747,
      "cake": 7748,
      "faute": 7749,
      "apt": 7750,
      "check": 7751,
      "propri": 7752,
      "intoler": 7753,
      "cannon": 7754,
      "repul": 7755,
      "serai": 7756,
      "imit": 7757,
      "type": 7758,
      "trains": 7759,
      "evenings": 7760,
      "closing": 7761,
      "offended": 7762,
      "cordi": 7763,
      "pike": 7764,
      "insen": 7765,
      "clasped": 7766,
      "interview": 7767,
      "visitor": 7768,
      "visitors": 7769,
      "hearted": 7770,
      "smallest": 7771,
      "glise": 7772,
      "Leave": 7773,
      "refresh": 7774,
      "fearing": 7775,
      "winding": 7776,
      "maintain": 7777,
      "malgré": 7778,
      "learning": 7779,
      "elsewhere": 7780,
      "flee": 7781,
      "fleet": 7782,
      "extrême": 7783,
      "exception": 7784,
      "varine": 7785,
      "magnif": 7786,
      "spotted": 7787,
      "governor": 7788,
      "measures": 7789,
      "climbing": 7790,
      "Liver": 7791,
      "contracted": 7792,
      "Souvarine": 7793,
      "practical": 7794,
      "anticip": 7795,
      "advise": 7796,
      "apparatus": 7797,
      "crowns": 7798,
      "Between": 7799,
      "pupil": 7800,
      "mechanically": 7801,
      "thief": 7802,
      "railway": 7803,
      "Lowood": 7804,
      "reckoning": 7805,
      "phenomenon": 7806,
      "Accordingly": 7807,
      "disposal": 7808,
      "impulse": 7809,
      "scientific": 7810,
      "prosper": 7811,
      "Réquillart": 7812,
      "Dutch": 7813,
      "Frant": 7814,
      "Oft": 7815,
      "Ten": 7816,
      "Twenty": 7817,
      "Wardes": 7818,
      "ahead": 7819,
      "bres": 7820,
      "dar": 7821,
      "fitted": 7822,
      "mmed": 7823,
      "pid": 7824,
      "rô": 7825,
      "sworn": 7826,
      "tris": 7827,
      "wager": 7828,
      "~,": 7829,
      "invisible": 7830,
      "rew": 7831,
      "archi": 7832,
      "seph": 7833,
      "deceive": 7834,
      "ghter": 7835,
      "yous": 7836,
      "versi": 7837,
      "forme": 7838,
      "forti": 7839,
      "hoarse": 7840,
      "cois": 7841,
      "majesty": 7842,
      "maître": 7843,
      "tez": 7844,
      "perple": 7845,
      "ulating": 7846,
      "handle": 7847,
      "thanked": 7848,
      "closer": 7849,
      "carp": 7850,
      "rowing": 7851,
      "ltry": 7852,
      "clust": 7853,
      "torches": 7854,
      "crib": 7855,
      "privile": 7856,
      "drawer": 7857,
      "harbour": 7858,
      "arrivé": 7859,
      "careless": 7860,
      "services": 7861,
      "supposing": 7862,
      "purple": 7863,
      "profonde": 7864,
      "sweat": 7865,
      "needs": 7866,
      "strained": 7867,
      "miracle": 7868,
      "entertained": 7869,
      "Joseph": 7870,
      "garments": 7871,
      "regarda": 7872,
      "fragments": 7873,
      "warrant": 7874,
      "poultry": 7875,
      "dresses": 7876,
      "descending": 7877,
      "Enfin": 7878,
      "petites": 7879,
      "balcon": 7880,
      "results": 7881,
      "vaguely": 7882,
      "protected": 7883,
      "complain": 7884,
      "erect": 7885,
      "sensations": 7886,
      "establish": 7887,
      "lunch": 7888,
      "elbows": 7889,
      "rabbit": 7890,
      "croyait": 7891,
      "individual": 7892,
      "inferior": 7893,
      "hazard": 7894,
      "revolt": 7895,
      "resignation": 7896,
      "parallel": 7897,
      "western": 7898,
      "Liverpool": 7899,
      "Frantz": 7900,
      "Often": 7901,
      "Chi": 7902,
      "Gaston": 7903,
      "Men": 7904,
      "Mery": 7905,
      "Thi": 7906,
      "ares": 7907,
      "bishop": 7908,
      "kets": 7909,
      "oom": 7910,
      "pane": 7911,
      "rs": 7912,
      "score": 7913,
      "usage": 7914,
      "èse": 7915,
      "étu": 7916,
      "œil": 7917,
      "incidents": 7918,
      "enclosed": 7919,
      "encoun": 7920,
      "itute": 7921,
      "sere": 7922,
      "dement": 7923,
      "wash": 7924,
      "rical": 7925,
      "irs": 7926,
      "sock": 7927,
      "cope": 7928,
      "tery": 7929,
      "molue": 7930,
      "tails": 7931,
      "tably": 7932,
      "map": 7933,
      "acknowledge": 7934,
      "suits": 7935,
      "conse": 7936,
      "popu": 7937,
      "popul": 7938,
      "sighed": 7939,
      "perceiving": 7940,
      "ulin": 7941,
      "rante": 7942,
      "commo": 7943,
      "print": 7944,
      "voici": 7945,
      "monsters": 7946,
      "shocked": 7947,
      "contents": 7948,
      "caporal": 7949,
      "clen": 7950,
      "mberley": 7951,
      "centi": 7952,
      "formal": 7953,
      "adding": 7954,
      "runs": 7955,
      "vaques": 7956,
      "suffo": 7957,
      "pension": 7958,
      "bargain": 7959,
      "beso": 7960,
      "Mock": 7961,
      "Charmolue": 7962,
      "bonnet": 7963,
      "blown": 7964,
      "flushed": 7965,
      "eleph": 7966,
      "awaken": 7967,
      "ouncing": 7968,
      "killing": 7969,
      "secrets": 7970,
      "leader": 7971,
      "delicious": 7972,
      "extravag": 7973,
      "sinister": 7974,
      "bald": 7975,
      "Raversi": 7976,
      "Fervaques": 7977,
      "consented": 7978,
      "vulgar": 7979,
      "Pemberley": 7980,
      "consulted": 7981,
      "positions": 7982,
      "stockings": 7983,
      "argument": 7984,
      "purchase": 7985,
      "title": 7986,
      "escort": 7987,
      "bailiff": 7988,
      "19": 7989,
      "Ang": 7990,
      "CH": 7991,
      "Cop": 7992,
      "Derville": 7993,
      "Gry": 7994,
      "blu": 7995,
      "drun": 7996,
      "darted": 7997,
      "fes": 7998,
      "oo": 7999,
      "pha": 8000,
      "rout": 8001,
      "rons": 8002,
      "snu": 8003,
      "ép": 8004,
      "infin": 8005,
      "theast": 8006,
      "rec": 8007,
      "reclu": 8008,
      "asmin": 8009,
      "seal": 8010,
      "likes": 8011,
      "forces": 8012,
      "lable": 8013,
      "mood": 8014,
      "goats": 8015,
      "lessons": 8016,
      "foam": 8017,
      "agu": 8018,
      "perfu": 8019,
      "ested": 8020,
      "aret": 8021,
      "wool": 8022,
      "filling": 8023,
      "aine": 8024,
      "seeming": 8025,
      "icular": 8026,
      "wning": 8027,
      "kings": 8028,
      "vive": 8029,
      "vibr": 8030,
      "avis": 8031,
      "cough": 8032,
      "shared": 8033,
      "trava": 8034,
      "shoot": 8035,
      "certaine": 8036,
      "misfortunes": 8037,
      "fulf": 8038,
      "grasped": 8039,
      "restless": 8040,
      "clung": 8041,
      "souls": 8042,
      "joyous": 8043,
      "instinctive": 8044,
      "dragging": 8045,
      "visage": 8046,
      "centric": 8047,
      "sieurs": 8048,
      "spots": 8049,
      "midday": 8050,
      "bricks": 8051,
      "bushes": 8052,
      "vieille": 8053,
      "hurled": 8054,
      "thirst": 8055,
      "element": 8056,
      "obliging": 8057,
      "prétend": 8058,
      "dieu": 8059,
      "quisite": 8060,
      "realized": 8061,
      "remarks": 8062,
      "whistle": 8063,
      "leads": 8064,
      "posts": 8065,
      "belongs": 8066,
      "cabinet": 8067,
      "bursting": 8068,
      "sitôt": 8069,
      "Riche": 8070,
      "sticks": 8071,
      "fatigu": 8072,
      "arrangements": 8073,
      "boldly": 8074,
      "peasants": 8075,
      "eccentric": 8076,
      "responded": 8077,
      "donnait": 8078,
      "baronet": 8079,
      "treasure": 8080,
      "oxy": 8081,
      "tranquillity": 8082,
      "Egypt": 8083,
      "advised": 8084,
      "insula": 8085,
      "Surely": 8086,
      "remote": 8087,
      "glorious": 8088,
      "exploration": 8089,
      "narrative": 8090,
      "messenger": 8091,
      "Silence": 8092,
      "trunks": 8093,
      "marvellous": 8094,
      "Meryton": 8095,
      "drunken": 8096,
      "recluse": 8097,
      "?”": 8098,
      "Ant": 8099,
      "Bast": 8100,
      "CE": 8101,
      "Cas": 8102,
      "Dene": 8103,
      "Hor": 8104,
      "LO": 8105,
      "None": 8106,
      "Ser": 8107,
      "dun": 8108,
      "fon": 8109,
      "pho": 8110,
      "sses": 8111,
      "uil": 8112,
      "investi": 8113,
      "remed": 8114,
      "seats": 8115,
      "stater": 8116,
      "veur": 8117,
      "limp": 8118,
      "neveu": 8119,
      "dois": 8120,
      "mption": 8121,
      "caps": 8122,
      "causes": 8123,
      "amusing": 8124,
      "vener": 8125,
      "boiling": 8126,
      "provide": 8127,
      "icing": 8128,
      "rubbed": 8129,
      "morency": 8130,
      "dio": 8131,
      "longing": 8132,
      "gild": 8133,
      "stole": 8134,
      "shawl": 8135,
      "guided": 8136,
      "wherever": 8137,
      "Instead": 8138,
      "chains": 8139,
      "restrained": 8140,
      "distressed": 8141,
      "uded": 8142,
      "sentences": 8143,
      "Monday": 8144,
      "Fabio": 8145,
      "vieux": 8146,
      "footman": 8147,
      "smaller": 8148,
      "bury": 8149,
      "resolute": 8150,
      "faites": 8151,
      "spiration": 8152,
      "ensity": 8153,
      "calmly": 8154,
      "wonders": 8155,
      "sym": 8156,
      "frock": 8157,
      "concerning": 8158,
      "sufferings": 8159,
      "government": 8160,
      "Montmorency": 8161,
      "lodged": 8162,
      "discussed": 8163,
      "potat": 8164,
      "communicated": 8165,
      "reveal": 8166,
      "louder": 8167,
      "bullet": 8168,
      "compliments": 8169,
      "repentance": 8170,
      "tolerably": 8171,
      "indignation": 8172,
      "July": 8173,
      "picturesque": 8174,
      "Grégoire": 8175,
      "état": 8176,
      "Bébert": 8177,
      "residence": 8178,
      "sofa": 8179,
      "irresistible": 8180,
      "desolate": 8181,
      "Duchess": 8182,
      "Speedy": 8183,
      "Richelieu": 8184,
      "Deneulin": 8185,
      "stateroom": 8186,
      "Abo": 8187,
      "Bah": 8188,
      "Greg": 8189,
      "Spain": 8190,
      "Vand": 8191,
      "bling": 8192,
      "dashed": 8193,
      "econ": 8194,
      "fli": 8195,
      "ium": 8196,
      "jal": 8197,
      "lves": 8198,
      "phon": 8199,
      "scu": 8200,
      "insi": 8201,
      "années": 8202,
      "recei": 8203,
      "chart": 8204,
      "washing": 8205,
      "libé": 8206,
      "weed": 8207,
      "hook": 8208,
      "terranean": 8209,
      "rapi": 8210,
      "peup": 8211,
      "abuse": 8212,
      "tember": 8213,
      "confi": 8214,
      "sies": 8215,
      "mansion": 8216,
      "hated": 8217,
      "perpend": 8218,
      "apres": 8219,
      "derni": 8220,
      "prope": 8221,
      "proceeding": 8222,
      "affa": 8223,
      "affre": 8224,
      "display": 8225,
      "vio": 8226,
      "avre": 8227,
      "intensity": 8228,
      "monu": 8229,
      "monta": 8230,
      "spurs": 8231,
      "undertake": 8232,
      "message": 8233,
      "passé": 8234,
      "partir": 8235,
      "partner": 8236,
      "lieutenant": 8237,
      "impatiently": 8238,
      "autant": 8239,
      "counting": 8240,
      "hunter": 8241,
      "rés": 8242,
      "gracious": 8243,
      "ordres": 8244,
      "talent": 8245,
      "finds": 8246,
      "solution": 8247,
      "ladyship": 8248,
      "croire": 8249,
      "Mahi": 8250,
      "feels": 8251,
      "pensive": 8252,
      "Forster": 8253,
      "ringing": 8254,
      "drawers": 8255,
      "Gothic": 8256,
      "rusted": 8257,
      "léon": 8258,
      "startled": 8259,
      "fray": 8260,
      "galleries": 8261,
      "Already": 8262,
      "occupy": 8263,
      "learnt": 8264,
      "Rochelle": 8265,
      "flower": 8266,
      "warmly": 8267,
      "Pope": 8268,
      "announce": 8269,
      "logis": 8270,
      "streams": 8271,
      "sweetness": 8272,
      "pistol": 8273,
      "empoison": 8274,
      "Liber": 8275,
      "Germain": 8276,
      "dames": 8277,
      "bills": 8278,
      "Grève": 8279,
      "appreci": 8280,
      "penetrating": 8281,
      "endeavoured": 8282,
      "employment": 8283,
      "polished": 8284,
      "sincerely": 8285,
      "Braz": 8286,
      "seamen": 8287,
      "granted": 8288,
      "ICH": 8289,
      "chiennes": 8290,
      "Count": 8291,
      "parfaitement": 8292,
      "vigorously": 8293,
      "September": 8294,
      "tandis": 8295,
      "populace": 8296,
      "clenched": 8297,
      "Gryphon": 8298,
      "perpendicular": 8299,
      "21": 8300,
      "Di": 8301,
      "Hip": 8302,
      "ION": 8303,
      "Jasmin": 8304,
      "Whe": 8305,
      "ault": 8306,
      "awaiting": 8307,
      "mson": 8308,
      "sity": 8309,
      "wers": 8310,
      "énor": 8311,
      "êtres": 8312,
      "rela": 8313,
      "reassured": 8314,
      "resigned": 8315,
      "itz": 8316,
      "security": 8317,
      "stal": 8318,
      "devoir": 8319,
      "roit": 8320,
      "veut": 8321,
      "alight": 8322,
      "undone": 8323,
      "quart": 8324,
      "moan": 8325,
      "tives": 8326,
      "mani": 8327,
      "manor": 8328,
      "hats": 8329,
      "owner": 8330,
      "peril": 8331,
      "fame": 8332,
      "appetite": 8333,
      "chef": 8334,
      "procure": 8335,
      "composure": 8336,
      "affor": 8337,
      "disappointed": 8338,
      "aves": 8339,
      "previously": 8340,
      "montre": 8341,
      "hasard": 8342,
      "shops": 8343,
      "whereas": 8344,
      "pile": 8345,
      "crushing": 8346,
      "older": 8347,
      "rences": 8348,
      "udge": 8349,
      "hunters": 8350,
      "breach": 8351,
      "crimson": 8352,
      "denied": 8353,
      "courty": 8354,
      "berg": 8355,
      "grain": 8356,
      "workman": 8357,
      "region": 8358,
      "ferred": 8359,
      "culti": 8360,
      "Rome": 8361,
      "Rosings": 8362,
      "hardened": 8363,
      "bands": 8364,
      "sortir": 8365,
      "quels": 8366,
      "flock": 8367,
      "painting": 8368,
      "expressions": 8369,
      "pont": 8370,
      "casting": 8371,
      "astonishing": 8372,
      "club": 8373,
      "cables": 8374,
      "furnace": 8375,
      "rapidity": 8376,
      "accord": 8377,
      "waving": 8378,
      "citiz": 8379,
      "hesitating": 8380,
      "River": 8381,
      "league": 8382,
      "politics": 8383,
      "pronon": 8384,
      "currents": 8385,
      "bitterness": 8386,
      "bridges": 8387,
      "Cheval": 8388,
      "European": 8389,
      "combat": 8390,
      "crisis": 8391,
      "arrêter": 8392,
      "adorned": 8393,
      "brandy": 8394,
      "thieves": 8395,
      "détails": 8396,
      "Governor": 8397,
      "exasperated": 8398,
      "intimacy": 8399,
      "sympathy": 8400,
      "imprudent": 8401,
      "besoin": 8402,
      "Bastille": 8403,
      "Amb": 8404,
      "Bill": 8405,
      "Creek": 8406,
      "Den": 8407,
      "Delou": 8408,
      "High": 8409,
      "LA": 8410,
      "Oud": 8411,
      "Piet": 8412,
      "Sam": 8413,
      "Trou": 8414,
      "cil": 8415,
      "cée": 8416,
      "cats": 8417,
      "dined": 8418,
      "jer": 8419,
      "jar": 8420,
      "jes": 8421,
      "jets": 8422,
      "pink": 8423,
      "scul": 8424,
      "wri": 8425,
      "zire": 8426,
      "ément": 8427,
      "inth": 8428,
      "inction": 8429,
      "retain": 8430,
      "ourable": 8431,
      "thigh": 8432,
      "total": 8433,
      "lever": 8434,
      "lli": 8435,
      "seals": 8436,
      "bears": 8437,
      "beaux": 8438,
      "beloved": 8439,
      "roots": 8440,
      "hoisted": 8441,
      "raux": 8442,
      "contains": 8443,
      "tiers": 8444,
      "caresses": 8445,
      "lesson": 8446,
      "ody": 8447,
      "bleeding": 8448,
      "propose": 8449,
      "disci": 8450,
      "dishes": 8451,
      "precautions": 8452,
      "handful": 8453,
      "replying": 8454,
      "stool": 8455,
      "surveyed": 8456,
      "beggar": 8457,
      "Whatever": 8458,
      "fuite": 8459,
      "Arri": 8460,
      "impressed": 8461,
      "brass": 8462,
      "réve": 8463,
      "appeal": 8464,
      "subterranean": 8465,
      "walks": 8466,
      "tutor": 8467,
      "itudes": 8468,
      "hundreds": 8469,
      "personn": 8470,
      "transp": 8471,
      "barrel": 8472,
      "chers": 8473,
      "bourg": 8474,
      "Const": 8475,
      "footsteps": 8476,
      "allowing": 8477,
      "Quite": 8478,
      "official": 8479,
      "cracked": 8480,
      "regardait": 8481,
      "Alzire": 8482,
      "soldat": 8483,
      "gloves": 8484,
      "fascin": 8485,
      "deserved": 8486,
      "Norbert": 8487,
      "bathed": 8488,
      "pillow": 8489,
      "pillars": 8490,
      "pursuit": 8491,
      "moonlight": 8492,
      "Ferrante": 8493,
      "slave": 8494,
      "ascending": 8495,
      "sauver": 8496,
      "naissance": 8497,
      "audible": 8498,
      "blessed": 8499,
      "cunning": 8500,
      "altar": 8501,
      "amusement": 8502,
      "Jackson": 8503,
      "modesty": 8504,
      "whistling": 8505,
      "billet": 8506,
      "containing": 8507,
      "permitted": 8508,
      "British": 8509,
      "favourable": 8510,
      "scenes": 8511,
      "swollen": 8512,
      "adversary": 8513,
      "skull": 8514,
      "bristling": 8515,
      "performan": 8516,
      "caractère": 8517,
      "propeller": 8518,
      "Delouche": 8519,
      "Flo": 8520,
      "Lis": 8521,
      "NE": 8522,
      "Pas": 8523,
      "Rab": 8524,
      "Russi": 8525,
      "Sn": 8526,
      "Sire": 8527,
      "Sue": 8528,
      "Tra": 8529,
      "Up": 8530,
      "lately": 8531,
      "oles": 8532,
      "sû": 8533,
      "scold": 8534,
      "wls": 8535,
      "infamous": 8536,
      "reven": 8537,
      "ascent": 8538,
      "lee": 8539,
      "espoir": 8540,
      "melt": 8541,
      "members": 8542,
      "ceux": 8543,
      "idian": 8544,
      "sujet": 8545,
      "abhor": 8546,
      "cone": 8547,
      "resisted": 8548,
      "antes": 8549,
      "ulation": 8550,
      "fication": 8551,
      "parlait": 8552,
      "ranera": 8553,
      "proble": 8554,
      "commis": 8555,
      "compelled": 8556,
      "icine": 8557,
      "daybreak": 8558,
      "ciel": 8559,
      "tremend": 8560,
      "landlady": 8561,
      "angrily": 8562,
      "crut": 8563,
      "happens": 8564,
      "cria": 8565,
      "décid": 8566,
      "claimed": 8567,
      "Marchiennes": 8568,
      "doubts": 8569,
      "rung": 8570,
      "llect": 8571,
      "continual": 8572,
      "nah": 8573,
      "trip": 8574,
      "assembled": 8575,
      "shortly": 8576,
      "intellect": 8577,
      "oblige": 8578,
      "habitation": 8579,
      "answering": 8580,
      "studies": 8581,
      "destined": 8582,
      "Stangers": 8583,
      "ification": 8584,
      "umn": 8585,
      "warmed": 8586,
      "shouts": 8587,
      "persisted": 8588,
      "demanda": 8589,
      "assume": 8590,
      "social": 8591,
      "stretch": 8592,
      "stretching": 8593,
      "Frenchman": 8594,
      "energet": 8595,
      "studs": 8596,
      "quinze": 8597,
      "partie": 8598,
      "searching": 8599,
      "regretted": 8600,
      "declare": 8601,
      "introduce": 8602,
      "danced": 8603,
      "ascend": 8604,
      "metery": 8605,
      "apparition": 8606,
      "recommended": 8607,
      "amoureux": 8608,
      "leaped": 8609,
      "revolution": 8610,
      "érieur": 8611,
      "provincial": 8612,
      "sleeves": 8613,
      "stamped": 8614,
      "exaggerated": 8615,
      "auprès": 8616,
      "farewell": 8617,
      "castaways": 8618,
      "summoned": 8619,
      "coolly": 8620,
      "WHICH": 8621,
      "intolerable": 8622,
      "serene": 8623,
      "Oudarde": 8624,
      "Pietranera": 8625,
      "Stangerson": 8626,
      "Cous": 8627,
      "Hôtel": 8628,
      "IR": 8629,
      "Ja": 8630,
      "Nob": 8631,
      "Pendant": 8632,
      "Tor": 8633,
      "UR": 8634,
      "US": 8635,
      "dus": 8636,
      "jok": 8637,
      "ometer": 8638,
      "scent": 8639,
      "église": 8640,
      "inière": 8641,
      "enable": 8642,
      "enabled": 8643,
      "lla": 8644,
      "decent": 8645,
      "vels": 8646,
      "unjust": 8647,
      "ids": 8648,
      "locks": 8649,
      "nez": 8650,
      "taire": 8651,
      "tavern": 8652,
      "conso": 8653,
      "tick": 8654,
      "tique": 8655,
      "pots": 8656,
      "sier": 8657,
      "faite": 8658,
      "dernier": 8659,
      "asses": 8660,
      "cig": 8661,
      "ava": 8662,
      "repast": 8663,
      "undertaking": 8664,
      "thoughtful": 8665,
      "missing": 8666,
      "pious": 8667,
      "ideal": 8668,
      "cré": 8669,
      "grasp": 8670,
      "capri": 8671,
      "calmer": 8672,
      "minded": 8673,
      "regained": 8674,
      "crowned": 8675,
      "vaise": 8676,
      "skins": 8677,
      "barking": 8678,
      "presents": 8679,
      "sunshine": 8680,
      "simplicity": 8681,
      "awful": 8682,
      "facul": 8683,
      "towns": 8684,
      "staying": 8685,
      "judges": 8686,
      "changes": 8687,
      "recognise": 8688,
      "demander": 8689,
      "syll": 8690,
      "breadth": 8691,
      "variety": 8692,
      "infli": 8693,
      "bearable": 8694,
      "punished": 8695,
      "allez": 8696,
      "obstacles": 8697,
      "cottage": 8698,
      "fainted": 8699,
      "suspicious": 8700,
      "galop": 8701,
      "louis": 8702,
      "positive": 8703,
      "Hume": 8704,
      "pearls": 8705,
      "pupils": 8706,
      "engagement": 8707,
      "abundance": 8708,
      "devouring": 8709,
      "Prefect": 8710,
      "papier": 8711,
      "isolated": 8712,
      "magistrate": 8713,
      "foliage": 8714,
      "Africa": 8715,
      "rendezvous": 8716,
      "Half": 8717,
      "triste": 8718,
      "encountered": 8719,
      "Mahiette": 8720,
      "Suez": 8721,
      "Cousin": 8722,
      ".--": 8723,
      "Bright": 8724,
      "Day": 8725,
      "Dep": 8726,
      "Get": 8727,
      "Han": 8728,
      "Min": 8729,
      "Pa": 8730,
      "Paul": 8731,
      "Vi": 8732,
      "bred": 8733,
      "bure": 8734,
      "cteur": 8735,
      "ev": 8736,
      "elf": 8737,
      "fist": 8738,
      "gée": 8739,
      "jure": 8740,
      "liness": 8741,
      "marty": 8742,
      "nit": 8743,
      "ored": 8744,
      "rine": 8745,
      "smiles": 8746,
      "tanks": 8747,
      "inches": 8748,
      "ensuite": 8749,
      "tomber": 8750,
      "esp": 8751,
      "dex": 8752,
      "hired": 8753,
      "roaring": 8754,
      "chatter": 8755,
      "entrer": 8756,
      "alas": 8757,
      "riding": 8758,
      "rified": 8759,
      "alling": 8760,
      "adise": 8761,
      "maine": 8762,
      "absolu": 8763,
      "tex": 8764,
      "geons": 8765,
      "exi": 8766,
      "expose": 8767,
      "perpet": 8768,
      "rouge": 8769,
      "cheese": 8770,
      "shrill": 8771,
      "assisted": 8772,
      "ophy": 8773,
      "mbour": 8774,
      "dislike": 8775,
      "lum": 8776,
      "complic": 8777,
      "gies": 8778,
      "imposing": 8779,
      "tram": 8780,
      "cerity": 8781,
      "clesi": 8782,
      "idered": 8783,
      "inspect": 8784,
      "clut": 8785,
      "tells": 8786,
      "attri": 8787,
      "tempted": 8788,
      "déja": 8789,
      "Marie": 8790,
      "Mariet": 8791,
      "speaks": 8792,
      "regain": 8793,
      "crois": 8794,
      "belief": 8795,
      "penole": 8796,
      "career": 8797,
      "petti": 8798,
      "ringer": 8799,
      "cupboard": 8800,
      "pract": 8801,
      "mediately": 8802,
      "Boy": 8803,
      "advancing": 8804,
      "exclaim": 8805,
      "horseback": 8806,
      "voyant": 8807,
      "Jock": 8808,
      "scarlet": 8809,
      "Rochefort": 8810,
      "musket": 8811,
      "voulu": 8812,
      "occasionally": 8813,
      "deliber": 8814,
      "characters": 8815,
      "separation": 8816,
      "Union": 8817,
      "million": 8818,
      "storms": 8819,
      "mourning": 8820,
      "balust": 8821,
      "maids": 8822,
      "jeta": 8823,
      "cousins": 8824,
      "powers": 8825,
      "transformed": 8826,
      "physician": 8827,
      "robbed": 8828,
      "consciousness": 8829,
      "breeches": 8830,
      "positively": 8831,
      "elegance": 8832,
      "beams": 8833,
      "relative": 8834,
      "mutual": 8835,
      "Betty": 8836,
      "rescue": 8837,
      "issued": 8838,
      "consul": 8839,
      "adopted": 8840,
      "vacant": 8841,
      "remarqua": 8842,
      "harpooner": 8843,
      "encouraged": 8844,
      "apprehensions": 8845,
      "nonsense": 8846,
      "Immediately": 8847,
      "attachment": 8848,
      "gauche": 8849,
      "atrocious": 8850,
      "crouching": 8851,
      "resemblance": 8852,
      "Coppenole": 8853,
      "Gregson": 8854,
      "courtyard": 8855,
      "Rabbit": 8856,
      "Bible": 8857,
      "El": 8858,
      "Flanders": 8859,
      "Fitz": 8860,
      "HO": 8861,
      "Lé": 8862,
      "Mai": 8863,
      "Say": 8864,
      "Sak": 8865,
      "Tro": 8866,
      "bors": 8867,
      "coff": 8868,
      "flies": 8869,
      "mous": 8870,
      "mpered": 8871,
      "nations": 8872,
      "nusse": 8873,
      "tford": 8874,
      "uch": 8875,
      "ully": 8876,
      "za": 8877,
      "~!": 8878,
      "æfell": 8879,
      "écl": 8880,
      "étend": 8881,
      "écrit": 8882,
      "infla": 8883,
      "anter": 8884,
      "thom": 8885,
      "atte": 8886,
      "attic": 8887,
      "ishes": 8888,
      "token": 8889,
      "toms": 8890,
      "ands": 8891,
      "hama": 8892,
      "beef": 8893,
      "rosy": 8894,
      "vehi": 8895,
      "withdraw": 8896,
      "lav": 8897,
      "racon": 8898,
      "fection": 8899,
      "suited": 8900,
      "rescent": 8901,
      "gossip": 8902,
      "excess": 8903,
      "exemple": 8904,
      "fathom": 8905,
      "selfish": 8906,
      "ranks": 8907,
      "ateur": 8908,
      "placid": 8909,
      "discharge": 8910,
      "artist": 8911,
      "spit": 8912,
      "iece": 8913,
      "marvel": 8914,
      "lowering": 8915,
      "morti": 8916,
      "creation": 8917,
      "meridian": 8918,
      "souvenir": 8919,
      "sentait": 8920,
      "courant": 8921,
      "courtis": 8922,
      "temple": 8923,
      "childhood": 8924,
      "natives": 8925,
      "remainder": 8926,
      "journée": 8927,
      "satin": 8928,
      "bull": 8929,
      "empê": 8930,
      "shows": 8931,
      "grandes": 8932,
      "sweep": 8933,
      "coldness": 8934,
      "needle": 8935,
      "nivers": 8936,
      "driver": 8937,
      "Champ": 8938,
      "saluted": 8939,
      "voulut": 8940,
      "laws": 8941,
      "extinct": 8942,
      "probability": 8943,
      "fetched": 8944,
      "witch": 8945,
      "écrire": 8946,
      "affectionate": 8947,
      "regularly": 8948,
      "mourn": 8949,
      "balance": 8950,
      "hasten": 8951,
      "reproaches": 8952,
      "eagerness": 8953,
      "delicacy": 8954,
      "songs": 8955,
      "preceding": 8956,
      "rascals": 8957,
      "insolence": 8958,
      "frère": 8959,
      "including": 8960,
      "circular": 8961,
      "manufacture": 8962,
      "embarked": 8963,
      "aperçut": 8964,
      "meadow": 8965,
      "scheme": 8966,
      "cantinière": 8967,
      "conquered": 8968,
      "expenses": 8969,
      "Above": 8970,
      "affaires": 8971,
      "Hippoly": 8972,
      "Chevalier": 8973,
      "Snæfell": 8974,
      "Marietta": 8975,
      "Saknusse": 8976,
      "Saknussemm": 8977,
      "Bur": 8978,
      "Bob": 8979,
      "Cet": 8980,
      "Gir": 8981,
      "Gates": 8982,
      "Jef": 8983,
      "Night": 8984,
      "Over": 8985,
      "Ocean": 8986,
      "Rep": 8987,
      "Sup": 8988,
      "Tues": 8989,
      "WE": 8990,
      "bbet": 8991,
      "dame": 8992,
      "gno": 8993,
      "gallows": 8994,
      "mée": 8995,
      "sant": 8996,
      "ène": 8997,
      "éré": 8998,
      "ôme": 8999,
      "heir": 9000,
      "arcade": 9001,
      "haw": 9002,
      "haute": 9003,
      "beck": 9004,
      "nostri": 9005,
      "veille": 9006,
      "vexed": 9007,
      "livid": 9008,
      "riche": 9009,
      "ura": 9010,
      "sobbing": 9011,
      "cove": 9012,
      "colored": 9013,
      "loco": 9014,
      "moss": 9015,
      "nels": 9016,
      "sias": 9017,
      "exquisite": 9018,
      "faveur": 9019,
      "paroles": 9020,
      "commissary": 9021,
      "afford": 9022,
      "rubbing": 9023,
      "augment": 9024,
      "dice": 9025,
      "vivid": 9026,
      "couch": 9027,
      "earn": 9028,
      "marche": 9029,
      "cloister": 9030,
      "aching": 9031,
      "angles": 9032,
      "heading": 9033,
      "clearing": 9034,
      "pipes": 9035,
      "impress": 9036,
      "autumn": 9037,
      "countries": 9038,
      "curate": 9039,
      "bile": 9040,
      "choir": 9041,
      "moured": 9042,
      "mouvement": 9043,
      "Hertford": 9044,
      "submit": 9045,
      "buck": 9046,
      "numbers": 9047,
      "abode": 9048,
      "dearly": 9049,
      "keeps": 9050,
      "Holy": 9051,
      "besie": 9052,
      "hurri": 9053,
      "grandfather": 9054,
      "beauté": 9055,
      "reasoning": 9056,
      "obligé": 9057,
      "burg": 9058,
      "destiny": 9059,
      "regarder": 9060,
      "muscles": 9061,
      "Deux": 9062,
      "voudra": 9063,
      "calmness": 9064,
      "kissing": 9065,
      "spectators": 9066,
      "avored": 9067,
      "quelquefois": 9068,
      "aurais": 9069,
      "studying": 9070,
      "sincerity": 9071,
      "punct": 9072,
      "punish": 9073,
      "traveller": 9074,
      "treatment": 9075,
      "swimming": 9076,
      "lodge": 9077,
      "endeavored": 9078,
      "political": 9079,
      "explored": 9080,
      "wretchedness": 9081,
      "thankful": 9082,
      "tapest": 9083,
      "irritation": 9084,
      "electricity": 9085,
      "Italian": 9086,
      "Jupiter": 9087,
      "distraction": 9088,
      "cription": 9089,
      "contrived": 9090,
      "Augustin": 9091,
      "Portu": 9092,
      "vegetation": 9093,
      "construction": 9094,
      "constructed": 9095,
      "abundant": 9096,
      "boredom": 9097,
      "Napoléon": 9098,
      "launched": 9099,
      "columns": 9100,
      "benefit": 9101,
      "slumber": 9102,
      "incredible": 9103,
      "murderers": 9104,
      "neglect": 9105,
      "Presently": 9106,
      "tossed": 9107,
      "paraître": 9108,
      "principles": 9109,
      "activity": 9110,
      "noisy": 9111,
      "sweetheart": 9112,
      "performance": 9113,
      "Brighton": 9114,
      "Gateshead": 9115,
      "23": 9116,
      "50": 9117,
      "Binet": 9118,
      "Gra": 9119,
      "Oak": 9120,
      "Six": 9121,
      "bind": 9122,
      "ffe": 9123,
      "fab": 9124,
      "fête": 9125,
      "job": 9126,
      "mould": 9127,
      "mment": 9128,
      "mire": 9129,
      "ome": 9130,
      "ratt": 9131,
      "tasted": 9132,
      "wages": 9133,
      "theory": 9134,
      "retained": 9135,
      "tha": 9136,
      "thri": 9137,
      "errand": 9138,
      "ases": 9139,
      "leys": 9140,
      "noir": 9141,
      "cemetery": 9142,
      "lière": 9143,
      "idle": 9144,
      "somme": 9145,
      "termine": 9146,
      "rah": 9147,
      "rapp": 9148,
      "rags": 9149,
      "negle": 9150,
      "myst": 9151,
      "outburst": 9152,
      "feed": 9153,
      "conceived": 9154,
      "conveyed": 9155,
      "persecut": 9156,
      "wolves": 9157,
      "illot": 9158,
      "rub": 9159,
      "yourselves": 9160,
      "vied": 9161,
      "closet": 9162,
      "clothed": 9163,
      "Young": 9164,
      "lighting": 9165,
      "mischief": 9166,
      "offen": 9167,
      "pilot": 9168,
      "aide": 9169,
      "crest": 9170,
      "chap": 9171,
      "chill": 9172,
      "foundation": 9173,
      "horreur": 9174,
      "pleases": 9175,
      "Lake": 9176,
      "finishing": 9177,
      "rises": 9178,
      "childish": 9179,
      "départ": 9180,
      "arrivée": 9181,
      "blade": 9182,
      "fallait": 9183,
      "refrain": 9184,
      "tés": 9185,
      "quelqu": 9186,
      "murdered": 9187,
      "flashed": 9188,
      "floated": 9189,
      "destin": 9190,
      "realised": 9191,
      "apply": 9192,
      "muskets": 9193,
      "wildly": 9194,
      "mépris": 9195,
      "CHAPIT": 9196,
      "temptation": 9197,
      "Friar": 9198,
      "sharks": 9199,
      "spreading": 9200,
      "scaf": 9201,
      "escaping": 9202,
      "faisant": 9203,
      "pillory": 9204,
      "convict": 9205,
      "lifting": 9206,
      "principle": 9207,
      "vereign": 9208,
      "potent": 9209,
      "nouvel": 9210,
      "entendu": 9211,
      "entendit": 9212,
      "physio": 9213,
      "aperce": 9214,
      "betray": 9215,
      "comfortably": 9216,
      "Spaniard": 9217,
      "severely": 9218,
      "favorable": 9219,
      "swam": 9220,
      "waistcoat": 9221,
      "numerable": 9222,
      "comparative": 9223,
      "injured": 9224,
      "masts": 9225,
      "sparkling": 9226,
      "purchased": 9227,
      "multip": 9228,
      "revived": 9229,
      "neighborhood": 9230,
      "reigned": 9231,
      "insolent": 9232,
      "developed": 9233,
      "enveloped": 9234,
      "feathers": 9235,
      "compagnon": 9236,
      "embroidered": 9237,
      "ferson": 9238,
      "deprived": 9239,
      "Duncan": 9240,
      "annoyance": 9241,
      "universal": 9242,
      "éloign": 9243,
      "remedy": 9244,
      "Hippolyte": 9245,
      "Jefferson": 9246,
      "Tuesday": 9247,
      "neglected": 9248,
      "CHAPITRE": 9249,
      "Adieu": 9250,
      "Dear": 9251,
      "Stop": 9252,
      "UN": 9253,
      "Wh": 9254,
      "Yok": 9255,
      "bby": 9256,
      "eus": 9257,
      "elly": 9258,
      "faster": 9259,
      "ila": 9260,
      "kins": 9261,
      "nent": 9262,
      "nave": 9263,
      "ohama": 9264,
      "shat": 9265,
      "tto": 9266,
      "vê": 9267,
      "zer": 9268,
      "œu": 9269,
      "inch": 9270,
      "innumerable": 9271,
      "retra": 9272,
      "rebell": 9273,
      "outer": 9274,
      "enlar": 9275,
      "asks": 9276,
      "stag": 9277,
      "roast": 9278,
      "roared": 9279,
      "verte": 9280,
      "lain": 9281,
      "laiss": 9282,
      "saut": 9283,
      "sack": 9284,
      "hog": 9285,
      "soo": 9286,
      "sober": 9287,
      "tales": 9288,
      "taient": 9289,
      "outs": 9290,
      "pector": 9291,
      "tels": 9292,
      "confirmed": 9293,
      "tiles": 9294,
      "tirer": 9295,
      "manus": 9296,
      "bute": 9297,
      "perish": 9298,
      "prê": 9299,
      "answers": 9300,
      "dismal": 9301,
      "disgrace": 9302,
      "preference": 9303,
      "quires": 9304,
      "jeu": 9305,
      "gibbet": 9306,
      "trades": 9307,
      "shower": 9308,
      "mines": 9309,
      "passes": 9310,
      "begins": 9311,
      "aires": 9312,
      "aign": 9313,
      "laden": 9314,
      "impud": 9315,
      "autour": 9316,
      "caprice": 9317,
      "courtes": 9318,
      "lings": 9319,
      "instants": 9320,
      "primit": 9321,
      "Neuf": 9322,
      "déli": 9323,
      "doubled": 9324,
      "igned": 9325,
      "licite": 9326,
      "tured": 9327,
      "personages": 9328,
      "damage": 9329,
      "fearsome": 9330,
      "droop": 9331,
      "gale": 9332,
      "chances": 9333,
      "fairy": 9334,
      "approved": 9335,
      "Behind": 9336,
      "suppor": 9337,
      "eyebrows": 9338,
      "mira": 9339,
      "bordered": 9340,
      "testi": 9341,
      "fifth": 9342,
      "knelt": 9343,
      "constitution": 9344,
      "wilder": 9345,
      "slid": 9346,
      "sufficed": 9347,
      "objections": 9348,
      "subjects": 9349,
      "successful": 9350,
      "dreaded": 9351,
      "softened": 9352,
      "deserve": 9353,
      "folding": 9354,
      "stroll": 9355,
      "travelled": 9356,
      "doublet": 9357,
      "campaign": 9358,
      "protect": 9359,
      "debts": 9360,
      "demment": 9361,
      "transported": 9362,
      "quoique": 9363,
      "convenience": 9364,
      "delayed": 9365,
      "laisser": 9366,
      "weariness": 9367,
      "comprehen": 9368,
      "Rouault": 9369,
      "adored": 9370,
      "dainty": 9371,
      "comparison": 9372,
      "hypocris": 9373,
      "volumes": 9374,
      "vegetable": 9375,
      "tolerable": 9376,
      "preceded": 9377,
      "imaginable": 9378,
      "troops": 9379,
      "recollections": 9380,
      "limited": 9381,
      "biscu": 9382,
      "redoubled": 9383,
      "gift": 9384,
      "significant": 9385,
      "clinging": 9386,
      "grimace": 9387,
      "wench": 9388,
      "mauvais": 9389,
[...]
