{
  "version": "1.0",
  "truncation": null,
  "padding": null,
  "added_tokens": [
    {
      "id": 0,
      "content": "[UNK]",
      "single_word": false,
      "lstrip": false,
      "rstrip": false,
      "normalized": false,
      "special": true
    },
    {
      "id": 1,
      "content": "[SOS]",
      "single_word": false,
      "lstrip": false,
      "rstrip": false,
      "normalized": false,
      "special": true
    },
    {
      "id": 2,
      "content": "[EOS]",
      "single_word": false,
      "lstrip": false,
      "rstrip": false,
      "normalized": false,
      "special": true
    },
    {
      "id": 3,
      "content": "[PAD]",
      "single_word": false,
      "lstrip": false,
      "rstrip": false,
      "normalized": false,
      "special": true
    }
  ],
  "normalizer": null,
  "pre_tokenizer": {
    "type": "Whitespace"
  },
  "post_processor": null,
  "decoder": null,
  "model": {
    "type": "BPE",
    "dropout": null,
    "unk_token": null,
    "continuing_subword_prefix": null,
    "end_of_word_suffix": null,
    "fuse_unk": false,
    "byte_fallback": false,
    "ignore_merges": false,
    "vocab": {
      "[UNK]": 0,
      "[SOS]": 1,
      "[EOS]": 2,
      "[PAD]": 3,
      "!": 4,
      "\"": 5,
      "%": 6,
      "&": 7,
      "'": 8,
      "(": 9,
      ")": 10,
      "*": 11,
      "+": 12,
      ",": 13,
      "-": 14,
      ".": 15,
      "/": 16,
      "0": 17,
      "1": 18,
      "2": 19,
      "3": 20,
      "4": 21,
      "5": 22,
      "6": 23,
      "7": 24,
      "8": 25,
      "9": 26,
      ":": 27,
      ";": 28,
      "<": 29,
      "=": 30,
      "?": 31,
      "A": 32,
      "B": 33,
      "C": 34,
      "D": 35,
      "E": 36,
      "F": 37,
      "G": 38,
      "H": 39,
      "I": 40,
      "J": 41,
      "K": 42,
      "L": 43,
      "M": 44,
      "N": 45,
      "O": 46,
      "P": 47,
      "Q": 48,
      "R": 49,
      "S": 50,
      "T": 51,
      "U": 52,
      "V": 53,
      "W": 54,
      "X": 55,
      "Y": 56,
      "Z": 57,
      "[": 58,
      "]": 59,
      "_": 60,
      "`": 61,
      "a": 62,
      "b": 63,
      "c": 64,
      "d": 65,
      "e": 66,
      "f": 67,
      "g": 68,
      "h": 69,
      "i": 70,
      "j": 71,
      "k": 72,
      "l": 73,
      "m": 74,
      "n": 75,
      "o": 76,
      "p": 77,
      "q": 78,
      "r": 79,
      "s": 80,
      "t": 81,
      "u": 82,
      "v": 83,
      "w": 84,
      "x": 85,
      "y": 86,
      "z": 87,
      "{": 88,
      "~": 89,
      "¡": 90,
      "«": 91,
      "°": 92,
      "´": 93,
      "º": 94,
      "»": 95,
      "¿": 96,
      "À": 97,
      "Á": 98,
      "Ç": 99,
      "È": 100,
      "É": 101,
      "Ì": 102,
      "Í": 103,
      "Ï": 104,
      "Ó": 105,
      "Ú": 106,
      "à": 107,
      "á": 108,
      "â": 109,
      "ä": 110,
      "ç": 111,
      "è": 112,
      "é": 113,
      "ê": 114,
      "ë": 115,
      "ì": 116,
      "í": 117,
      "î": 118,
      "ï": 119,
      "ñ": 120,
      "ò": 121,
      "ó": 122,
      "ô": 123,
      "ö": 124,
      "ù": 125,
      "ú": 126,
      "ü": 127,
      "œ": 128,
      "–": 129,
      "—": 130,
      "‘": 131,
      "’": 132,
      "“": 133,
      "”": 134,
      "…": 135,
      "en": 136,
      "de": 137,
      "es": 138,
      "er": 139,
      "os": 140,
      "la": 141,
      "qu": 142,
      "ar": 143,
      "an": 144,
      "que": 145,
      "on": 146,
      "or": 147,
      "as": 148,
      "do": 149,
      "ab": 150,
      "el": 151,
      "al": 152,
      "ci": 153,
      "un": 154,
      "in": 155,
      "re": 156,
      "se": 157,
      "ent": 158,
      "di": 159,
      "con": 160,
      "ía": 161,
      "da": 162,
      "to": 163,
      "le": 164,
      "ta": 165,
      "tr": 166,
      "su": 167,
      "mi": 168,
      "te": 169,
      "co": 170,
      "no": 171,
      "cu": 172,
      "lo": 173,
      "ti": 174,
      "los": 175,
      "me": 176,
      "ra": 177,
      "ch": 178,
      "mo": 179,
      "vi": 180,
      "si": 181,
      "por": 182,
      "ca": 183,
      "par": 184,
      "ro": 185,
      "ri": 186,
      "las": 187,
      "ón": 188,
      "aba": 189,
      "hab": 190,
      "per": 191,
      "una": 192,
      "pu": 193,
      "ente": 194,
      "mp": 195,
      "ma": 196,
      "dos": 197,
      "des": 198,
      "est": 199,
      "so": 200,
      "era": 201,
      "gu": 202,
      "jo": 203,
      "del": 204,
      "ha": 205,
      "res": 206,
      "mb": 207,
      "go": 208,
      "mu": 209,
      "ás": 210,
      "ado": 211,
      "li": 212,
      "tan": 213,
      "tra": 214,
      "ten": 215,
      "tu": 216,
      "po": 217,
      "ción": 218,
      "mos": 219,
      "pi": 220,
      "bi": 221,
      "más": 222,
      "ec": 223,
      "mente": 224,
      "para": 225,
      "ero": 226,
      "man": 227,
      "is": 228,
      "vo": 229,
      "ando": 230,
      "ver": 231,
      "pa": 232,
      "qui": 233,
      "como": 234,
      "cho": 235,
      "na": 236,
      "había": 237,
      "ex": 238,
      "cia": 239,
      "us": 240,
      "ve": 241,
      "ue": 242,
      "cas": 243,
      "pro": 244,
      "dad": 245,
      "ce": 246,
      "cer": 247,
      "ter": 248,
      "sus": 249,
      "car": 250,
      "sin": 251,
      "ora": 252,
      "ba": 253,
      "ser": 254,
      "tar": 255,
      "señ": 256,
      "án": 257,
      "za": 258,
      "fi": 259,
      "dijo": 260,
      "ran": 261,
      "mar": 262,
      "du": 263,
      "ento": 264,
      "pe": 265,
      "sa": 266,
      "tro": 267,
      "lla": 268,
      "ían": 269,
      "ni": 270,
      "..": 271,
      "das": 272,
      "pre": 273,
      "mis": 274,
      "ir": 275,
      "cab": 276,
      "pero": 277,
      "don": 278,
      "ues": 279,
      "lle": 280,
      "ga": 281,
      "va": 282,
      "yo": 283,
      "ras": 284,
      "cos": 285,
      "tes": 286,
      "ya": 287,
      "aque": 288,
      "bre": 289,
      "emp": 290,
      "No": 291,
      "cor": 292,
      "men": 293,
      "gun": 294,
      "aban": 295,
      "pon": 296,
      "les": 297,
      "pas": 298,
      "él": 299,
      "esta": 300,
      "ido": 301,
      "he": 302,
      "lu": 303,
      "día": 304,
      "fu": 305,
      "lan": 306,
      "tos": 307,
      "endo": 308,
      "ones": 309,
      "min": 310,
      "Es": 311,
      "én": 312,
      "és": 313,
      "ven": 314,
      "pen": 315,
      "comp": 316,
      "––": 317,
      "El": 318,
      "io": 319,
      "hi": 320,
      "Qu": 321,
      "todo": 322,
      "lar": 323,
      "señor": 324,
      "sal": 325,
      "ho": 326,
      "hu": 327,
      "gar": 328,
      "pr": 329,
      "ces": 330,
      "En": 331,
      "der": 332,
      "son": 333,
      "dar": 334,
      "bu": 335,
      "esto": 336,
      "tas": 337,
      "dor": 338,
      "ese": 339,
      "nos": 340,
      "tó": 341,
      "ella": 342,
      "dió": 343,
      "all": 344,
      "sobre": 345,
      "mbre": 346,
      "qué": 347,
      "gi": 348,
      "aquel": 349,
      "tor": 350,
      "ru": 351,
      "ría": 352,
      "muy": 353,
      "ob": 354,
      "estaba": 355,
      "deci": 356,
      "dis": 357,
      "can": 358,
      "mer": 359,
      "ún": 360,
      "Pero": 361,
      "gra": 362,
      "eron": 363,
      "tal": 364,
      "ol": 365,
      "cuando": 366,
      "ja": 367,
      "gran": 368,
      "bien": 369,
      "pos": 370,
      "añ": 371,
      "sab": 372,
      "mas": 373,
      "for": 374,
      "vol": 375,
      "ros": 376,
      "pres": 377,
      "je": 378,
      "rar": 379,
      "porque": 380,
      "cha": 381,
      "encia": 382,
      "uste": 383,
      "pri": 384,
      "zo": 385,
      "cre": 386,
      "ble": 387,
      "hora": 388,
      "enta": 389,
      "ing": 390,
      "asta": 391,
      "ia": 392,
      "cio": 393,
      "mí": 394,
      "...": 395,
      "La": 396,
      "có": 397,
      "her": 398,
      "ante": 399,
      "fa": 400,
      "pue": 401,
      "usted": 402,
      "medi": 403,
      "jos": 404,
      "esa": 405,
      "cla": 406,
      "bo": 407,
      "elo": 408,
      "hacer": 409,
      "vin": 410,
      "sent": 411,
      "cri": 412,
      "entre": 413,
      "respon": 414,
      "parec": 415,
      "mor": 416,
      "gui": 417,
      "tin": 418,
      "able": 419,
      "ne": 420,
      "Qui": 421,
      "cía": 422,
      "tros": 423,
      "im": 424,
      "den": 425,
      "cono": 426,
      "lab": 427,
      "che": 428,
      "este": 429,
      "tras": 430,
      "ciones": 431,
      "Por": 432,
      "hasta": 433,
      "antes": 434,
      "Le": 435,
      "ton": 436,
      "dido": 437,
      "vez": 438,
      "gn": 439,
      "ios": 440,
      "eces": 441,
      "fue": 442,
      "cual": 443,
      "tado": 444,
      "taba": 445,
      "van": 446,
      "cal": 447,
      "ene": 448,
      "todos": 449,
      "dej": 450,
      "contr": 451,
      "buen": 452,
      "tiemp": 453,
      "dí": 454,
      "pregun": 455,
      "Ar": 456,
      "eci": 457,
      "mento": 458,
      "San": 459,
      "decir": 460,
      "th": 461,
      "erta": 462,
      "entos": 463,
      "miento": 464,
      "ina": 465,
      "tenía": 466,
      "mano": 467,
      "vis": 468,
      "Se": 469,
      "ale": 470,
      "nada": 471,
      "ad": 472,
      "jer": 473,
      "tiempo": 474,
      "casa": 475,
      "esper": 476,
      "sí": 477,
      "deb": 478,
      "il": 479,
      "ac": 480,
      "ana": 481,
      "ren": 482,
      "así": 483,
      "alg": 484,
      "segu": 485,
      "pues": 486,
      "inter": 487,
      "ño": 488,
      "mó": 489,
      "fin": 490,
      "hombre": 491,
      "toda": 492,
      "pués": 493,
      "nues": 494,
      "mbi": 495,
      "ión": 496,
      "só": 497,
      "var": 498,
      "bar": 499,
      "cen": 500,
      "mej": 501,
      "unto": 502,
      "quer": 503,
      "mes": 504,
      "donde": 505,
      "está": 506,
      "Mi": 507,
      "imp": 508,
      "dose": 509,
      "hubi": 510,
      "ocu": 511,
      "tre": 512,
      "Quijo": 513,
      "Quijote": 514,
      "aun": 515,
      "mon": 516,
      "Sancho": 517,
      "ña": 518,
      "eli": 519,
      "col": 520,
      "dado": 521,
      "encontr": 522,
      "agu": 523,
      "zar": 524,
      "ron": 525,
      "eso": 526,
      "fer": 527,
      "quí": 528,
      "entes": 529,
      "idad": 530,
      "podía": 531,
      "fuer": 532,
      "emb": 533,
      "respondió": 534,
      "haber": 535,
      "Al": 536,
      "vues": 537,
      "mismo": 538,
      "tante": 539,
      "mir": 540,
      "otro": 541,
      "otra": 542,
      "uno": 543,
      "len": 544,
      "ita": 545,
      "parte": 546,
      "erto": 547,
      "poco": 548,
      "rá": 549,
      "Con": 550,
      "éis": 551,
      "ada": 552,
      "nue": 553,
      "hacia": 554,
      "palab": 555,
      "die": 556,
      "ales": 557,
      "aquella": 558,
      "eros": 559,
      "fec": 560,
      "uego": 561,
      "tán": 562,
      "gnan": 563,
      "señora": 564,
      "ahora": 565,
      "vent": 566,
      "después": 567,
      "esti": 568,
      "ami": 569,
      "Me": 570,
      "dese": 571,
      "De": 572,
      "dre": 573,
      "eran": 574,
      "ins": 575,
      "habían": 576,
      "tres": 577,
      "algun": 578,
      "mujer": 579,
      "ky": 580,
      "tanto": 581,
      "Arta": 582,
      "vida": 583,
      "otros": 584,
      "mucho": 585,
      "Artagnan": 586,
      "pens": 587,
      "mal": 588,
      "lado": 589,
      "menos": 590,
      "Qué": 591,
      "cin": 592,
      "mil": 593,
      "ojos": 594,
      "sino": 595,
      "ju": 596,
      "pli": 597,
      "Levin": 598,
      "quien": 599,
      "au": 600,
      "ío": 601,
      "til": 602,
      "estar": 603,
      "posi": 604,
      "momento": 605,
      "eza": 606,
      "mun": 607,
      "ida": 608,
      "sky": 609,
      "tran": 610,
      "zón": 611,
      "-,": 612,
      "mbién": 613,
      "sólo": 614,
      "tener": 615,
      "hay": 616,
      "ber": 617,
      "gado": 618,
      "hecho": 619,
      "aquí": 620,
      "hor": 621,
      "aunque": 622,
      "ellos": 623,
      "rado": 624,
      "tur": 625,
      "pod": 626,
      "gos": 627,
      "Si": 628,
      "tamente": 629,
      "ning": 630,
      "bri": 631,
      "ele": 632,
      "pareci": 633,
      "reg": 634,
      "sido": 635,
      "oso": 636,
      "and": 637,
      "tt": 638,
      "ay": 639,
      "reci": 640,
      "compañ": 641,
      "lor": 642,
      "escu": 643,
      "algo": 644,
      "arse": 645,
      "todas": 646,
      "thos": 647,
      "vos": 648,
      "bas": 649,
      "cias": 650,
      "cuer": 651,
      "ró": 652,
      "cont": 653,
      "cada": 654,
      "rante": 655,
      "mejor": 656,
      "noche": 657,
      "puesto": 658,
      "allí": 659,
      "camin": 660,
      "ul": 661,
      "Sí": 662,
      "esp": 663,
      "ré": 664,
      "tri": 665,
      "osa": 666,
      "lib": 667,
      "cie": 668,
      "zó": 669,
      "también": 670,
      "-¿": 671,
      "ban": 672,
      "caball": 673,
      "rada": 674,
      "pla": 675,
      "pie": 676,
      "gri": 677,
      "hal": 678,
      "embar": 679,
      "empre": 680,
      "desde": 681,
      "quier": 682,
      "sigui": 683,
      "vía": 684,
      "enton": 685,
      "gan": 686,
      "Dios": 687,
      "aron": 688,
      "preci": 689,
      "preguntó": 690,
      "erra": 691,
      "emos": 692,
      "entonces": 693,
      "ándo": 694,
      "Su": 695,
      "desa": 696,
      "excla": 697,
      "Cu": 698,
      "cómo": 699,
      "entras": 700,
      "prof": 701,
      "tiene": 702,
      "sión": 703,
      "puso": 704,
      "Ana": 705,
      "uel": 706,
      "gus": 707,
      "To": 708,
      "fal": 709,
      "–.": 710,
      "ino": 711,
      "ase": 712,
      "cabeza": 713,
      "puede": 714,
      "neces": 715,
      "siempre": 716,
      "dó": 717,
      "oí": 718,
      "conoci": 719,
      "alguna": 720,
      "estu": 721,
      "ade": 722,
      "dio": 723,
      "cosa": 724,
      "tura": 725,
      "puerta": 726,
      "ario": 727,
      "bus": 728,
      "volvi": 729,
      "anto": 730,
      "contra": 731,
      "traba": 732,
      "capi": 733,
      "daba": 734,
      "chas": 735,
      "--": 736,
      "ima": 737,
      "caso": 738,
      "val": 739,
      "via": 740,
      "Los": 741,
      "–¿": 742,
      "Lo": 743,
      "Ci": 744,
      "prim": 745,
      "ello": 746,
      "llev": 747,
      "parti": 748,
      "mientos": 749,
      "jar": 750,
      "Yo": 751,
      "hizo": 752,
      "ced": 753,
      "lugar": 754,
      "cil": 755,
      "bajo": 756,
      "manos": 757,
      "lti": 758,
      "homb": 759,
      "días": 760,
      "Pen": 761,
      "almente": 762,
      "sol": 763,
      "levan": 764,
      "medio": 765,
      "zas": 766,
      "gó": 767,
      "luego": 768,
      "laba": 769,
      "ior": 770,
      "compren": 771,
      "Mar": 772,
      "unca": 773,
      "tru": 774,
      "cosas": 775,
      "fe": 776,
      "han": 777,
      "voz": 778,
      "ár": 779,
      "hubiera": 780,
      "mundo": 781,
      "ación": 782,
      "fuera": 783,
      "comen": 784,
      "ara": 785,
      "chos": 786,
      "may": 787,
      "cado": 788,
      "bra": 789,
      "consi": 790,
      "dicho": 791,
      "visto": 792,
      "casi": 793,
      "embargo": 794,
      "gen": 795,
      "pes": 796,
      "palabras": 797,
      "aún": 798,
      "té": 799,
      "ff": 800,
      "vuel": 801,
      "veces": 802,
      "lad": 803,
      "contin": 804,
      "extra": 805,
      "tad": 806,
      "parecía": 807,
      "vas": 808,
      "Vron": 809,
      "isla": 810,
      "Ne": 811,
      "ano": 812,
      "person": 813,
      "capitán": 814,
      "Vronsky": 815,
      "exclamó": 816,
      "inci": 817,
      "inc": 818,
      "media": 819,
      "atro": 820,
      "ment": 821,
      "zos": 822,
      "osi": 823,
      "mañ": 824,
      "erte": 825,
      "rió": 826,
      "estas": 827,
      "tengo": 828,
      "cro": 829,
      "acer": 830,
      "mayor": 831,
      "tió": 832,
      "habría": 833,
      "cción": 834,
      "anza": 835,
      "char": 836,
      "modo": 837,
      "estos": 838,
      "ándose": 839,
      "mientras": 840,
      "vuestra": 841,
      "joven": 842,
      "bor": 843,
      "durante": 844,
      "pron": 845,
      "vich": 846,
      "últi": 847,
      "pec": 848,
      "hablar": 849,
      "mañana": 850,
      "Pencro": 851,
      "Pencroff": 852,
      "Co": 853,
      "verdad": 854,
      "llegar": 855,
      "estaban": 856,
      "damente": 857,
      "sé": 858,
      "Ro": 859,
      "guar": 860,
      "lante": 861,
      "tierra": 862,
      "iba": 863,
      "cuenta": 864,
      "sos": 865,
      "pudi": 866,
      "vir": 867,
      "peque": 868,
      "fecto": 869,
      "diri": 870,
      "cur": 871,
      "gas": 872,
      "tty": 873,
      "debía": 874,
      "ura": 875,
      "forma": 876,
      "nunca": 877,
      "hacía": 878,
      "habita": 879,
      "volver": 880,
      "lí": 881,
      "camino": 882,
      "of": 883,
      "indi": 884,
      "cion": 885,
      "punto": 886,
      "rostro": 887,
      "cabal": 888,
      "ió": 889,
      "cul": 890,
      "duda": 891,
      "aleg": 892,
      "misma": 893,
      "obser": 894,
      "mana": 895,
      "agua": 896,
      "Ciro": 897,
      "tud": 898,
      "iendo": 899,
      "–¡": 900,
      "estado": 901,
      "Ale": 902,
      "sor": 903,
      "visi": 904,
      "lidad": 905,
      "Athos": 906,
      "har": 907,
      "algún": 908,
      "pin": 909,
      "unos": 910,
      "cuanto": 911,
      "fr": 912,
      "ito": 913,
      "yó": 914,
      "escri": 915,
      "cuatro": 916,
      "tir": 917,
      "amor": 918,
      "cora": 919,
      "termin": 920,
      "din": 921,
      "espe": 922,
      "amigo": 923,
      "poner": 924,
      "continu": 925,
      "descu": 926,
      "ves": 927,
      "ín": 928,
      "manera": 929,
      "tá": 930,
      "iz": 931,
      "merced": 932,
      "nuevo": 933,
      "Ya": 934,
      "-¡": 935,
      "ellas": 936,
      "vio": 937,
      "vesti": 938,
      "dores": 939,
      "natur": 940,
      "dir": 941,
      "Ki": 942,
      "demás": 943,
      "saber": 944,
      "jas": 945,
      "buena": 946,
      "posible": 947,
      "mé": 948,
      "sen": 949,
      "Kitty": 950,
      "Era": 951,
      "mith": 952,
      "Smith": 953,
      "hon": 954,
      "ide": 955,
      "Des": 956,
      "vor": 957,
      "hombres": 958,
      "agra": 959,
      "Sin": 960,
      "ka": 961,
      "pareció": 962,
      "be": 963,
      "ingen": 964,
      "parece": 965,
      "dia": 966,
      "éndo": 967,
      "entro": 968,
      "dente": 969,
      "corri": 970,
      "años": 971,
      "cuar": 972,
      "pensa": 973,
      "conver": 974,
      "at": 975,
      "mucha": 976,
      "corazón": 977,
      "caba": 978,
      "pren": 979,
      "ona": 980,
      "ica": 981,
      "camp": 982,
      "tuvo": 983,
      "sea": 984,
      "fici": 985,
      "dejar": 986,
      "padre": 987,
      "-.": 988,
      "dero": 989,
      "algunos": 990,
      "cido": 991,
      "poder": 992,
      "nuestro": 993,
      "hace": 994,
      "cir": 995,
      "madre": 996,
      "Hol": 997,
      "dera": 998,
      "ciendo": 999,
      "feli": 1000,
      "ías": 1001,
      "tenido": 1002,
      "lady": 1003,
      "decía": 1004,
      "estó": 1005,
      "ai": 1006,
      "nombre": 1007,
      "Har": 1008,
      "princi": 1009,
      "vista": 1010,
      "Hab": 1011,
      "com": 1012,
      "mado": 1013,
      "ís": 1014,
      "super": 1015,
      "situ": 1016,
      "comple": 1017,
      "propi": 1018,
      "elig": 1019,
      "habitación": 1020,
      "bir": 1021,
      "pó": 1022,
      "impor": 1023,
      "In": 1024,
      "arro": 1025,
      "tando": 1026,
      "caballero": 1027,
      "soy": 1028,
      "éndose": 1029,
      "ñas": 1030,
      "gún": 1031,
      "orden": 1032,
      "Holmes": 1033,
      "lá": 1034,
      "ur": 1035,
      "enten": 1036,
      "pal": 1037,
      "tis": 1038,
      "tranqui": 1039,
      "quiera": 1040,
      "palabra": 1041,
      "Cuando": 1042,
      "cons": 1043,
      "pies": 1044,
      "nosotros": 1045,
      "Pues": 1046,
      "san": 1047,
      "otras": 1048,
      "abri": 1049,
      "acab": 1050,
      "pronto": 1051,
      "tien": 1052,
      "tido": 1053,
      "ias": 1054,
      "plan": 1055,
      "aña": 1056,
      "An": 1057,
      "hermos": 1058,
      "conven": 1059,
      "cura": 1060,
      "profun": 1061,
      "nadie": 1062,
      "expli": 1063,
      "Este": 1064,
      "mío": 1065,
      "nuestra": 1066,
      "llevar": 1067,
      "pasar": 1068,
      "ninguna": 1069,
      "Re": 1070,
      "blan": 1071,
      "volvió": 1072,
      "confi": 1073,
      "sabía": 1074,
      "cinco": 1075,
      "suelo": 1076,
      "tiva": 1077,
      "imag": 1078,
      "produ": 1079,
      "siguiente": 1080,
      "ónde": 1081,
      "Ha": 1082,
      "estre": 1083,
      "gió": 1084,
      "ños": 1085,
      "demas": 1086,
      "tarde": 1087,
      "penas": 1088,
      "primer": 1089,
      "ag": 1090,
      "movi": 1091,
      "ayu": 1092,
      "llo": 1093,
      "nu": 1094,
      "inor": 1095,
      "efecto": 1096,
      "Elinor": 1097,
      "olvi": 1098,
      "vie": 1099,
      "mía": 1100,
      "int": 1101,
      "Un": 1102,
      "puedo": 1103,
      "rey": 1104,
      "zá": 1105,
      "sería": 1106,
      "lon": 1107,
      "llen": 1108,
      "gua": 1109,
      "resul": 1110,
      "Así": 1111,
      "sonri": 1112,
      "espa": 1113,
      "Una": 1114,
      "ena": 1115,
      "comi": 1116,
      "Di": 1117,
      "»,": 1118,
      "tención": 1119,
      "present": 1120,
      "tía": 1121,
      "cel": 1122,
      "pá": 1123,
      "xi": 1124,
      "tancia": 1125,
      "dé": 1126,
      "cep": 1127,
      "bos": 1128,
      "caus": 1129,
      "expres": 1130,
      "aquellos": 1131,
      "ea": 1132,
      "cierto": 1133,
      "abi": 1134,
      "iado": 1135,
      "senti": 1136,
      "Milady": 1137,
      "aire": 1138,
      "mesa": 1139,
      "según": 1140,
      "quería": 1141,
      "podría": 1142,
      "maba": 1143,
      "recor": 1144,
      "silen": 1145,
      "amo": 1146,
      "Nau": 1147,
      "Có": 1148,
      "ctor": 1149,
      "ori": 1150,
      "primera": 1151,
      "cidad": 1152,
      "somb": 1153,
      "ados": 1154,
      "bert": 1155,
      "Enton": 1156,
      "anim": 1157,
      "Entonces": 1158,
      "Bu": 1159,
      "ien": 1160,
      "ian": 1161,
      "jus": 1162,
      "solo": 1163,
      "tú": 1164,
      "dida": 1165,
      "servi": 1166,
      "pun": 1167,
      "alma": 1168,
      "Harbert": 1169,
      "evi": 1170,
      "pel": 1171,
      "ído": 1172,
      "his": 1173,
      "verda": 1174,
      "gio": 1175,
      "Cómo": 1176,
      "mostr": 1177,
      "má": 1178,
      "br": 1179,
      "ck": 1180,
      "unas": 1181,
      "tivo": 1182,
      "eno": 1183,
      "lin": 1184,
      "–,": 1185,
      "ocur": 1186,
      "pensar": 1187,
      "tilus": 1188,
      "Nautilus": 1189,
      "rela": 1190,
      "og": 1191,
      "carta": 1192,
      "minu": 1193,
      "jó": 1194,
      "zaba": 1195,
      "zado": 1196,
      "horas": 1197,
      "ridad": 1198,
      "hermano": 1199,
      "Las": 1200,
      "sola": 1201,
      "parecer": 1202,
      "apar": 1203,
      "contestó": 1204,
      "oy": 1205,
      "encontrar": 1206,
      "Par": 1207,
      "gada": 1208,
      "sentía": 1209,
      "mili": 1210,
      "cru": 1211,
      "tada": 1212,
      "pecto": 1213,
      "temp": 1214,
      "entrar": 1215,
      "luz": 1216,
      "ló": 1217,
      "dere": 1218,
      "junto": 1219,
      "puesta": 1220,
      "sación": 1221,
      "tomar": 1222,
      "ingeni": 1223,
      "Ca": 1224,
      "taban": 1225,
      "demasiado": 1226,
      "tuvi": 1227,
      "Ser": 1228,
      "grandes": 1229,
      "enci": 1230,
      "fo": 1231,
      "todavía": 1232,
      "encan": 1233,
      "quién": 1234,
      "persona": 1235,
      "atra": 1236,
      "razón": 1237,
      "estoy": 1238,
      "dable": 1239,
      "permi": 1240,
      "algunas": 1241,
      "ér": 1242,
      "sig": 1243,
      "Ahora": 1244,
      "conse": 1245,
      "creo": 1246,
      "ingeniero": 1247,
      "aria": 1248,
      "vein": 1249,
      "cog": 1250,
      "raba": 1251,
      "quedar": 1252,
      "tados": 1253,
      "costu": 1254,
      "mirada": 1255,
      "salir": 1256,
      "hermana": 1257,
      "esos": 1258,
      "Fog": 1259,
      "empe": 1260,
      "––.": 1261,
      "colon": 1262,
      "ud": 1263,
      "pudo": 1264,
      "histor": 1265,
      "ala": 1266,
      "gaba": 1267,
      "seguir": 1268,
      "Fogg": 1269,
      "esca": 1270,
      "mpli": 1271,
      "bastante": 1272,
      "suce": 1273,
      "habi": 1274,
      "exis": 1275,
      "pasado": 1276,
      "caballo": 1277,
      "asi": 1278,
      "sabe": 1279,
      "favor": 1280,
      "ningún": 1281,
      "cielo": 1282,
      "bamos": 1283,
      "fir": 1284,
      "ester": 1285,
      "ali": 1286,
      "segun": 1287,
      "fle": 1288,
      "muerte": 1289,
      "fues": 1290,
      "oro": 1291,
      "repuso": 1292,
      "grande": 1293,
      "tí": 1294,
      "úni": 1295,
      "pul": 1296,
      "Marian": 1297,
      "fri": 1298,
      "Marianne": 1299,
      "cación": 1300,
      "perman": 1301,
      "illo": 1302,
      "diez": 1303,
      "fra": 1304,
      "sie": 1305,
      "satis": 1306,
      "unci": 1307,
      "tación": 1308,
      "tend": 1309,
      "paso": 1310,
      "ste": 1311,
      "buscar": 1312,
      "imposi": 1313,
      "rible": 1314,
      "Porthos": 1315,
      "abandon": 1316,
      "dire": 1317,
      "gol": 1318,
      "oh": 1319,
      "fort": 1320,
      "obs": 1321,
      "famili": 1322,
      "lando": 1323,
      "amigos": 1324,
      "trans": 1325,
      "Ay": 1326,
      "alcan": 1327,
      "migo": 1328,
      "quisi": 1329,
      "situación": 1330,
      "será": 1331,
      "ed": 1332,
      "dec": 1333,
      "Oh": 1334,
      "fran": 1335,
      "mentos": 1336,
      "seis": 1337,
      "Esto": 1338,
      "Ten": 1339,
      "encu": 1340,
      "Ah": 1341,
      "pelig": 1342,
      "ería": 1343,
      "carden": 1344,
      "tales": 1345,
      "capa": 1346,
      "podido": 1347,
      "pesar": 1348,
      "marido": 1349,
      "silencio": 1350,
      "muchas": 1351,
      "ern": 1352,
      "alidad": 1353,
      "dije": 1354,
      "porte": 1355,
      "cé": 1356,
      "esas": 1357,
      "pan": 1358,
      "fá": 1359,
      "espos": 1360,
      "pobre": 1361,
      "cardenal": 1362,
      "profes": 1363,
      "jes": 1364,
      "dando": 1365,
      "igu": 1366,
      "semej": 1367,
      "hici": 1368,
      "ables": 1369,
      "instante": 1370,
      "dice": 1371,
      "Señ": 1372,
      "acu": 1373,
      "ror": 1374,
      "quiero": 1375,
      "fuerza": 1376,
      "adi": 1377,
      "prob": 1378,
      "hijo": 1379,
      "ví": 1380,
      "bido": 1381,
      "lig": 1382,
      "gusto": 1383,
      "Ara": 1384,
      "eras": 1385,
      "éste": 1386,
      "Nemo": 1387,
      "et": 1388,
      "culo": 1389,
      "gal": 1390,
      "vino": 1391,
      "cris": 1392,
      "inmedia": 1393,
      "primero": 1394,
      "cuerpo": 1395,
      "viaje": 1396,
      "Po": 1397,
      "repli": 1398,
      "compañeros": 1399,
      "desgra": 1400,
      "bles": 1401,
      "quin": 1402,
      "rápi": 1403,
      "cuya": 1404,
      "ventura": 1405,
      "historia": 1406,
      "trabajo": 1407,
      "bol": 1408,
      "cabo": 1409,
      "yos": 1410,
      "ville": 1411,
      "mur": 1412,
      "debe": 1413,
      "jand": 1414,
      "Alejand": 1415,
      "colonos": 1416,
      "fí": 1417,
      "muchos": 1418,
      "bió": 1419,
      "querido": 1420,
      "asunto": 1421,
      "recu": 1422,
      "tica": 1423,
      "marino": 1424,
      "Aramis": 1425,
      "tío": 1426,
      "cerca": 1427,
      "gente": 1428,
      "envi": 1429,
      "tico": 1430,
      "raz": 1431,
      "fon": 1432,
      "mirar": 1433,
      "exper": 1434,
      "veía": 1435,
      "idea": 1436,
      "oído": 1437,
      "Alejandro": 1438,
      "ge": 1439,
      "anti": 1440,
      "conocer": 1441,
      "imposible": 1442,
      "gue": 1443,
      "digo": 1444,
      "ándole": 1445,
      "segui": 1446,
      "sir": 1447,
      "llegado": 1448,
      "cuerdo": 1449,
      "dan": 1450,
      "difi": 1451,
      "ciencia": 1452,
      "chi": 1453,
      "haya": 1454,
      "equi": 1455,
      "largo": 1456,
      "quiere": 1457,
      "apenas": 1458,
      "comer": 1459,
      "ech": 1460,
      "rían": 1461,
      "condu": 1462,
      "conversación": 1463,
      "invi": 1464,
      "Señor": 1465,
      "avi": 1466,
      "tio": 1467,
      "tenían": 1468,
      "bur": 1469,
      "osos": 1470,
      "acompañ": 1471,
      "río": 1472,
      "trás": 1473,
      "apro": 1474,
      "neg": 1475,
      "ciu": 1476,
      "aquellas": 1477,
      "hubiese": 1478,
      "fuerte": 1479,
      "consider": 1480,
      "fuego": 1481,
      "Du": 1482,
      "jun": 1483,
      "ard": 1484,
      "obli": 1485,
      "conf": 1486,
      "pensaba": 1487,
      "fuese": 1488,
      "pera": 1489,
      "dres": 1490,
      "llos": 1491,
      "quizá": 1492,
      "II": 1493,
      "costa": 1494,
      "fueron": 1495,
      "volun": 1496,
      "dieron": 1497,
      "llegó": 1498,
      "conocido": 1499,
      "añadió": 1500,
      "opin": 1501,
      "áis": 1502,
      "estuvi": 1503,
      "Nab": 1504,
      "comenzó": 1505,
      "fortuna": 1506,
      "Vi": 1507,
      "bro": 1508,
      "ír": 1509,
      "cuarto": 1510,
      "Va": 1511,
      "ífi": 1512,
      "entas": 1513,
      "dades": 1514,
      "mira": 1515,
      "hemos": 1516,
      "Spi": 1517,
      "pase": 1518,
      "Joh": 1519,
      "lett": 1520,
      "John": 1521,
      "están": 1522,
      "escal": 1523,
      "cara": 1524,
      "replicó": 1525,
      "vna": 1526,
      "enga": 1527,
      "dónde": 1528,
      "tantes": 1529,
      "venir": 1530,
      "ocho": 1531,
      "quedó": 1532,
      "deseo": 1533,
      "regres": 1534,
      "Spilett": 1535,
      "Ma": 1536,
      "pasos": 1537,
      "millas": 1538,
      "Como": 1539,
      "pudiera": 1540,
      "Aque": 1541,
      "oír": 1542,
      "granito": 1543,
      "pasa": 1544,
      "descubri": 1545,
      "coche": 1546,
      "luso": 1547,
      "Todo": 1548,
      "principi": 1549,
      "tencia": 1550,
      "extre": 1551,
      "Ali": 1552,
      "Ned": 1553,
      "vado": 1554,
      "minutos": 1555,
      "bios": 1556,
      "posición": 1557,
      "solu": 1558,
      "taron": 1559,
      "Conse": 1560,
      "nueva": 1561,
      "iente": 1562,
      "come": 1563,
      "terrible": 1564,
      "fan": 1565,
      "imagin": 1566,
      "vés": 1567,
      "mister": 1568,
      "sorpren": 1569,
      "rep": 1570,
      "miró": 1571,
      "oscu": 1572,
      "Cre": 1573,
      "amente": 1574,
      "cuales": 1575,
      "fácil": 1576,
      "aguas": 1577,
      "escuch": 1578,
      "figu": 1579,
      "sar": 1580,
      "esen": 1581,
      "pien": 1582,
      "preocu": 1583,
      "––¿": 1584,
      "vano": 1585,
      "az": 1586,
      "ata": 1587,
      "oll": 1588,
      "ciudad": 1589,
      "amar": 1590,
      "jado": 1591,
      "nea": 1592,
      "camb": 1593,
      "Arka": 1594,
      "Arkadie": 1595,
      "jamás": 1596,
      "Conseil": 1597,
      "omb": 1598,
      "ere": 1599,
      "lejos": 1600,
      "tarse": 1601,
      "Eso": 1602,
      "Ge": 1603,
      "laban": 1604,
      "dolor": 1605,
      "desper": 1606,
      "Ni": 1607,
      "esperar": 1608,
      "alto": 1609,
      "salió": 1610,
      "Para": 1611,
      "titu": 1612,
      "viento": 1613,
      "Esta": 1614,
      "distin": 1615,
      "Luego": 1616,
      "gre": 1617,
      "has": 1618,
      "ux": 1619,
      "terior": 1620,
      "ig": 1621,
      "cui": 1622,
      "caza": 1623,
      "am": 1624,
      "secre": 1625,
      "cambi": 1626,
      "hier": 1627,
      "iment": 1628,
      "nuestros": 1629,
      "Había": 1630,
      "encima": 1631,
      "llas": 1632,
      "delante": 1633,
      "sur": 1634,
      "inces": 1635,
      "boca": 1636,
      "Alicia": 1637,
      "atención": 1638,
      "zco": 1639,
      "eral": 1640,
      "sub": 1641,
      "sue": 1642,
      "vuestro": 1643,
      "ple": 1644,
      "tulo": 1645,
      "ecía": 1646,
      "interes": 1647,
      "Después": 1648,
      "Can": 1649,
      "bon": 1650,
      "causa": 1651,
      "Fran": 1652,
      "He": 1653,
      "ál": 1654,
      "ruido": 1655,
      "especi": 1656,
      "yas": 1657,
      "aren": 1658,
      "Roch": 1659,
      "familia": 1660,
      "Pica": 1661,
      "prome": 1662,
      "cun": 1663,
      "erno": 1664,
      "sas": 1665,
      "perder": 1666,
      "impres": 1667,
      "asegu": 1668,
      "brazos": 1669,
      "Picaporte": 1670,
      "Que": 1671,
      "oo": 1672,
      "color": 1673,
      "Bien": 1674,
      "obje": 1675,
      "enfer": 1676,
      "simp": 1677,
      "hallaba": 1678,
      "ólo": 1679,
      "estra": 1680,
      "dejó": 1681,
      "incluso": 1682,
      "clu": 1683,
      "idos": 1684,
      "cuyo": 1685,
      "dura": 1686,
      "allá": 1687,
      "condi": 1688,
      "sonrisa": 1689,
      "sitio": 1690,
      "hija": 1691,
      "tel": 1692,
      "aspecto": 1693,
      "cien": 1694,
      "refle": 1695,
      "quie": 1696,
      "ordin": 1697,
      "apo": 1698,
      "ine": 1699,
      "último": 1700,
      "cían": 1701,
      "ques": 1702,
      "suerte": 1703,
      "iste": 1704,
      "rer": 1705,
      "través": 1706,
      "llevaba": 1707,
      "éndole": 1708,
      "fondo": 1709,
      "cando": 1710,
      "parar": 1711,
      "corre": 1712,
      "alguno": 1713,
      "Mu": 1714,
      "pí": 1715,
      "arri": 1716,
      "emple": 1717,
      "esperaba": 1718,
      "tienen": 1719,
      "cuán": 1720,
      "seguida": 1721,
      "olly": 1722,
      "Dolly": 1723,
      "ah": 1724,
      "vuelta": 1725,
      "Mr": 1726,
      "encar": 1727,
      "seguro": 1728,
      "cios": 1729,
      "hallar": 1730,
      "Alex": 1731,
      "Esteban": 1732,
      "bosque": 1733,
      "rí": 1734,
      "ley": 1735,
      "creer": 1736,
      "mirando": 1737,
      "última": 1738,
      "ertos": 1739,
      "frente": 1740,
      "especie": 1741,
      "blo": 1742,
      "salva": 1743,
      "expresión": 1744,
      "cualquier": 1745,
      "pequeña": 1746,
      "llan": 1747,
      "ventana": 1748,
      "veinte": 1749,
      "Arkadievich": 1750,
      "due": 1751,
      "ey": 1752,
      "pude": 1753,
      "duque": 1754,
      "Mis": 1755,
      "mosque": 1756,
      "bes": 1757,
      "habéis": 1758,
      "tanta": 1759,
      "irse": 1760,
      "Mas": 1761,
      "titud": 1762,
      "papel": 1763,
      "coron": 1764,
      "feliz": 1765,
      "signi": 1766,
      "Lu": 1767,
      "comun": 1768,
      "ece": 1769,
      "caballeros": 1770,
      "levantó": 1771,
      "dora": 1772,
      "tario": 1773,
      "tero": 1774,
      "enor": 1775,
      "boles": 1776,
      "Sergio": 1777,
      "fen": 1778,
      "presencia": 1779,
      "falta": 1780,
      "además": 1781,
      "dirig": 1782,
      "continuó": 1783,
      "Car": 1784,
      "áni": 1785,
      "pensamientos": 1786,
      "natural": 1787,
      "completamente": 1788,
      "labios": 1789,
      "voy": 1790,
      "ie": 1791,
      "eres": 1792,
      "arme": 1793,
      "mol": 1794,
      "dejado": 1795,
      "dinero": 1796,
      "ood": 1797,
      "lada": 1798,
      "vivir": 1799,
      "árboles": 1800,
      "circun": 1801,
      "cti": 1802,
      "gor": 1803,
      "mada": 1804,
      "señorita": 1805,
      "desgracia": 1806,
      "opinión": 1807,
      "sufri": 1808,
      "cular": 1809,
      "barco": 1810,
      "alegría": 1811,
      "golpe": 1812,
      "diendo": 1813,
      "camente": 1814,
      "pequeño": 1815,
      "muerto": 1816,
      "señores": 1817,
      "año": 1818,
      "ecer": 1819,
      "ésta": 1820,
      "Sólo": 1821,
      "entra": 1822,
      "hoy": 1823,
      "hubo": 1824,
      "profesor": 1825,
      "Tré": 1826,
      "ign": 1827,
      "lación": 1828,
      "elle": 1829,
      "Rochester": 1830,
      "Alexey": 1831,
      "venido": 1832,
      "Candido": 1833,
      "adas": 1834,
      "venta": 1835,
      "entró": 1836,
      "exa": 1837,
      "ficie": 1838,
      "superficie": 1839,
      "dul": 1840,
      "ventu": 1841,
      "jaba": 1842,
      "march": 1843,
      "segura": 1844,
      "principio": 1845,
      "diciendo": 1846,
      "difí": 1847,
      "partes": 1848,
      "rido": 1849,
      "gracias": 1850,
      ".»": 1851,
      "Karen": 1852,
      "wood": 1853,
      "siquiera": 1854,
      "comprender": 1855,
      "Bona": 1856,
      "ertas": 1857,
      "conmigo": 1858,
      "sil": 1859,
      "guió": 1860,
      "parecido": 1861,
      "cieux": 1862,
      "adelante": 1863,
      "ofre": 1864,
      "bli": 1865,
      "nar": 1866,
      "zada": 1867,
      "estad": 1868,
      "pósi": 1869,
      "ticia": 1870,
      "vivi": 1871,
      "compro": 1872,
      "interior": 1873,
      "ocul": 1874,
      "podían": 1875,
      "observ": 1876,
      "Bonacieux": 1877,
      "ocas": 1878,
      "sufici": 1879,
      "cuad": 1880,
      "pasó": 1881,
      "contrario": 1882,
      "brazo": 1883,
      "mando": 1884,
      "Gede": 1885,
      "incesa": 1886,
      "ocasión": 1887,
      "table": 1888,
      "inf": 1889,
      "Pr": 1890,
      "dentro": 1891,
      "colo": 1892,
      "cau": 1893,
      "Gedeón": 1894,
      "Pala": 1895,
      "signifi": 1896,
      "amb": 1897,
      "gent": 1898,
      "cumpli": 1899,
      "sis": 1900,
      "perfec": 1901,
      "ponía": 1902,
      "siguió": 1903,
      "atre": 1904,
      "viejo": 1905,
      "inos": 1906,
      "diver": 1907,
      "cubi": 1908,
      "ej": 1909,
      "alta": 1910,
      "aleza": 1911,
      "exten": 1912,
      "marcha": 1913,
      "pecho": 1914,
      "agi": 1915,
      "ward": 1916,
      "dez": 1917,
      "donc": 1918,
      "prosi": 1919,
      "cena": 1920,
      "Ed": 1921,
      "ác": 1922,
      "reti": 1923,
      "tono": 1924,
      "armas": 1925,
      "alo": 1926,
      "pira": 1927,
      "precipi": 1928,
      "Durante": 1929,
      "stan": 1930,
      "tomó": 1931,
      "hacerlo": 1932,
      "Palacio": 1933,
      "gru": 1934,
      "tón": 1935,
      "curi": 1936,
      "sentido": 1937,
      "satisfa": 1938,
      "Tréville": 1939,
      "Lle": 1940,
      "cto": 1941,
      "sto": 1942,
      "ane": 1943,
      "contar": 1944,
      "gober": 1945,
      "vestido": 1946,
      "Per": 1947,
      "So": 1948,
      "yec": 1949,
      "veo": 1950,
      "ador": 1951,
      "dencia": 1952,
      "ler": 1953,
      "Está": 1954,
      "encontraba": 1955,
      "lágri": 1956,
      "esposa": 1957,
      "''": 1958,
      "daban": 1959,
      "difer": 1960,
      "pítulo": 1961,
      "reco": 1962,
      "rode": 1963,
      "rede": 1964,
      "reina": 1965,
      "mani": 1966,
      "rump": 1967,
      "preciso": 1968,
      "caballos": 1969,
      "Ob": 1970,
      "XX": 1971,
      "libre": 1972,
      "señal": 1973,
      "vuelto": 1974,
      "sentimiento": 1975,
      "absolu": 1976,
      "cierta": 1977,
      "caer": 1978,
      "bilidad": 1979,
      "quiso": 1980,
      "esperanza": 1981,
      "general": 1982,
      "Greg": 1983,
      "mero": 1984,
      "útil": 1985,
      "mpo": 1986,
      "rero": 1987,
      "inas": 1988,
      "inta": 1989,
      "viol": 1990,
      "siete": 1991,
      "Edward": 1992,
      "Lon": 1993,
      "ry": 1994,
      "sua": 1995,
      "sintió": 1996,
      "Ivano": 1997,
      "cent": 1998,
      "vamos": 1999,
      "correspon": 2000,
      "adver": 2001,
      "instru": 2002,
      "mujeres": 2003,
      "costumb": 2004,
      "cuidado": 2005,
      "lina": 2006,
      "».": 2007,
      "venía": 2008,
      "difícil": 2009,
      "tera": 2010,
      "arreg": 2011,
      "ash": 2012,
      "mitad": 2013,
      "perdido": 2014,
      "calle": 2015,
      "dra": 2016,
      "pare": 2017,
      "ritu": 2018,
      "baja": 2019,
      "osamente": 2020,
      "viene": 2021,
      "mala": 2022,
      "poca": 2023,
      "menor": 2024,
      "pensó": 2025,
      "criado": 2026,
      "murmu": 2027,
      "coronel": 2028,
      "rton": 2029,
      "terra": 2030,
      "llamar": 2031,
      "aquello": 2032,
      "Ayrton": 2033,
      "Panza": 2034,
      "temor": 2035,
      "pusi": 2036,
      "sospe": 2037,
      "ayuda": 2038,
      "animal": 2039,
      "Alejandrovich": 2040,
      "metros": 2041,
      "seguía": 2042,
      "alegre": 2043,
      "sangre": 2044,
      "hermosa": 2045,
      "Sir": 2046,
      "velo": 2047,
      "esfuer": 2048,
      "pueblo": 2049,
      "liberta": 2050,
      "dirección": 2051,
      "triste": 2052,
      "Fi": 2053,
      "peligro": 2054,
      "perdon": 2055,
      "clara": 2056,
      "interés": 2057,
      "nuestras": 2058,
      "miraba": 2059,
      "honor": 2060,
      "examin": 2061,
      "lágrimas": 2062,
      "Ta": 2063,
      "ablemente": 2064,
      "bueno": 2065,
      "inquie": 2066,
      "lumin": 2067,
      "personas": 2068,
      "suficiente": 2069,
      "mpoco": 2070,
      "em": 2071,
      "tigo": 2072,
      "voluntad": 2073,
      "ici": 2074,
      "demos": 2075,
      "log": 2076,
      "salón": 2077,
      "capaz": 2078,
      "rán": 2079,
      "distancia": 2080,
      "interrump": 2081,
      "Dash": 2082,
      "Te": 2083,
      "inten": 2084,
      "gados": 2085,
      "libras": 2086,
      "dirigió": 2087,
      "orilla": 2088,
      "verdadera": 2089,
      "Dashwood": 2090,
      "fun": 2091,
      "haciendo": 2092,
      "ficio": 2093,
      "naturaleza": 2094,
      "campo": 2095,
      "Karenin": 2096,
      "ama": 2097,
      "diab": 2098,
      "desta": 2099,
      "pueda": 2100,
      "evidente": 2101,
      "abrió": 2102,
      "trataba": 2103,
      "conocía": 2104,
      "necesi": 2105,
      "dificul": 2106,
      "libertad": 2107,
      "suces": 2108,
      "guas": 2109,
      "pueden": 2110,
      "Land": 2111,
      "aría": 2112,
      "orte": 2113,
      "doctor": 2114,
      "vapor": 2115,
      "cciones": 2116,
      "esco": 2117,
      "osas": 2118,
      "domin": 2119,
      "discre": 2120,
      "encontró": 2121,
      "encontrado": 2122,
      "cientos": 2123,
      "suyo": 2124,
      "monta": 2125,
      "placer": 2126,
      "experiment": 2127,
      "Además": 2128,
      "repi": 2129,
      "contemp": 2130,
      "silla": 2131,
      "hablaba": 2132,
      "samente": 2133,
      "meses": 2134,
      "tillo": 2135,
      "dirigi": 2136,
      "dig": 2137,
      "dico": 2138,
      "presa": 2139,
      "Capítulo": 2140,
      "Ex": 2141,
      "Fel": 2142,
      "jero": 2143,
      "anas": 2144,
      "alrede": 2145,
      "miser": 2146,
      "trata": 2147,
      "sala": 2148,
      "Londres": 2149,
      "aus": 2150,
      "usi": 2151,
      "leas": 2152,
      "rocas": 2153,
      "entender": 2154,
      "Felton": 2155,
      "respe": 2156,
      "maravi": 2157,
      "sacar": 2158,
      "Entre": 2159,
      "bordo": 2160,
      "detal": 2161,
      "orio": 2162,
      "uni": 2163,
      "Estaba": 2164,
      "apre": 2165,
      "anos": 2166,
      "cuesti": 2167,
      "ham": 2168,
      "frecu": 2169,
      "iban": 2170,
      "zando": 2171,
      "separ": 2172,
      "conclu": 2173,
      "necesario": 2174,
      "constru": 2175,
      "igual": 2176,
      "avan": 2177,
      "parecían": 2178,
      "sueño": 2179,
      "manas": 2180,
      "torio": 2181,
      "Quién": 2182,
      "observa": 2183,
      "excel": 2184,
      "pedir": 2185,
      "tándose": 2186,
      "agradable": 2187,
      "razones": 2188,
      "equivo": 2189,
      "cambio": 2190,
      "viendo": 2191,
      "lido": 2192,
      "ista": 2193,
      "segundo": 2194,
      "gla": 2195,
      "ingun": 2196,
      "sali": 2197,
      "Hay": 2198,
      "cama": 2199,
      "Phi": 2200,
      "niño": 2201,
      "larga": 2202,
      "grave": 2203,
      "acercó": 2204,
      "único": 2205,
      "Gregorio": 2206,
      "Jane": 2207,
      "Sus": 2208,
      "sel": 2209,
      "quesa": 2210,
      "arios": 2211,
      "dientes": 2212,
      "memor": 2213,
      "pasaba": 2214,
      "oyó": 2215,
      "antos": 2216,
      "tus": 2217,
      "proyec": 2218,
      "necesidad": 2219,
      "valor": 2220,
      "sentimientos": 2221,
      "escalera": 2222,
      "buque": 2223,
      "sentir": 2224,
      "costumbre": 2225,
      "lados": 2226,
      "resis": 2227,
      "prue": 2228,
      "cano": 2229,
      "claro": 2230,
      "desemb": 2231,
      "culos": 2232,
      "ramos": 2233,
      "entamente": 2234,
      "Dul": 2235,
      "Pe": 2236,
      "hall": 2237,
      "llor": 2238,
      "nie": 2239,
      "Desde": 2240,
      "intent": 2241,
      "semejante": 2242,
      "Phileas": 2243,
      "eas": 2244,
      "estr": 2245,
      "exp": 2246,
      "niña": 2247,
      "land": 2248,
      "tino": 2249,
      "treinta": 2250,
      "Dulci": 2251,
      "acep": 2252,
      "ral": 2253,
      "temer": 2254,
      "perten": 2255,
      "zaron": 2256,
      "yendo": 2257,
      "pena": 2258,
      "ofreci": 2259,
      "fría": 2260,
      "pado": 2261,
      "tivos": 2262,
      "respuesta": 2263,
      "guien": 2264,
      "contento": 2265,
      "libros": 2266,
      "extraño": 2267,
      "viva": 2268,
      "fuerzas": 2269,
      "corriente": 2270,
      "prosiguió": 2271,
      "Dulcinea": 2272,
      "Bar": 2273,
      "aver": 2274,
      "cí": 2275,
      "remos": 2276,
      "sion": 2277,
      "gamos": 2278,
      "bres": 2279,
      "gr": 2280,
      "diente": 2281,
      "didos": 2282,
      "sul": 2283,
      "mie": 2284,
      "jui": 2285,
      "Bueno": 2286,
      "inguno": 2287,
      "Gri": 2288,
      "ofici": 2289,
      "turas": 2290,
      "darle": 2291,
      "movimiento": 2292,
      "goberna": 2293,
      "conser": 2294,
      "dados": 2295,
      "cristi": 2296,
      "inmediatamente": 2297,
      "enorme": 2298,
      "siones": 2299,
      "autor": 2300,
      "libro": 2301,
      "animales": 2302,
      "emo": 2303,
      "asomb": 2304,
      "desesper": 2305,
      "ífico": 2306,
      "Oblon": 2307,
      "by": 2308,
      "dón": 2309,
      "mante": 2310,
      "propie": 2311,
      "propósi": 2312,
      "propia": 2313,
      "Oblonsky": 2314,
      "ben": 2315,
      "íritu": 2316,
      "tadas": 2317,
      "tantas": 2318,
      "illas": 2319,
      "espíritu": 2320,
      "frío": 2321,
      "apa": 2322,
      "ropa": 2323,
      "pocas": 2324,
      "lanche": 2325,
      "extraordin": 2326,
      "inclin": 2327,
      "tranquila": 2328,
      "atraves": 2329,
      "Sab": 2330,
      "Ti": 2331,
      "Vues": 2332,
      "lera": 2333,
      "temb": 2334,
      "sopor": 2335,
      "tuve": 2336,
      "taría": 2337,
      "niños": 2338,
      "pene": 2339,
      "pensamiento": 2340,
      "espada": 2341,
      "udo": 2342,
      "xo": 2343,
      "ñado": 2344,
      "ani": 2345,
      "alu": 2346,
      "compañía": 2347,
      "pesa": 2348,
      "uelo": 2349,
      "desi": 2350,
      "doce": 2351,
      "intención": 2352,
      "esté": 2353,
      "curso": 2354,
      "coger": 2355,
      "idades": 2356,
      "ándome": 2357,
      "gü": 2358,
      "detuvo": 2359,
      "arras": 2360,
      "seguido": 2361,
      "bal": 2362,
      "llama": 2363,
      "jeros": 2364,
      "Mientras": 2365,
      "terminado": 2366,
      "Fix": 2367,
      "Nada": 2368,
      "dij": 2369,
      "cados": 2370,
      "lio": 2371,
      "superior": 2372,
      "tivamente": 2373,
      "rápidamente": 2374,
      "ánimo": 2375,
      "miedo": 2376,
      "aventu": 2377,
      "edad": 2378,
      "uti": 2379,
      "alguien": 2380,
      "abajo": 2381,
      "darse": 2382,
      "Li": 2383,
      "hos": 2384,
      "simo": 2385,
      "ínci": 2386,
      "abrir": 2387,
      "derecho": 2388,
      "ahí": 2389,
      "Aquí": 2390,
      "gh": 2391,
      "ábamos": 2392,
      "peor": 2393,
      "rarse": 2394,
      "espal": 2395,
      "Ingla": 2396,
      "obstante": 2397,
      "ignor": 2398,
      "Han": 2399,
      "flor": 2400,
      "queda": 2401,
      "grado": 2402,
      "Porque": 2403,
      "servicio": 2404,
      "Inglaterra": 2405,
      "-;": 2406,
      "Gra": 2407,
      "ape": 2408,
      "cán": 2409,
      "figura": 2410,
      "gando": 2411,
      "altura": 2412,
      "carse": 2413,
      "propio": 2414,
      "cy": 2415,
      "encen": 2416,
      "defen": 2417,
      "rados": 2418,
      "descen": 2419,
      "fiel": 2420,
      "permaneci": 2421,
      "alrededor": 2422,
      "tenemos": 2423,
      "vela": 2424,
      "escudero": 2425,
      "reflexi": 2426,
      "soli": 2427,
      "teros": 2428,
      "comida": 2429,
      "Sa": 2430,
      "detrás": 2431,
      "arlo": 2432,
      "reun": 2433,
      "tual": 2434,
      "morir": 2435,
      "reno": 2436,
      "deseaba": 2437,
      "doncella": 2438,
      "Pro": 2439,
      "cú": 2440,
      "arle": 2441,
      "habrá": 2442,
      "hijos": 2443,
      "suya": 2444,
      "servir": 2445,
      "preguntar": 2446,
      "impe": 2447,
      "cincuenta": 2448,
      "escuchar": 2449,
      "felicidad": 2450,
      "juicio": 2451,
      "Lin": 2452,
      "estación": 2453,
      "juz": 2454,
      "cera": 2455,
      "ciente": 2456,
      "mido": 2457,
      "milla": 2458,
      "tem": 2459,
      "sima": 2460,
      "responder": 2461,
      "debían": 2462,
      "amen": 2463,
      "cá": 2464,
      "leer": 2465,
      "mez": 2466,
      "siendo": 2467,
      "magn": 2468,
      "pró": 2469,
      "obra": 2470,
      "estudi": 2471,
      "ofen": 2472,
      "peligros": 2473,
      "acuerdo": 2474,
      "pú": 2475,
      "ugh": 2476,
      "estro": 2477,
      "regi": 2478,
      "deste": 2479,
      "gué": 2480,
      "prisa": 2481,
      "pregunta": 2482,
      "extremo": 2483,
      "Mos": 2484,
      "Ri": 2485,
      "ninguno": 2486,
      "inmen": 2487,
      "creía": 2488,
      "playa": 2489,
      "acababa": 2490,
      "Ju": 2491,
      "tampoco": 2492,
      "tiendo": 2493,
      "correr": 2494,
      "hice": 2495,
      "deseos": 2496,
      "Man": 2497,
      "abun": 2498,
      "semb": 2499,
      "lengua": 2500,
      "Creo": 2501,
      "Ivanovich": 2502,
      "Jen": 2503,
      "paba": 2504,
      "arma": 2505,
      "presu": 2506,
      "extraña": 2507,
      "memoria": 2508,
      "gobernador": 2509,
      "af": 2510,
      "acostumb": 2511,
      "ez": 2512,
      "fras": 2513,
      "«¡": 2514,
      "debo": 2515,
      "tidad": 2516,
      "perio": 2517,
      "estable": 2518,
      "respecto": 2519,
      "carác": 2520,
      "prepar": 2521,
      "dormir": 2522,
      "formar": 2523,
      "nings": 2524,
      "Jennings": 2525,
      "ór": 2526,
      "refer": 2527,
      "coln": 2528,
      "encuentro": 2529,
      "ejemp": 2530,
      "cuestión": 2531,
      "carácter": 2532,
      "afir": 2533,
      "lón": 2534,
      "reli": 2535,
      "ense": 2536,
      "lago": 2537,
      "anterior": 2538,
      "exac": 2539,
      "meri": 2540,
      "observar": 2541,
      "Aun": 2542,
      "Nos": 2543,
      "iencia": 2544,
      "»––": 2545,
      "ció": 2546,
      "admi": 2547,
      "cta": 2548,
      "nú": 2549,
      "decirle": 2550,
      "halla": 2551,
      "partida": 2552,
      "izon": 2553,
      "manif": 2554,
      "debajo": 2555,
      "rico": 2556,
      "rica": 2557,
      "discu": 2558,
      "fati": 2559,
      "mesmo": 2560,
      "horizon": 2561,
      "partir": 2562,
      "completo": 2563,
      "Lincoln": 2564,
      "Willo": 2565,
      "gon": 2566,
      "maban": 2567,
      "ará": 2568,
      "reír": 2569,
      "sombrero": 2570,
      "ughby": 2571,
      "Ad": 2572,
      "Gran": 2573,
      "tren": 2574,
      "mba": 2575,
      "tara": 2576,
      "seña": 2577,
      "estamos": 2578,
      "ocupa": 2579,
      "desagra": 2580,
      "particular": 2581,
      "segunda": 2582,
      "Willoughby": 2583,
      "Cla": 2584,
      "acor": 2585,
      "gante": 2586,
      "limp": 2587,
      "trato": 2588,
      "pongo": 2589,
      "ustedes": 2590,
      "adivin": 2591,
      "secreto": 2592,
      "Lucy": 2593,
      "—¡": 2594,
      "quedaba": 2595,
      "dicen": 2596,
      "dixo": 2597,
      "camar": 2598,
      "izquier": 2599,
      "Vamos": 2600,
      "propósito": 2601,
      "rando": 2602,
      "carne": 2603,
      "pose": 2604,
      "forme": 2605,
      "simple": 2606,
      "apos": 2607,
      "fres": 2608,
      "ner": 2609,
      "real": 2610,
      "gobi": 2611,
      "hubieran": 2612,
      "verdadero": 2613,
      "Ja": 2614,
      "guía": 2615,
      "tenga": 2616,
      "caban": 2617,
      "ingles": 2618,
      "Allí": 2619,
      "gritó": 2620,
      "intelig": 2621,
      "alla": 2622,
      "dias": 2623,
      "dicha": 2624,
      "cuello": 2625,
      "nave": 2626,
      "vini": 2627,
      "hicieron": 2628,
      "mater": 2629,
      "Estoy": 2630,
      "impresión": 2631,
      "dían": 2632,
      "didad": 2633,
      "lobo": 2634,
      "sois": 2635,
      "lleva": 2636,
      "deros": 2637,
      "confes": 2638,
      "Mon": 2639,
      "ela": 2640,
      "xima": 2641,
      "chado": 2642,
      "proce": 2643,
      "salu": 2644,
      "Top": 2645,
      "tent": 2646,
      "teza": 2647,
      "imon": 2648,
      "Todos": 2649,
      "estuvo": 2650,
      "tranquilo": 2651,
      "antigu": 2652,
      "juntos": 2653,
      "quina": 2654,
      "salud": 2655,
      "acaba": 2656,
      "nuevas": 2657,
      "sorpresa": 2658,
      "quisiera": 2659,
      "íncipe": 2660,
      "atrás": 2661,
      "dría": 2662,
      "cimiento": 2663,
      "pocos": 2664,
      "torno": 2665,
      "conozco": 2666,
      "llevó": 2667,
      "principal": 2668,
      "imagina": 2669,
      "sonriendo": 2670,
      "firme": 2671,
      "iones": 2672,
      "matar": 2673,
      "país": 2674,
      "duquesa": 2675,
      "cuarenta": 2676,
      "importancia": 2677,
      "velocidad": 2678,
      "cés": 2679,
      "debi": 2680,
      "arran": 2681,
      "dición": 2682,
      "desconocido": 2683,
      "poli": 2684,
      "breve": 2685,
      "darme": 2686,
      "buenos": 2687,
      "descubi": 2688,
      "semejantes": 2689,
      "hun": 2690,
      "suspi": 2691,
      "irri": 2692,
      "llegada": 2693,
      "!,": 2694,
      "acaso": 2695,
      "dante": 2696,
      "éron": 2697,
      "suel": 2698,
      "subir": 2699,
      "puse": 2700,
      "salido": 2701,
      "dista": 2702,
      "pregunté": 2703,
      "espacio": 2704,
      "hierro": 2705,
      "También": 2706,
      "jestad": 2707,
      "Él": 2708,
      "cida": 2709,
      "untos": 2710,
      "diese": 2711,
      "cogió": 2712,
      "culpa": 2713,
      "derecha": 2714,
      "ñka": 2715,
      "repe": 2716,
      "perro": 2717,
      "calor": 2718,
      "pronunci": 2719,
      "importante": 2720,
      "arriba": 2721,
      "Planche": 2722,
      "dici": 2723,
      "ches": 2724,
      "motivo": 2725,
      "descri": 2726,
      "jada": 2727,
      "existencia": 2728,
      "Tenía": 2729,
      "número": 2730,
      "Planchet": 2731,
      "ego": 2732,
      "reconoci": 2733,
      "reconocer": 2734,
      "vivo": 2735,
      "habla": 2736,
      "resto": 2737,
      "dejaba": 2738,
      "precisamente": 2739,
      "circunstan": 2740,
      "Mor": 2741,
      "tenta": 2742,
      "tier": 2743,
      "despa": 2744,
      "dín": 2745,
      "longi": 2746,
      "Na": 2747,
      "ses": 2748,
      "tiles": 2749,
      "tantos": 2750,
      "cere": 2751,
      "cortes": 2752,
      "céano": 2753,
      "negro": 2754,
      "Mer": 2755,
      "Ve": 2756,
      "ilumin": 2757,
      "«¿": 2758,
      "bil": 2759,
      "obe": 2760,
      "canadi": 2761,
      "confianza": 2762,
      "penetr": 2763,
      "longitud": 2764,
      "Hasta": 2765,
      "dri": 2766,
      "ion": 2767,
      "ou": 2768,
      "lares": 2769,
      "nomb": 2770,
      "gular": 2771,
      "voces": 2772,
      "clase": 2773,
      "varias": 2774,
      "querida": 2775,
      "tér": 2776,
      "ideas": 2777,
      "ambos": 2778,
      "circunstancias": 2779,
      "canadiense": 2780,
      "idas": 2781,
      "tab": 2782,
      "infer": 2783,
      "realidad": 2784,
      "nueve": 2785,
      "encanta": 2786,
      "satisfe": 2787,
      "condiciones": 2788,
      "echar": 2789,
      "gantes": 2790,
      "llu": 2791,
      "anci": 2792,
      "lote": 2793,
      "castillo": 2794,
      "cinante": 2795,
      "escrito": 2796,
      "lleno": 2797,
      "preocupa": 2798,
      "Hen": 2799,
      "mora": 2800,
      "anunci": 2801,
      "cina": 2802,
      "dama": 2803,
      "despi": 2804,
      "fui": 2805,
      "punta": 2806,
      "religi": 2807,
      "Fer": 2808,
      "Pas": 2809,
      "amis": 2810,
      "ger": 2811,
      "depen": 2812,
      "determin": 2813,
      "recuerdo": 2814,
      "diera": 2815,
      "caí": 2816,
      "visita": 2817,
      "pienso": 2818,
      "Ella": 2819,
      "afec": 2820,
      "gana": 2821,
      "cogi": 2822,
      "sole": 2823,
      "gación": 2824,
      "hechos": 2825,
      "varios": 2826,
      "compañero": 2827,
      "Vuestra": 2828,
      "momentos": 2829,
      "descan": 2830,
      "prote": 2831,
      "carr": 2832,
      "perfectamente": 2833,
      "esfuerzo": 2834,
      "ejer": 2835,
      "senta": 2836,
      "asus": 2837,
      "insis": 2838,
      "ticas": 2839,
      "habiendo": 2840,
      "despe": 2841,
      "llevado": 2842,
      "alcanzar": 2843,
      "oscuridad": 2844,
      "suave": 2845,
      "Tan": 2846,
      "encer": 2847,
      "laca": 2848,
      "rato": 2849,
      "venes": 2850,
      "inclina": 2851,
      "blanco": 2852,
      "evitar": 2853,
      "bolsi": 2854,
      "Pue": 2855,
      "bía": 2856,
      "pelo": 2857,
      "inútil": 2858,
      "cuyas": 2859,
      "tifi": 2860,
      "hacen": 2861,
      "llamaba": 2862,
      "dispuesto": 2863,
      "volvía": 2864,
      "buenas": 2865,
      "llegaron": 2866,
      "Rocinante": 2867,
      "corriendo": 2868,
      "consecu": 2869,
      "empezó": 2870,
      "ernes": 2871,
      "mosqueteros": 2872,
      "excelente": 2873,
      "prueba": 2874,
      "afecto": 2875,
      "encias": 2876,
      "andar": 2877,
      "ases": 2878,
      "médico": 2879,
      "Wat": 2880,
      "aje": 2881,
      "eta": 2882,
      "ote": 2883,
      "port": 2884,
      "llegaba": 2885,
      "presente": 2886,
      "bot": 2887,
      "denes": 2888,
      "hombros": 2889,
      "horizonte": 2890,
      "há": 2891,
      "ufra": 2892,
      "enamor": 2893,
      "are": 2894,
      "abor": 2895,
      "cito": 2896,
      "conce": 2897,
      "tida": 2898,
      "haga": 2899,
      "procu": 2900,
      "conoce": 2901,
      "andante": 2902,
      "plata": 2903,
      "detalles": 2904,
      "Watson": 2905,
      "Stre": 2906,
      "aventura": 2907,
      "lés": 2908,
      "arla": 2909,
      "reser": 2910,
      "trai": 2911,
      "mares": 2912,
      "famos": 2913,
      "sentí": 2914,
      "Quizá": 2915,
      "vuesa": 2916,
      "jardín": 2917,
      "ponerse": 2918,
      "muchacho": 2919,
      "Uste": 2920,
      "hesa": 2921,
      "deja": 2922,
      "asuntos": 2923,
      "total": 2924,
      "vieron": 2925,
      "romp": 2926,
      "desen": 2927,
      "hambre": 2928,
      "lord": 2929,
      "ínsu": 2930,
      "jóvenes": 2931,
      "Princesa": 2932,
      "emoción": 2933,
      "amena": 2934,
      "periodista": 2935,
      "cero": 2936,
      "ientes": 2937,
      "menta": 2938,
      "enseñ": 2939,
      "dillas": 2940,
      "leguas": 2941,
      "cari": 2942,
      "––¡": 2943,
      "hacerse": 2944,
      "nego": 2945,
      "pensando": 2946,
      "tendría": 2947,
      "repent": 2948,
      "especial": 2949,
      "drá": 2950,
      "conte": 2951,
      "tia": 2952,
      "metro": 2953,
      "puestos": 2954,
      "prision": 2955,
      "esperando": 2956,
      "cillo": 2957,
      "justo": 2958,
      "ocurrido": 2959,
      "Aunque": 2960,
      "belle": 2961,
      "mese": 2962,
      "dehesa": 2963,
      "abo": 2964,
      "enter": 2965,
      "tomado": 2966,
      "loco": 2967,
      "hablado": 2968,
      "reso": 2969,
      "excep": 2970,
      "dejando": 2971,
      "adelan": 2972,
      "aprove": 2973,
      "términ": 2974,
      "bai": 2975,
      "lanzó": 2976,
      "minis": 2977,
      "éspe": 2978,
      "brillan": 2979,
      "recibir": 2980,
      "haré": 2981,
      "plu": 2982,
      "sta": 2983,
      "vaba": 2984,
      "vían": 2985,
      "época": 2986,
      "—¿": 2987,
      "arena": 2988,
      "anima": 2989,
      "alde": 2990,
      "diga": 2991,
      "rique": 2992,
      "estan": 2993,
      "zados": 2994,
      "lesia": 2995,
      "inglés": 2996,
      "sentó": 2997,
      "admira": 2998,
      "seguridad": 2999,
      "piedra": 3000,
      "grito": 3001,
      "objeto": 3002,
      "ése": 3003,
      "coment": 3004,
      "noticia": 3005,
      "ramo": 3006,
      "prove": 3007,
      "huéspe": 3008,
      "claridad": 3009,
      "recibido": 3010,
      "comprendió": 3011,
      "primeros": 3012,
      "tuvieron": 3013,
      "Henry": 3014,
      "Bas": 3015,
      "amos": 3016,
      "dá": 3017,
      "ker": 3018,
      "dito": 3019,
      "tades": 3020,
      "meter": 3021,
      "mue": 3022,
      "vaya": 3023,
      "salida": 3024,
      "sentado": 3025,
      "tienes": 3026,
      "dulce": 3027,
      "aqu": 3028,
      "fru": 3029,
      "gén": 3030,
      "deras": 3031,
      "orgu": 3032,
      "entusi": 3033,
      "rir": 3034,
      "espec": 3035,
      "conveniente": 3036,
      "relaciones": 3037,
      "gentil": 3038,
      "Dónde": 3039,
      "refu": 3040,
      "resplan": 3041,
      "menudo": 3042,
      "impa": 3043,
      "Vaya": 3044,
      "Don": 3045,
      "cón": 3046,
      "centro": 3047,
      "océano": 3048,
      "aré": 3049,
      "ciado": 3050,
      "cientas": 3051,
      "pala": 3052,
      "precio": 3053,
      "cable": 3054,
      "sombra": 3055,
      "repente": 3056,
      "murmuró": 3057,
      "apareció": 3058,
      "gir": 3059,
      "lé": 3060,
      "olas": 3061,
      "lament": 3062,
      "ord": 3063,
      "hablando": 3064,
      "baj": 3065,
      "podrá": 3066,
      "escribir": 3067,
      "rón": 3068,
      "cuyos": 3069,
      "roca": 3070,
      "deli": 3071,
      "tarme": 3072,
      "minencia": 3073,
      "cria": 3074,
      "barb": 3075,
      "haría": 3076,
      "blanca": 3077,
      "veinti": 3078,
      "observó": 3079,
      "influ": 3080,
      "aconte": 3081,
      "gesto": 3082,
      "ocasi": 3083,
      "selo": 3084,
      "disi": 3085,
      "cole": 3086,
      "ismo": 3087,
      "tase": 3088,
      "brilla": 3089,
      "Comp": 3090,
      "resultado": 3091,
      "Eran": 3092,
      "sado": 3093,
      "zaban": 3094,
      "pisto": 3095,
      "sacó": 3096,
      "tándo": 3097,
      "dremos": 3098,
      "horror": 3099,
      "inmediato": 3100,
      "órdenes": 3101,
      "Nunca": 3102,
      "Sher": 3103,
      "infin": 3104,
      "dada": 3105,
      "hacían": 3106,
      "herido": 3107,
      "mayores": 3108,
      "explicar": 3109,
      "Aquel": 3110,
      "Francia": 3111,
      "dras": 3112,
      "éramos": 3113,
      "quedado": 3114,
      "trimon": 3115,
      "cayó": 3116,
      "ria": 3117,
      "traer": 3118,
      "táculo": 3119,
      "escapar": 3120,
      "probable": 3121,
      "Majestad": 3122,
      "satisfacción": 3123,
      "Usted": 3124,
      "azo": 3125,
      "jue": 3126,
      "lones": 3127,
      "vel": 3128,
      "entrada": 3129,
      "tria": 3130,
      "lock": 3131,
      "guerra": 3132,
      "cabellos": 3133,
      "ingham": 3134,
      "izquierda": 3135,
      "Hu": 3136,
      "anzas": 3137,
      "traído": 3138,
      "menester": 3139,
      "faci": 3140,
      "Buck": 3141,
      "Tengo": 3142,
      "meseta": 3143,
      "Sherlock": 3144,
      "Buckingham": 3145,
      "Ven": 3146,
      "relo": 3147,
      "defin": 3148,
      "destru": 3149,
      "iré": 3150,
      "cabe": 3151,
      "enemigo": 3152,
      "ándola": 3153,
      "pudiese": 3154,
      "francés": 3155,
      "mú": 3156,
      "osidad": 3157,
      "migos": 3158,
      "cola": 3159,
      "puente": 3160,
      "matrimon": 3161,
      "usa": 3162,
      "ayer": 3163,
      "abierta": 3164,
      "tuviera": 3165,
      "estuviera": 3166,
      "efec": 3167,
      "mán": 3168,
      "supli": 3169,
      "pagar": 3170,
      "cantidad": 3171,
      "aguar": 3172,
      "páramo": 3173,
      "sucedido": 3174,
      "ernas": 3175,
      "Muy": 3176,
      "belleza": 3177,
      "barbero": 3178,
      "Más": 3179,
      "Winter": 3180,
      "dimiento": 3181,
      "propor": 3182,
      "taria": 3183,
      "pone": 3184,
      "vaso": 3185,
      "esposo": 3186,
      "ligera": 3187,
      "arrastr": 3188,
      "Fue": 3189,
      "apara": 3190,
      "bella": 3191,
      "vul": 3192,
      "habrían": 3193,
      "tratar": 3194,
      "verse": 3195,
      "carga": 3196,
      "tenerse": 3197,
      "recibi": 3198,
      "comuni": 3199,
      "ejemplo": 3200,
      "imaginación": 3201,
      "gel": 3202,
      "id": 3203,
      "vora": 3204,
      "vale": 3205,
      "mozo": 3206,
      "vada": 3207,
      "deber": 3208,
      "cuerda": 3209,
      "indifer": 3210,
      "vieja": 3211,
      "chimen": 3212,
      "bó": 3213,
      "itas": 3214,
      "tron": 3215,
      "sidad": 3216,
      "iría": 3217,
      "imper": 3218,
      "calma": 3219,
      "móvi": 3220,
      "volvieron": 3221,
      "acerca": 3222,
      "profundo": 3223,
      "Alejandrovna": 3224,
      "III": 3225,
      "dueño": 3226,
      "diablo": 3227,
      "ap": 3228,
      "apresu": 3229,
      "eje": 3230,
      "flo": 3231,
      "vó": 3232,
      "»-": 3233,
      "elec": 3234,
      "cioso": 3235,
      "prepara": 3236,
      "dispar": 3237,
      "talla": 3238,
      "tiempos": 3239,
      "admir": 3240,
      "andantes": 3241,
      "busca": 3242,
      "Viernes": 3243,
      "descubrir": 3244,
      "repitió": 3245,
      "Nues": 3246,
      "Sta": 3247,
      "acos": 3248,
      "bado": 3249,
      "vm": 3250,
      "limi": 3251,
      "tenéis": 3252,
      "cionado": 3253,
      "consejo": 3254,
      "Moscú": 3255,
      "Ba": 3256,
      "Char": 3257,
      "ji": 3258,
      "enza": 3259,
      "entera": 3260,
      "tema": 3261,
      "traje": 3262,
      "pol": 3263,
      "podemos": 3264,
      "piso": 3265,
      "verla": 3266,
      "padres": 3267,
      "sabes": 3268,
      "criados": 3269,
      "interro": 3270,
      "querer": 3271,
      "quieres": 3272,
      "quince": 3273,
      "bondad": 3274,
      "Hans": 3275,
      "reflexion": 3276,
      "Gu": 3277,
      "Os": 3278,
      "Tob": 3279,
      "arte": 3280,
      "arias": 3281,
      "siento": 3282,
      "verle": 3283,
      "aument": 3284,
      "--¡": 3285,
      "árbol": 3286,
      "agradeci": 3287,
      "Mancha": 3288,
      "gobierno": 3289,
      "aquél": 3290,
      "Chi": 3291,
      "alar": 3292,
      "bene": 3293,
      "gaban": 3294,
      "oc": 3295,
      "rendo": 3296,
      "tible": 3297,
      "peda": 3298,
      "llamó": 3299,
      "visitar": 3300,
      "común": 3301,
      "nervi": 3302,
      "jor": 3303,
      "tían": 3304,
      "dedos": 3305,
      "une": 3306,
      "caído": 3307,
      "puerto": 3308,
      "guir": 3309,
      "princesa": 3310,
      "disposición": 3311,
      "base": 3312,
      "Miss": 3313,
      "descubierto": 3314,
      "Apenas": 3315,
      "Pa": 3316,
      "Ter": 3317,
      "aten": 3318,
      "luna": 3319,
      "norte": 3320,
      "tea": 3321,
      "vivía": 3322,
      "sible": 3323,
      "desnu": 3324,
      "vengan": 3325,
      "impul": 3326,
      "quienes": 3327,
      "caballería": 3328,
      "formado": 3329,
      "vestidos": 3330,
      "recuper": 3331,
      "utili": 3332,
      "entusias": 3333,
      "18": 3334,
      "Sal": 3335,
      "Tra": 3336,
      "far": 3337,
      "ye": 3338,
      "estras": 3339,
      "diré": 3340,
      "lecho": 3341,
      "miemb": 3342,
      "ticos": 3343,
      "caciones": 3344,
      "cargo": 3345,
      "mismos": 3346,
      "pensé": 3347,
      "posibilidad": 3348,
      "ayudar": 3349,
      "abilidad": 3350,
      "justicia": 3351,
      "empu": 3352,
      "grues": 3353,
      "públi": 3354,
      "ínsula": 3355,
      "Toboso": 3356,
      "refi": 3357,
      "semana": 3358,
      "cuál": 3359,
      "desli": 3360,
      "pidez": 3361,
      "tarea": 3362,
      "salvo": 3363,
      "colás": 3364,
      "encontré": 3365,
      "corrido": 3366,
      "solamente": 3367,
      "Aquella": 3368,
      "matrimonio": 3369,
      "Daria": 3370,
      "globo": 3371,
      "lora": 3372,
      "error": 3373,
      "dibu": 3374,
      "conciencia": 3375,
      "subi": 3376,
      "chero": 3377,
      "comprendía": 3378,
      "pusieron": 3379,
      "Ver": 3380,
      "gía": 3381,
      "oport": 3382,
      "stru": 3383,
      "sean": 3384,
      "didas": 3385,
      "vuestros": 3386,
      "engañ": 3387,
      "Nicolás": 3388,
      "reloj": 3389,
      "nas": 3390,
      "contó": 3391,
      "mbo": 3392,
      "cartas": 3393,
      "venían": 3394,
      "tillas": 3395,
      "--.": 3396,
      "fácilmente": 3397,
      "Eminencia": 3398,
      "Tal": 3399,
      "apren": 3400,
      "dle": 3401,
      "pra": 3402,
      "úbi": 3403,
      "cita": 3404,
      "tima": 3405,
      "rodillas": 3406,
      "pros": 3407,
      "labra": 3408,
      "haberse": 3409,
      "viaj": 3410,
      "últimos": 3411,
      "profundidad": 3412,
      "numer": 3413,
      "llena": 3414,
      "recordar": 3415,
      "apoy": 3416,
      "),": 3417,
      "Fern": 3418,
      "eo": 3419,
      "edu": 3420,
      "iza": 3421,
      "éc": 3422,
      "asión": 3423,
      "divi": 3424,
      "carro": 3425,
      "llamado": 3426,
      "hecha": 3427,
      "míos": 3428,
      "triun": 3429,
      "tribu": 3430,
      "Sur": 3431,
      "sirvi": 3432,
      "policía": 3433,
      "inferior": 3434,
      "Son": 3435,
      "bru": 3436,
      "cencia": 3437,
      "ilo": 3438,
      "vigi": 3439,
      "madera": 3440,
      "disgus": 3441,
      "cólera": 3442,
      "Algun": 3443,
      "ciedad": 3444,
      "aventuras": 3445,
      "ctamente": 3446,
      "peso": 3447,
      "zan": 3448,
      "chil": 3449,
      "teniendo": 3450,
      "vaci": 3451,
      "ventanas": 3452,
      "culp": 3453,
      "cogido": 3454,
      "remedio": 3455,
      "supuesto": 3456,
      "tipo": 3457,
      "sica": 3458,
      "caden": 3459,
      "piernas": 3460,
      "habíamos": 3461,
      "decidido": 3462,
      "medida": 3463,
      "espera": 3464,
      "consigo": 3465,
      "izado": 3466,
      "cruel": 3467,
      "única": 3468,
      "tempera": 3469,
      "lluvia": 3470,
      "ejecu": 3471,
      "-:": 3472,
      "Cami": 3473,
      "cidos": 3474,
      "reba": 3475,
      "realmente": 3476,
      "islote": 3477,
      "extran": 3478,
      "salía": 3479,
      "obras": 3480,
      "tina": 3481,
      "ocurrió": 3482,
      "transcur": 3483,
      "echó": 3484,
      "condición": 3485,
      "frecuencia": 3486,
      "mezcla": 3487,
      "adonde": 3488,
      "fera": 3489,
      "tás": 3490,
      "enzo": 3491,
      "asis": 3492,
      "abra": 3493,
      "reali": 3494,
      "caja": 3495,
      "ril": 3496,
      "instantes": 3497,
      "línea": 3498,
      "importa": 3499,
      "edro": 3500,
      "Street": 3501,
      "resolu": 3502,
      "Tras": 3503,
      "ampli": 3504,
      "gentes": 3505,
      "rue": 3506,
      "elos": 3507,
      "consiguiente": 3508,
      "rojo": 3509,
      "exces": 3510,
      "suspen": 3511,
      "duras": 3512,
      "prefer": 3513,
      "torn": 3514,
      "raron": 3515,
      "bote": 3516,
      "cualquiera": 3517,
      "pensado": 3518,
      "conocimiento": 3519,
      "guardar": 3520,
      "muchacha": 3521,
      "estreme": 3522,
      "pájar": 3523,
      "halló": 3524,
      "Fin": 3525,
      "oper": 3526,
      "cilla": 3527,
      "investi": 3528,
      "repro": 3529,
      "diría": 3530,
      "cadas": 3531,
      "desay": 3532,
      "gadas": 3533,
      "preguntas": 3534,
      "monstru": 3535,
      "mejores": 3536,
      "terminar": 3537,
      "honra": 3538,
      "hermoso": 3539,
      "olvidar": 3540,
      "paseo": 3541,
      "paredes": 3542,
      "Camila": 3543,
      "Pedro": 3544,
      "vera": 3545,
      "suje": 3546,
      "pared": 3547,
      "hago": 3548,
      "paz": 3549,
      "dumbre": 3550,
      "canoa": 3551,
      "Acaso": 3552,
      "dme": 3553,
      "lentamente": 3554,
      "pese": 3555,
      "repos": 3556,
      "represent": 3557,
      "dilla": 3558,
      "miendo": 3559,
      "chaba": 3560,
      "riendo": 3561,
      "habló": 3562,
      "corte": 3563,
      "––,": 3564,
      "garse": 3565,
      "decisión": 3566,
      "rosa": 3567,
      "olvidado": 3568,
      "débil": 3569,
      "relación": 3570,
      "habitual": 3571,
      "salvajes": 3572,
      "cli": 3573,
      "eu": 3574,
      "éx": 3575,
      "dedo": 3576,
      "dedi": 3577,
      "redu": 3578,
      "pañ": 3579,
      "masa": 3580,
      "monos": 3581,
      "espantos": 3582,
      "éndome": 3583,
      "abierto": 3584,
      "mostró": 3585,
      "curiosidad": 3586,
      "absolutamente": 3587,
      "dificultad": 3588,
      "Tiene": 3589,
      "güenza": 3590,
      "bolsillo": 3591,
      "Bran": 3592,
      "raban": 3593,
      "vío": 3594,
      "inmóvi": 3595,
      "mpa": 3596,
      "piel": 3597,
      "marchar": 3598,
      "game": 3599,
      "pastor": 3600,
      "ioso": 3601,
      "enemigos": 3602,
      "finalmente": 3603,
      "queréis": 3604,
      "partido": 3605,
      "guardias": 3606,
      "constitu": 3607,
      "ejerci": 3608,
      "peces": 3609,
      "espi": 3610,
      "leído": 3611,
      "midad": 3612,
      "adop": 3613,
      "verlo": 3614,
      "sinti": 3615,
      "salvar": 3616,
      "sabido": 3617,
      "monte": 3618,
      "gritos": 3619,
      "hombro": 3620,
      "considera": 3621,
      "generos": 3622,
      "observación": 3623,
      "enamorado": 3624,
      "apreci": 3625,
      "ojo": 3626,
      "abur": 3627,
      "intro": 3628,
      "semanas": 3629,
      "conde": 3630,
      "casas": 3631,
      "corría": 3632,
      "compasión": 3633,
      "adqui": 3634,
      "Mira": 3635,
      "movimientos": 3636,
      "razon": 3637,
      "desagradable": 3638,
      "género": 3639,
      "Finalmente": 3640,
      "Vare": 3641,
      "bí": 3642,
      "ball": 3643,
      "ifi": 3644,
      "iva": 3645,
      "rel": 3646,
      "ruego": 3647,
      "repu": 3648,
      "tivas": 3649,
      "medad": 3650,
      "rapidez": 3651,
      "perió": 3652,
      "proble": 3653,
      "caron": 3654,
      "tará": 3655,
      "humil": 3656,
      "humana": 3657,
      "sonrió": 3658,
      "volví": 3659,
      "amiga": 3660,
      "oídos": 3661,
      "Lotario": 3662,
      "lími": 3663,
      "Brandon": 3664,
      "Bes": 3665,
      "Ke": 3666,
      "acomo": 3667,
      "ejo": 3668,
      "zca": 3669,
      "derado": 3670,
      "ares": 3671,
      "daño": 3672,
      "estás": 3673,
      "muestras": 3674,
      "mostraba": 3675,
      "terror": 3676,
      "venga": 3677,
      "humor": 3678,
      "hacerle": 3679,
      "Cuán": 3680,
      "faltaba": 3681,
      "Antes": 3682,
      "resultaba": 3683,
      "invierno": 3684,
      "imaginar": 3685,
      "pleton": 3686,
      "Stapleton": 3687,
      "Vareñka": 3688,
      "Eu": 3689,
      "brar": 3690,
      "gab": 3691,
      "gido": 3692,
      "ición": 3693,
      "uda": 3694,
      "ener": 3695,
      "ensa": 3696,
      "cochero": 3697,
      "noble": 3698,
      "cuida": 3699,
      "moles": 3700,
      "estando": 3701,
      "sobres": 3702,
      "pidió": 3703,
      "verme": 3704,
      "señoras": 3705,
      "gracia": 3706,
      "sabéis": 3707,
      "puedes": 3708,
      "vuestras": 3709,
      "contestar": 3710,
      "tripu": 3711,
      "Ansel": 3712,
      "espaldas": 3713,
      "tierras": 3714,
      "Anselmo": 3715,
      "aho": 3716,
      "avis": 3717,
      "ambi": 3718,
      "ko": 3719,
      "oía": 3720,
      "ind": 3721,
      "capri": 3722,
      "desarro": 3723,
      "somos": 3724,
      "vergüenza": 3725,
      "rubor": 3726,
      "actu": 3727,
      "ocupar": 3728,
      "nuevos": 3729,
      "atrevi": 3730,
      "nieve": 3731,
      "ocasiones": 3732,
      "lag": 3733,
      "suma": 3734,
      "vigor": 3735,
      "porta": 3736,
      "respi": 3737,
      "vers": 3738,
      "casti": 3739,
      "tarle": 3740,
      "dormi": 3741,
      "fama": 3742,
      "piedras": 3743,
      "pequeños": 3744,
      "hermosura": 3745,
      "comunica": 3746,
      "interrumpió": 3747,
      "respeto": 3748,
      "magnífi": 3749,
      "amistad": 3750,
      "Fernando": 3751,
      "Nue": 3752,
      "fé": 3753,
      "hue": 3754,
      "mper": 3755,
      "pción": 3756,
      "dob": 3757,
      "recomen": 3758,
      "separa": 3759,
      "vive": 3760,
      "traía": 3761,
      "prolon": 3762,
      "tería": 3763,
      "terna": 3764,
      "carre": 3765,
      "zarse": 3766,
      "hará": 3767,
      "agora": 3768,
      "confun": 3769,
      "cuánto": 3770,
      "corresponsal": 3771,
      "montañas": 3772,
      "chimenea": 3773,
      "Aou": 3774,
      "eva": 3775,
      "fabri": 3776,
      "debido": 3777,
      "aso": 3778,
      "rece": 3779,
      "recuer": 3780,
      "confu": 3781,
      "resuel": 3782,
      "exci": 3783,
      "marea": 3784,
      "sazón": 3785,
      "gigantes": 3786,
      "acción": 3787,
      "acabar": 3788,
      "confir": 3789,
      "nubes": 3790,
      "bosques": 3791,
      "enfermo": 3792,
      "necesitaba": 3793,
      "pistolas": 3794,
      "éctri": 3795,
      "introdu": 3796,
      "Dos": 3797,
      "apli": 3798,
      "illa": 3799,
      "vest": 3800,
      "altas": 3801,
      "supo": 3802,
      "chó": 3803,
      "zadas": 3804,
      "futu": 3805,
      "hur": 3806,
      "insta": 3807,
      "siguiendo": 3808,
      "profunda": 3809,
      "abandonar": 3810,
      "declar": 3811,
      "írculo": 3812,
      "inete": 3813,
      "Ese": 3814,
      "basta": 3815,
      "cañ": 3816,
      "puestas": 3817,
      "sobr": 3818,
      "teni": 3819,
      "pido": 3820,
      "batalla": 3821,
      "irme": 3822,
      "empren": 3823,
      "Esper": 3824,
      "prima": 3825,
      "respondí": 3826,
      "deben": 3827,
      "mós": 3828,
      "Mija": 3829,
      "fueran": 3830,
      "trabajos": 3831,
      "princip": 3832,
      "grupo": 3833,
      "extraordinaria": 3834,
      "bón": 3835,
      "plo": 3836,
      "plen": 3837,
      "eléctri": 3838,
      "cial": 3839,
      "noches": 3840,
      "lida": 3841,
      "marin": 3842,
      "gunda": 3843,
      "humo": 3844,
      "daría": 3845,
      "inspec": 3846,
      "compar": 3847,
      "puntos": 3848,
      "obligado": 3849,
      "iglesia": 3850,
      "dirigiéndose": 3851,
      "oficial": 3852,
      "permaneció": 3853,
      "Merced": 3854,
      "Aouida": 3855,
      "Soy": 3856,
      "Ves": 3857,
      "ang": 3858,
      "ciosa": 3859,
      "indu": 3860,
      "mió": 3861,
      "puertas": 3862,
      "sociedad": 3863,
      "zapa": 3864,
      "precau": 3865,
      "comprendo": 3866,
      "olor": 3867,
      "medios": 3868,
      "visible": 3869,
      "atmós": 3870,
      "abandonado": 3871,
      "probablemente": 3872,
      "escuchaba": 3873,
      "amable": 3874,
      "claramente": 3875,
      "desembar": 3876,
      "Chimen": 3877,
      "resolución": 3878,
      "arru": 3879,
      "ong": 3880,
      "once": 3881,
      "remo": 3882,
      "cubri": 3883,
      "locura": 3884,
      "vidad": 3885,
      "ris": 3886,
      "provo": 3887,
      "poniendo": 3888,
      "compon": 3889,
      "huir": 3890,
      "desaparecido": 3891,
      "conocidos": 3892,
      "buscando": 3893,
      "explicación": 3894,
      "Peter": 3895,
      "Bessie": 3896,
      "Chimeneas": 3897,
      "Tu": 3898,
      "aj": 3899,
      "ahor": 3900,
      "aconse": 3901,
      "dr": 3902,
      "melo": 3903,
      "vsky": 3904,
      "alim": 3905,
      "cis": 3906,
      "dices": 3907,
      "tela": 3908,
      "liber": 3909,
      "tern": 3910,
      "cante": 3911,
      "roso": 3912,
      "pesca": 3913,
      "negros": 3914,
      "antiguo": 3915,
      "Ferrar": 3916,
      "admiración": 3917,
      "cuidados": 3918,
      "Sent": 3919,
      "ameri": 3920,
      "ciento": 3921,
      "condesa": 3922,
      "rayos": 3923,
      "resi": 3924,
      "mbra": 3925,
      "casos": 3926,
      "procur": 3927,
      "señales": 3928,
      "dur": 3929,
      "laron": 3930,
      "fuertes": 3931,
      "gusta": 3932,
      "valiente": 3933,
      "tranquilidad": 3934,
      "estrecho": 3935,
      "olvió": 3936,
      "máquina": 3937,
      "Parece": 3938,
      "cumplir": 3939,
      "cubierto": 3940,
      "montaña": 3941,
      "cortesía": 3942,
      "Ferrars": 3943,
      "Res": 3944,
      "ira": 3945,
      "zky": 3946,
      "enda": 3947,
      "demon": 3948,
      "espero": 3949,
      "ore": 3950,
      "risa": 3951,
      "terri": 3952,
      "horrible": 3953,
      "banco": 3954,
      "mérica": 3955,
      "propios": 3956,
      "hiciera": 3957,
      "quini": 3958,
      "miradas": 3959,
      "Nor": 3960,
      "aman": 3961,
      "juego": 3962,
      "saba": 3963,
      "áron": 3964,
      "reino": 3965,
      "sumer": 3966,
      "misión": 3967,
      "romper": 3968,
      "puro": 3969,
      "mag": 3970,
      "resa": 3971,
      "muestra": 3972,
      "mara": 3973,
      "éstos": 3974,
      "presión": 3975,
      "...,": 3976,
      "ausencia": 3977,
      "Dí": 3978,
      "Pre": 3979,
      "Sviaj": 3980,
      "dél": 3981,
      "gase": 3982,
      "lán": 3983,
      "doble": 3984,
      "ines": 3985,
      "concer": 3986,
      "supi": 3987,
      "techo": 3988,
      "cuento": 3989,
      "mantener": 3990,
      "expe": 3991,
      "bajar": 3992,
      "esperanzas": 3993,
      "baron": 3994,
      "content": 3995,
      "caballer": 3996,
      "exclamé": 3997,
      "cambiar": 3998,
      "Mrs": 3999,
      "mosquetero": 4000,
      "influencia": 4001,
      "Europa": 4002,
      "Sviajsky": 4003,
      "América": 4004,
      "ace": 4005,
      "ná": 4006,
      "anda": 4007,
      "organ": 4008,
      "exterior": 4009,
      "fija": 4010,
      "corrió": 4011,
      "hielo": 4012,
      "derri": 4013,
      "daron": 4014,
      "rumbo": 4015,
      "Mid": 4016,
      "Constan": 4017,
      "comenzaba": 4018,
      "incidente": 4019,
      "ordenó": 4020,
      "abrigo": 4021,
      "piensa": 4022,
      "inquietud": 4023,
      "ofreció": 4024,
      "asombro": 4025,
      "propiedad": 4026,
      "venganza": 4027,
      "Ketty": 4028,
      "bun": 4029,
      "echa": 4030,
      "arti": 4031,
      "anu": 4032,
      "contado": 4033,
      "temía": 4034,
      "manda": 4035,
      "casu": 4036,
      "preten": 4037,
      "largas": 4038,
      "presi": 4039,
      "final": 4040,
      "trabajar": 4041,
      "palo": 4042,
      "Príncipe": 4043,
      "verdaderamente": 4044,
      "Gracias": 4045,
      "satisfecho": 4046,
      "carrera": 4047,
      "lacayo": 4048,
      "?»": 4049,
      "Cor": 4050,
      "fre": 4051,
      "món": 4052,
      "tele": 4053,
      "uso": 4054,
      "ladas": 4055,
      "convi": 4056,
      "consul": 4057,
      "subió": 4058,
      "cuantos": 4059,
      "navío": 4060,
      "cerdo": 4061,
      "llaman": 4062,
      "ñada": 4063,
      "parecieron": 4064,
      "volviendo": 4065,
      "Mary": 4066,
      "servido": 4067,
      "tuviese": 4068,
      "sucedió": 4069,
      "asiento": 4070,
      "vícti": 4071,
      "absoluto": 4072,
      "frase": 4073,
      "aposento": 4074,
      "sentada": 4075,
      "criatura": 4076,
      "dleton": 4077,
      "Middleton": 4078,
      "Cune": 4079,
      "Ho": 4080,
      "Pac": 4081,
      "amante": 4082,
      "cele": 4083,
      "jando": 4084,
      "sy": 4085,
      "sbur": 4086,
      "èle": 4087,
      "tró": 4088,
      "cher": 4089,
      "modos": 4090,
      "pico": 4091,
      "cerrar": 4092,
      "pasaron": 4093,
      "creyó": 4094,
      "estará": 4095,
      "estaría": 4096,
      "solía": 4097,
      "levantar": 4098,
      "visiones": 4099,
      "sensación": 4100,
      "constante": 4101,
      "ximo": 4102,
      "mostrar": 4103,
      "encuentra": 4104,
      "regreso": 4105,
      "fantas": 4106,
      "especialmente": 4107,
      "prometido": 4108,
      "encargado": 4109,
      "diferentes": 4110,
      "juzgar": 4111,
      "Adèle": 4112,
      "famoso": 4113,
      "kerville": 4114,
      "gentilhombre": 4115,
      "éxito": 4116,
      "Cunegunda": 4117,
      "flu": 4118,
      "enen": 4119,
      "dedu": 4120,
      "doy": 4121,
      "cima": 4122,
      "toca": 4123,
      "cueva": 4124,
      "rio": 4125,
      "pob": 4126,
      "sacu": 4127,
      "sacri": 4128,
      "troce": 4129,
      "rucio": 4130,
      "obtener": 4131,
      "acto": 4132,
      "producido": 4133,
      "producir": 4134,
      "primeras": 4135,
      "dueña": 4136,
      "maravillos": 4137,
      "consecuencia": 4138,
      "Baskerville": 4139,
      "afi": 4140,
      "bras": 4141,
      "rega": 4142,
      "conci": 4143,
      "tocar": 4144,
      "misa": 4145,
      "caj": 4146,
      "perci": 4147,
      "entemente": 4148,
      "mad": 4149,
      "Espa": 4150,
      "compla": 4151,
      "dispara": 4152,
      "presenta": 4153,
      "cree": 4154,
      "conocida": 4155,
      "acabó": 4156,
      "produjo": 4157,
      "quedaron": 4158,
      "decían": 4159,
      "sorprendido": 4160,
      "miembros": 4161,
      "Fa": 4162,
      "Mil": 4163,
      "nor": 4164,
      "pér": 4165,
      "ús": 4166,
      "enos": 4167,
      "enas": 4168,
      "ascen": 4169,
      "conden": 4170,
      "coman": 4171,
      "señas": 4172,
      "grados": 4173,
      "sabio": 4174,
      "herida": 4175,
      "hallado": 4176,
      "pequeñas": 4177,
      "campes": 4178,
      "profundamente": 4179,
      "Hace": 4180,
      "Buena": 4181,
      "decís": 4182,
      "azu": 4183,
      "dificultades": 4184,
      "despacho": 4185,
      "tripulación": 4186,
      "Pacífico": 4187,
      "Bet": 4188,
      "XV": 4189,
      "conseguir": 4190,
      "suele": 4191,
      "comba": 4192,
      "visión": 4193,
      "cala": 4194,
      "maud": 4195,
      "lidades": 4196,
      "pier": 4197,
      "nación": 4198,
      "procura": 4199,
      "cerró": 4200,
      "terrán": 4201,
      "gaciones": 4202,
      "garon": 4203,
      "labor": 4204,
      "decirme": 4205,
      "malo": 4206,
      "sencillo": 4207,
      "rápido": 4208,
      "Grimaud": 4209,
      "inmóvil": 4210,
      "futuro": 4211,
      "Betsy": 4212,
      "mera": 4213,
      "decer": 4214,
      "tomando": 4215,
      "tama": 4216,
      "habia": 4217,
      "bio": 4218,
      "casado": 4219,
      "grano": 4220,
      "negra": 4221,
      "ventero": 4222,
      "recibió": 4223,
      "permiti": 4224,
      "permanecer": 4225,
      "frances": 4226,
      "regresar": 4227,
      "telero": 4228,
      "esfuerzos": 4229,
      "culpable": 4230,
      "\",": 4231,
      "Cab": 4232,
      "Fu": 4233,
      "jarse": 4234,
      "lvora": 4235,
      "nal": 4236,
      "plá": 4237,
      "útiles": 4238,
      "contes": 4239,
      "lej": 4240,
      "letra": 4241,
      "cocina": 4242,
      "veían": 4243,
      "carru": 4244,
      "dase": 4245,
      "alló": 4246,
      "decidió": 4247,
      "embarcación": 4248,
      "Toda": 4249,
      "soldados": 4250,
      "pólvora": 4251,
      "arroyo": 4252,
      "celos": 4253,
      "directamente": 4254,
      "circuns": 4255,
      "ofrecer": 4256,
      "significa": 4257,
      "salieron": 4258,
      "Bri": 4259,
      "bría": 4260,
      "gón": 4261,
      "ansi": 4262,
      "unidad": 4263,
      "temo": 4264,
      "radas": 4265,
      "pura": 4266,
      "llegué": 4267,
      "pru": 4268,
      "llevaban": 4269,
      "entraron": 4270,
      "consideraba": 4271,
      "palacio": 4272,
      "Mijailo": 4273,
      "Tor": 4274,
      "yeron": 4275,
      "anillo": 4276,
      "ental": 4277,
      "leyó": 4278,
      "tilla": 4279,
      "perdón": 4280,
      "ángu": 4281,
      "humano": 4282,
      "prud": 4283,
      "hacerme": 4284,
      "decirlo": 4285,
      "jugar": 4286,
      "continuaba": 4287,
      "lám": 4288,
      "Hacia": 4289,
      "quedarse": 4290,
      "oscuro": 4291,
      "aseguro": 4292,
      "término": 4293,
      "Constantino": 4294,
      "crá": 4295,
      "fla": 4296,
      "rinc": 4297,
      "divor": 4298,
      "cuch": 4299,
      "ticias": 4300,
      "ramas": 4301,
      "verá": 4302,
      "verde": 4303,
      "salto": 4304,
      "formaba": 4305,
      "rara": 4306,
      "mono": 4307,
      "institu": 4308,
      "necesita": 4309,
      "necesaria": 4310,
      "borde": 4311,
      "guardia": 4312,
      "virtud": 4313,
      "tendrá": 4314,
      "azul": 4315,
      "espalda": 4316,
      "Claro": 4317,
      "proporcion": 4318,
      "rincón": 4319,
      "Doro": 4320,
      "fas": 4321,
      "vís": 4322,
      "cimientos": 4323,
      "sigue": 4324,
      "capas": 4325,
      "destin": 4326,
      "resol": 4327,
      "bachil": 4328,
      "llar": 4329,
      "llave": 4330,
      "mismas": 4331,
      "Quer": 4332,
      "huellas": 4333,
      "hermanas": 4334,
      "chev": 4335,
      "desapareció": 4336,
      "viajeros": 4337,
      "levantándose": 4338,
      "formación": 4339,
      "cristal": 4340,
      "estuviese": 4341,
      "Francis": 4342,
      "cubierta": 4343,
      "digno": 4344,
      "aceptar": 4345,
      "inteligente": 4346,
      "caída": 4347,
      "Puede": 4348,
      "negocio": 4349,
      "aldea": 4350,
      "Dorotea": 4351,
      "Hi": 4352,
      "Norte": 4353,
      "Tú": 4354,
      "aves": 4355,
      "ctos": 4356,
      "fing": 4357,
      "oficio": 4358,
      "sá": 4359,
      "arrepent": 4360,
      "docu": 4361,
      "contras": 4362,
      "roto": 4363,
      "tratando": 4364,
      "ecían": 4365,
      "verano": 4366,
      "veci": 4367,
      "tercera": 4368,
      "hid": 4369,
      "hojas": 4370,
      "turba": 4371,
      "Martin": 4372,
      "habitaciones": 4373,
      "únicamente": 4374,
      "interesante": 4375,
      "flores": 4376,
      "España": 4377,
      "prudente": 4378,
      "Deci": 4379,
      "Uni": 4380,
      "ator": 4381,
      "pón": 4382,
      "estri": 4383,
      "rever": 4384,
      "retroce": 4385,
      "damos": 4386,
      "melan": 4387,
      "mación": 4388,
      "solas": 4389,
      "bajó": 4390,
      "costas": 4391,
      "acti": 4392,
      "bara": 4393,
      "estilo": 4394,
      "contenta": 4395,
      "beber": 4396,
      "tendré": 4397,
      "galería": 4398,
      "misterio": 4399,
      "ambas": 4400,
      "escope": 4401,
      "ingleses": 4402,
      "impaciencia": 4403,
      "entusiasmo": 4404,
      "operación": 4405,
      "pañuelo": 4406,
      "comandante": 4407,
      "tamaño": 4408,
      "bachiller": 4409,
      "acome": 4410,
      "cente": 4411,
      "cré": 4412,
      "dables": 4413,
      "esfor": 4414,
      "repar": 4415,
      "dicos": 4416,
      "noticias": 4417,
      "cula": 4418,
      "metió": 4419,
      "desvan": 4420,
      "lico": 4421,
      "volcán": 4422,
      "debemos": 4423,
      "actitud": 4424,
      "volviéndose": 4425,
      "valeros": 4426,
      "honrado": 4427,
      "didades": 4428,
      "relato": 4429,
      "comedor": 4430,
      "Frank": 4431,
      "violencia": 4432,
      "hostelero": 4433,
      "huésped": 4434,
      "facilidad": 4435,
      "atmósfera": 4436,
      "Tri": 4437,
      "bran": 4438,
      "círculo": 4439,
      "nes": 4440,
      "súbi": 4441,
      "—,": 4442,
      "latitud": 4443,
      "della": 4444,
      "traves": 4445,
      "bille": 4446,
      "carac": 4447,
      "poni": 4448,
      "daré": 4449,
      "medias": 4450,
      "eció": 4451,
      "ecido": 4452,
      "Siempre": 4453,
      "regis": 4454,
      "espan": 4455,
      "hallaban": 4456,
      "ándolo": 4457,
      "convencido": 4458,
      "ligero": 4459,
      "galo": 4460,
      "experiencia": 4461,
      "voluntaria": 4462,
      "nuevamente": 4463,
      "arreglar": 4464,
      "suceso": 4465,
      "explora": 4466,
      "Barton": 4467,
      "desesperación": 4468,
      "temblor": 4469,
      "anciano": 4470,
      "extranjero": 4471,
      "gabinete": 4472,
      "Nueva": 4473,
      "Petersbur": 4474,
      "caracter": 4475,
      "hues": 4476,
      "tidos": 4477,
      "radi": 4478,
      "motivos": 4479,
      "perlas": 4480,
      "mamá": 4481,
      "destino": 4482,
      "trató": 4483,
      "volu": 4484,
      "paciencia": 4485,
      "quitar": 4486,
      "duro": 4487,
      "sacerdo": 4488,
      "cenar": 4489,
      "millones": 4490,
      "éndola": 4491,
      "presentó": 4492,
      "evidentemente": 4493,
      "defender": 4494,
      "field": 4495,
      "Petersburgo": 4496,
      "!»": 4497,
      "dentes": 4498,
      "hin": 4499,
      "arra": 4500,
      "milag": 4501,
      "maese": 4502,
      "islas": 4503,
      "ustria": 4504,
      "corpor": 4505,
      "líqui": 4506,
      "plantas": 4507,
      "convencer": 4508,
      "Digo": 4509,
      "seguramente": 4510,
      "cristiano": 4511,
      "religión": 4512,
      "totalmente": 4513,
      "aparato": 4514,
      "temperatura": 4515,
      "recuerdos": 4516,
      "hé": 4517,
      "reb": 4518,
      "letras": 4519,
      "paje": 4520,
      "terreno": 4521,
      "bala": 4522,
      "gidos": 4523,
      "creí": 4524,
      "fax": 4525,
      "Segu": 4526,
      "adecu": 4527,
      "pudieran": 4528,
      "tranquili": 4529,
      "existe": 4530,
      "fuesen": 4531,
      "alcance": 4532,
      "antigua": 4533,
      "hierba": 4534,
      "Carden": 4535,
      "sucesos": 4536,
      "solici": 4537,
      "Jup": 4538,
      "st": 4539,
      "vre": 4540,
      "detener": 4541,
      "altos": 4542,
      "inici": 4543,
      "entrado": 4544,
      "consu": 4545,
      "comb": 4546,
      "villa": 4547,
      "cadá": 4548,
      "bah": 4549,
      "fica": 4550,
      "rano": 4551,
      "empresa": 4552,
      "corta": 4553,
      "acento": 4554,
      "barba": 4555,
      "querían": 4556,
      "hubiesen": 4557,
      "ganado": 4558,
      "continente": 4559,
      "pálido": 4560,
      "recordaba": 4561,
      "suceder": 4562,
      "diversas": 4563,
      "''.": 4564,
      "miserable": 4565,
      "llorar": 4566,
      "balsa": 4567,
      "reconoció": 4568,
      "Fair": 4569,
      "cadáver": 4570,
      "Esa": 4571,
      "Pal": 4572,
      "ico": 4573,
      "asen": 4574,
      "miso": 4575,
      "cuándo": 4576,
      "metido": 4577,
      "resu": 4578,
      "tendido": 4579,
      "pais": 4580,
      "provin": 4581,
      "singular": 4582,
      "dudas": 4583,
      "hotel": 4584,
      "diós": 4585,
      "jefe": 4586,
      "priesa": 4587,
      "boda": 4588,
      "mejillas": 4589,
      "estábamos": 4590,
      "recién": 4591,
      "quieren": 4592,
      "comprendido": 4593,
      "vueltas": 4594,
      "resulta": 4595,
      "corredor": 4596,
      "Algunos": 4597,
      "Cardenio": 4598,
      "amaba": 4599,
      "glor": 4600,
      "már": 4601,
      "rías": 4602,
      "escon": 4603,
      "eru": 4604,
      "quen": 4605,
      "timer": 4606,
      "desdi": 4607,
      "estor": 4608,
      "sob": 4609,
      "solos": 4610,
      "haci": 4611,
      "resca": 4612,
      "naufra": 4613,
      "vege": 4614,
      "mencion": 4615,
      "pasada": 4616,
      "lucha": 4617,
      "dormido": 4618,
      "grama": 4619,
      "calles": 4620,
      "dejé": 4621,
      "barro": 4622,
      "haberle": 4623,
      "inspi": 4624,
      "empezar": 4625,
      "permanecía": 4626,
      "objetos": 4627,
      "diferencia": 4628,
      "excepto": 4629,
      "Charles": 4630,
      "Caball": 4631,
      "Fairfax": 4632,
      "Ber": 4633,
      "alab": 4634,
      "apoder": 4635,
      "apun": 4636,
      "aparecer": 4637,
      "tín": 4638,
      "recha": 4639,
      "sepa": 4640,
      "sepul": 4641,
      "ricos": 4642,
      "desdicha": 4643,
      "case": 4644,
      "casarse": 4645,
      "hogar": 4646,
      "prác": 4647,
      "creído": 4648,
      "podrían": 4649,
      "pudieron": 4650,
      "brus": 4651,
      "encanto": 4652,
      "dirigía": 4653,
      "desembo": 4654,
      "semblante": 4655,
      ".,": 4656,
      "Uno": 4657,
      "Voy": 4658,
      "aparte": 4659,
      "besti": 4660,
      "rene": 4661,
      "conta": 4662,
      "polí": 4663,
      "vea": 4664,
      "velas": 4665,
      "probar": 4666,
      "serie": 4667,
      "fia": 4668,
      "testi": 4669,
      "cortar": 4670,
      "príncipe": 4671,
      "toral": 4672,
      "cinda": 4673,
      "sollo": 4674,
      "últimas": 4675,
      "continuar": 4676,
      "entendimiento": 4677,
      "blancas": 4678,
      "justifi": 4679,
      "instrumentos": 4680,
      "diablos": 4681,
      "uniforme": 4682,
      "tranquilamente": 4683,
      "soportar": 4684,
      "inglesa": 4685,
      "polvo": 4686,
      "oportunidad": 4687,
      "víctima": 4688,
      "divorcio": 4689,
      "00": 4690,
      "CA": 4691,
      "fero": 4692,
      "imi": 4693,
      "pele": 4694,
      "abría": 4695,
      "aliment": 4696,
      "cigar": 4697,
      "infor": 4698,
      "entraba": 4699,
      "consuelo": 4700,
      "leve": 4701,
      "mbos": 4702,
      "nivel": 4703,
      "llega": 4704,
      "lum": 4705,
      "neas": 4706,
      "trasla": 4707,
      "podré": 4708,
      "completa": 4709,
      "presentaba": 4710,
      "Parecía": 4711,
      "tempestad": 4712,
      "Llegó": 4713,
      "proyectos": 4714,
      "próxima": 4715,
      "preparado": 4716,
      "exactamente": 4717,
      "nombres": 4718,
      "hábi": 4719,
      "orgullos": 4720,
      "energía": 4721,
      "carruaje": 4722,
      "?»,": 4723,
      "Cada": 4724,
      "Lus": 4725,
      "Pang": 4726,
      "Vol": 4727,
      "cándose": 4728,
      "ebre": 4729,
      "oi": 4730,
      "ísimo": 4731,
      "escla": 4732,
      "esión": 4733,
      "parientes": 4734,
      "dellos": 4735,
      "pobres": 4736,
      "mandó": 4737,
      "vencido": 4738,
      "largos": 4739,
      "gico": 4740,
      "canal": 4741,
      "more": 4742,
      "querría": 4743,
      "estáis": 4744,
      "instin": 4745,
      "caminos": 4746,
      "gustaría": 4747,
      "acercaba": 4748,
      "boro": 4749,
      "éndolo": 4750,
      "apariencia": 4751,
      "lós": 4752,
      "cometido": 4753,
      "enfermedad": 4754,
      "ofrecía": 4755,
      "proyecto": 4756,
      "resistir": 4757,
      "impedir": 4758,
      "Mortimer": 4759,
      "preocupación": 4760,
      "pluma": 4761,
      "cráter": 4762,
      "Luscinda": 4763,
      "Panglós": 4764,
      "Dé": 4765,
      "blas": 4766,
      "hú": 4767,
      "restos": 4768,
      "tora": 4769,
      "umb": 4770,
      "xim": 4771,
      "absor": 4772,
      "recorrido": 4773,
      "enti": 4774,
      "dieci": 4775,
      "tito": 4776,
      "vienen": 4777,
      "reson": 4778,
      "cerrada": 4779,
      "seria": 4780,
      "preparar": 4781,
      "here": 4782,
      "dejaron": 4783,
      "illos": 4784,
      "ocupaba": 4785,
      "gris": 4786,
      "soldado": 4787,
      "conducta": 4788,
      "aproxima": 4789,
      "engaño": 4790,
      "vapores": 4791,
      "discreto": 4792,
      "extraordinario": 4793,
      "meridi": 4794,
      "plataforma": 4795,
      "Compren": 4796,
      "expedición": 4797,
      "Caballero": 4798,
      "Rec": 4799,
      "Rob": 4800,
      "XI": 4801,
      "encamin": 4802,
      "debió": 4803,
      "escar": 4804,
      "eles": 4805,
      "ciertos": 4806,
      "contenía": 4807,
      "contener": 4808,
      "hablaban": 4809,
      "veremos": 4810,
      "excur": 4811,
      "promesa": 4812,
      "maron": 4813,
      "irá": 4814,
      "gida": 4815,
      "discurso": 4816,
      "iosa": 4817,
      "impro": 4818,
      "ferro": 4819,
      "escribió": 4820,
      "agente": 4821,
      "enamora": 4822,
      "brí": 4823,
      "golpes": 4824,
      "Poco": 4825,
      "desgraciado": 4826,
      "aproxim": 4827,
      "colores": 4828,
      "doncellas": 4829,
      "experimentaba": 4830,
      "vivamente": 4831,
      "averi": 4832,
      "camarote": 4833,
      "disimu": 4834,
      "prudencia": 4835,
      "bahía": 4836,
      "\".": 4837,
      "gres": 4838,
      "hones": 4839,
      "odio": 4840,
      "ts": 4841,
      "tente": 4842,
      "escena": 4843,
      "infan": 4844,
      "sela": 4845,
      "nota": 4846,
      "cump": 4847,
      "locu": 4848,
      "tratado": 4849,
      "exig": 4850,
      "corona": 4851,
      "pasaban": 4852,
      "larse": 4853,
      "elovsky": 4854,
      "Quiero": 4855,
      "triz": 4856,
      "mentir": 4857,
      "Rey": 4858,
      "siglos": 4859,
      "enviado": 4860,
      "salvaje": 4861,
      "ocultar": 4862,
      "región": 4863,
      "suelen": 4864,
      "cariño": 4865,
      "juez": 4866,
      "Veselovsky": 4867,
      "náufra": 4868,
      "víspera": 4869,
      "LO": 4870,
      "ial": 4871,
      "deje": 4872,
      "inado": 4873,
      "retrato": 4874,
      "tuga": 4875,
      "provisiones": 4876,
      "dadas": 4877,
      "cejas": 4878,
      "formaban": 4879,
      "míni": 4880,
      "renunci": 4881,
      "malos": 4882,
      "auda": 4883,
      "consis": 4884,
      "sendero": 4885,
      "atentamente": 4886,
      "familiar": 4887,
      "papeles": 4888,
      "Luis": 4889,
      "observaciones": 4890,
      "antiguos": 4891,
      "Nadie": 4892,
      "cerebro": 4893,
      "soledad": 4894,
      "música": 4895,
      "vestí": 4896,
      "Palmer": 4897,
      "Lestra": 4898,
      "alas": 4899,
      "amento": 4900,
      "hí": 4901,
      "jeron": 4902,
      "lén": 4903,
      "tén": 4904,
      "alqui": 4905,
      "contigo": 4906,
      "colum": 4907,
      "caía": 4908,
      "hable": 4909,
      "guen": 4910,
      "muro": 4911,
      "litoral": 4912,
      "mansión": 4913,
      "seres": 4914,
      "donos": 4915,
      "...?": 4916,
      "encontraron": 4917,
      "fuere": 4918,
      "hablarle": 4919,
      "continuación": 4920,
      "rápida": 4921,
      "muralla": 4922,
      "enormes": 4923,
      "sufrir": 4924,
      "Lidia": 4925,
      "baile": 4926,
      "espectáculo": 4927,
      "pedazos": 4928,
      "problema": 4929,
      "comunicación": 4930,
      "Buenaventura": 4931,
      "ángulo": 4932,
      "Lestrade": 4933,
      "Vos": 4934,
      "apla": 4935,
      "ñar": 4936,
      "enfa": 4937,
      "depósi": 4938,
      "incorpor": 4939,
      "recur": 4940,
      "entien": 4941,
      "conso": 4942,
      "toma": 4943,
      "teor": 4944,
      "excu": 4945,
      "casco": 4946,
      "saciones": 4947,
      "rase": 4948,
      "Escu": 4949,
      "buta": 4950,
      "formi": 4951,
      "esplén": 4952,
      "levantado": 4953,
      "indig": 4954,
      "tienda": 4955,
      "encantado": 4956,
      "cristales": 4957,
      "bolsa": 4958,
      "despertar": 4959,
      "inmenso": 4960,
      "inteligencia": 4961,
      "insistió": 4962,
      "prose": 4963,
      "inspector": 4964,
      "voluntariamente": 4965,
      "Sé": 4966,
      "ame": 4967,
      "sele": 4968,
      "devor": 4969,
      "alzó": 4970,
      "seco": 4971,
      "tral": 4972,
      "suponer": 4973,
      "notable": 4974,
      "chando": 4975,
      "chenta": 4976,
      "irón": 4977,
      "corro": 4978,
      "Estos": 4979,
      "Estas": 4980,
      "disgusto": 4981,
      "rarme": 4982,
      "botas": 4983,
      "negar": 4984,
      "preguntaba": 4985,
      "advir": 4986,
      "adónde": 4987,
      "brick": 4988,
      "Cuál": 4989,
      "Paris": 4990,
      "permiso": 4991,
      "grandeza": 4992,
      "transpor": 4993,
      "franque": 4994,
      "cambiado": 4995,
      "leyes": 4996,
      "fenó": 4997,
      "nariz": 4998,
      "instrumento": 4999,
      "tristeza": 5000,
      "maravilla": 5001,
      "atravesar": 5002,
      "anilla": 5003,
      "magnífico": 5004,
      "suspiro": 5005,
      "defini": 5006,
      "Teresa": 5007,
      "Pregun": 5008,
      "At": 5009,
      "Ru": 5010,
      "Thor": 5011,
      "ago": 5012,
      "céis": 5013,
      "centen": 5014,
      "izar": 5015,
      "jé": 5016,
      "ll": 5017,
      "lás": 5018,
      "tés": 5019,
      "ván": 5020,
      "Éste": 5021,
      "detenido": 5022,
      "armado": 5023,
      "angus": 5024,
      "reve": 5025,
      "diarios": 5026,
      "damas": 5027,
      "modifi": 5028,
      "vimos": 5029,
      "tenida": 5030,
      "pieza": 5031,
      "exi": 5032,
      "nidad": 5033,
      "dará": 5034,
      "prisión": 5035,
      "calidad": 5036,
      "díbu": 5037,
      "acci": 5038,
      "sóli": 5039,
      "Condesa": 5040,
      "espes": 5041,
      "buscaba": 5042,
      "escribi": 5043,
      "táce": 5044,
      "sencilla": 5045,
      "convertido": 5046,
      "estrecha": 5047,
      "movido": 5048,
      "salvación": 5049,
      "compromiso": 5050,
      "piragua": 5051,
      "construcción": 5052,
      "Sabía": 5053,
      "cámara": 5054,
      "materia": 5055,
      "saludó": 5056,
      "amenaza": 5057,
      "brillante": 5058,
      "orgullo": 5059,
      "ctura": 5060,
      "zona": 5061,
      "lava": 5062,
      "ancho": 5063,
      "infi": 5064,
      "sep": 5065,
      "dita": 5066,
      "tomaba": 5067,
      "videncia": 5068,
      "cadura": 5069,
      "muer": 5070,
      "quilla": 5071,
      "gata": 5072,
      "sonido": 5073,
      "disminu": 5074,
      "jados": 5075,
      "bienes": 5076,
      "crimen": 5077,
      "crimin": 5078,
      "entregó": 5079,
      "ocupado": 5080,
      "Supongo": 5081,
      "llevando": 5082,
      "mediodía": 5083,
      "acercarse": 5084,
      "sose": 5085,
      "pintor": 5086,
      "campos": 5087,
      "campamento": 5088,
      "blancos": 5089,
      "producía": 5090,
      "Diana": 5091,
      "principios": 5092,
      "curioso": 5093,
      "diferente": 5094,
      "rymore": 5095,
      "Barrymore": 5096,
      "botella": 5097,
      "provecho": 5098,
      "refugio": 5099,
      "realizar": 5100,
      "límites": 5101,
      "terribles": 5102,
      "lámpara": 5103,
      "Basi": 5104,
      "Scher": 5105,
      "TU": 5106,
      "etas": 5107,
      "gin": 5108,
      "icia": 5109,
      "itos": 5110,
      "jaban": 5111,
      "quis": 5112,
      "armar": 5113,
      "asno": 5114,
      "dirá": 5115,
      "contaba": 5116,
      "rami": 5117,
      "chor": 5118,
      "cap": 5119,
      "camisa": 5120,
      "ries": 5121,
      "rieron": 5122,
      "delica": 5123,
      "tubre": 5124,
      "patas": 5125,
      "serían": 5126,
      "vais": 5127,
      "lanza": 5128,
      "bulo": 5129,
      "torr": 5130,
      "gratitud": 5131,
      "parecen": 5132,
      "mortal": 5133,
      "acá": 5134,
      "desea": 5135,
      "tress": 5136,
      "estudio": 5137,
      "vuelve": 5138,
      "líneas": 5139,
      "ingenio": 5140,
      "despertó": 5141,
      "ventaja": 5142,
      "inmensa": 5143,
      "diciéndole": 5144,
      "estancia": 5145,
      "ésemos": 5146,
      "comentó": 5147,
      "octubre": 5148,
      "desayuno": 5149,
      "casualidad": 5150,
      "Thorn": 5151,
      "Scherba": 5152,
      "!»,": 5153,
      "Pu": 5154,
      "blos": 5155,
      "dándose": 5156,
      "ochenta": 5157,
      "paban": 5158,
      "rab": 5159,
      "tár": 5160,
      "onna": 5161,
      "orillas": 5162,
      "aber": 5163,
      "inesper": 5164,
      "dimos": 5165,
      "divis": 5166,
      "íamos": 5167,
      "teo": 5168,
      "tieron": 5169,
      "deso": 5170,
      "cast": 5171,
      "cercan": 5172,
      "terio": 5173,
      "compli": 5174,
      "salvado": 5175,
      "gios": 5176,
      "sabiendo": 5177,
      "sentirse": 5178,
      "esperaban": 5179,
      "Cono": 5180,
      "gener": 5181,
      "tirse": 5182,
      "atón": 5183,
      "Cacamb": 5184,
      "aliento": 5185,
      "escaleras": 5186,
      "discreción": 5187,
      "ceremon": 5188,
      "brillantes": 5189,
      "ejercicio": 5190,
      "ferrocar": 5191,
      "lástima": 5192,
      "Basilio": 5193,
      "Thornfield": 5194,
      "Cacambo": 5195,
      "Vista": 5196,
      "amado": 5197,
      "iles": 5198,
      "pé": 5199,
      "onal": 5200,
      "elen": 5201,
      "incapaz": 5202,
      "siva": 5203,
      "cazar": 5204,
      "descar": 5205,
      "haza": 5206,
      "tendremos": 5207,
      "marse": 5208,
      "furi": 5209,
      "hijas": 5210,
      "saltó": 5211,
      "dispu": 5212,
      "Aronna": 5213,
      "mesma": 5214,
      "juro": 5215,
      "brillo": 5216,
      "valle": 5217,
      "Lou": 5218,
      "terminó": 5219,
      "corrientes": 5220,
      "planes": 5221,
      "movió": 5222,
      "consejos": 5223,
      "descubrió": 5224,
      "arries": 5225,
      "piración": 5226,
      "construir": 5227,
      "hallé": 5228,
      "cristianos": 5229,
      "admirable": 5230,
      "actividad": 5231,
      "Recor": 5232,
      "Pron": 5233,
      "Vea": 5234,
      "afortuna": 5235,
      "atribu": 5236,
      "–;": 5237,
      "enér": 5238,
      "antas": 5239,
      "ciertas": 5240,
      "redon": 5241,
      "tapi": 5242,
      "moder": 5243,
      "matado": 5244,
      "exag": 5245,
      "prodi": 5246,
      "cerrado": 5247,
      "cabello": 5248,
      "Espero": 5249,
      "cesar": 5250,
      "dispuesta": 5251,
      "presentes": 5252,
      "mediante": 5253,
      "desear": 5254,
      "escuela": 5255,
      "ganar": 5256,
      "lugares": 5257,
      "vestida": 5258,
      "naturales": 5259,
      "naturalmente": 5260,
      "Reina": 5261,
      "golfo": 5262,
      "encuent": 5263,
      "burla": 5264,
      "sufrido": 5265,
      "Sobre": 5266,
      "Ivanovna": 5267,
      "advertir": 5268,
      "examinar": 5269,
      "empera": 5270,
      "Entretanto": 5271,
      "labrador": 5272,
      "escopeta": 5273,
      "averiguar": 5274,
      "Scherbazky": 5275,
      "Aronnax": 5276,
      "--¿": 5277,
      "acre": 5278,
      "azar": 5279,
      "dré": 5280,
      "evich": 5281,
      "fía": 5282,
      "oeste": 5283,
      "són": 5284,
      "xel": 5285,
      "zándose": 5286,
      "ísima": 5287,
      "quando": 5288,
      "argu": 5289,
      "abismo": 5290,
      "reía": 5291,
      "tamos": 5292,
      "suyos": 5293,
      "choso": 5294,
      "movía": 5295,
      "siste": 5296,
      "ridos": 5297,
      "trae": 5298,
      "versos": 5299,
      "tercer": 5300,
      "servía": 5301,
      "marzo": 5302,
      "marinos": 5303,
      "costado": 5304,
      "gargan": 5305,
      "ceso": 5306,
      "presto": 5307,
      "primo": 5308,
      "adamente": 5309,
      "hayan": 5310,
      "comenzaron": 5311,
      "agreg": 5312,
      "recordó": 5313,
      "habitantes": 5314,
      "echado": 5315,
      "considerable": 5316,
      "hierbas": 5317,
      "impresion": 5318,
      "enferma": 5319,
      "inclinó": 5320,
      "dijeron": 5321,
      "armados": 5322,
      "Jamás": 5323,
      "solem": 5324,
      "tándole": 5325,
      "indiferencia": 5326,
      "cuchillo": 5327,
      "Axel": 5328,
      "Has": 5329,
      "Les": 5330,
      "Mo": 5331,
      "Mir": 5332,
      "PI": 5333,
      "Pri": 5334,
      "espar": 5335,
      "inva": 5336,
      "indepen": 5337,
      "recoger": 5338,
      "dios": 5339,
      "leche": 5340,
      "taciones": 5341,
      "despo": 5342,
      "mul": 5343,
      "cortés": 5344,
      "hura": 5345,
      "ruta": 5346,
      "raro": 5347,
      "mías": 5348,
      "mesas": 5349,
      "haberme": 5350,
      "jura": 5351,
      "caminar": 5352,
      "Todas": 5353,
      "observado": 5354,
      "profundidades": 5355,
      "mostrado": 5356,
      "París": 5357,
      "temprano": 5358,
      "habitu": 5359,
      "considerar": 5360,
      "pasajeros": 5361,
      "conservar": 5362,
      "acostumbrado": 5363,
      "limpi": 5364,
      "acabado": 5365,
      "sesenta": 5366,
      "resplandor": 5367,
      "ligeramente": 5368,
      "utilizar": 5369,
      "pájaros": 5370,
      "caballerías": 5371,
      "desembocadura": 5372,
      "butaca": 5373,
      "16": 5374,
      "Ning": 5375,
      "atur": 5376,
      "zones": 5377,
      "endas": 5378,
      "regular": 5379,
      "entiendo": 5380,
      "leña": 5381,
      "cuñada": 5382,
      "tiro": 5383,
      "siente": 5384,
      "pers": 5385,
      "doscientos": 5386,
      "lica": 5387,
      "licencia": 5388,
      "ecen": 5389,
      "veras": 5390,
      "verti": 5391,
      "proa": 5392,
      "carme": 5393,
      "carbón": 5394,
      "sincera": 5395,
      "serio": 5396,
      "éstas": 5397,
      "sale": 5398,
      "decirse": 5399,
      "andaba": 5400,
      "dirse": 5401,
      "empezaba": 5402,
      "distinguir": 5403,
      "cazadores": 5404,
      "vivido": 5405,
      "circunstancia": 5406,
      "CAPI": 5407,
      "TULO": 5408,
      "CAPITULO": 5409,
      "Kos": 5410,
      "Ste": 5411,
      "Tabor": 5412,
      "danza": 5413,
      "male": 5414,
      "ole": 5415,
      "réis": 5416,
      "escol": 5417,
      "ork": 5418,
      "alco": 5419,
      "alfo": 5420,
      "alboro": 5421,
      "sed": 5422,
      "entero": 5423,
      "cuñado": 5424,
      "caver": 5425,
      "despreci": 5426,
      "muertos": 5427,
      "liar": 5428,
      "quitó": 5429,
      "terr": 5430,
      "duer": 5431,
      "pedía": 5432,
      "tesis": 5433,
      "hire": 5434,
      "hol": 5435,
      "derse": 5436,
      "rumor": 5437,
      "Sansón": 5438,
      "colina": 5439,
      "faltar": 5440,
      "capital": 5441,
      "comencé": 5442,
      "charla": 5443,
      "vestir": 5444,
      "existía": 5445,
      "obstáculo": 5446,
      "sorprendió": 5447,
      "cazador": 5448,
      "costumbres": 5449,
      "intensidad": 5450,
      "desierto": 5451,
      "establecer": 5452,
      "confesar": 5453,
      "principales": 5454,
      "valeroso": 5455,
      "Fal": 5456,
      "Gol": 5457,
      "Pi": 5458,
      "Zora": 5459,
      "rus": 5460,
      "vento": 5461,
      "aldad": 5462,
      "entar": 5463,
      "mida": 5464,
      "simas": 5465,
      "perse": 5466,
      "mayo": 5467,
      "vería": 5468,
      "castigo": 5469,
      "certeza": 5470,
      "serpi": 5471,
      "tarios": 5472,
      "sacado": 5473,
      "vación": 5474,
      "sonreír": 5475,
      "formas": 5476,
      "moral": 5477,
      "barca": 5478,
      "elegante": 5479,
      "partici": 5480,
      "guarda": 5481,
      "llenos": 5482,
      "comido": 5483,
      "profesión": 5484,
      "hiciese": 5485,
      "conducir": 5486,
      "extrema": 5487,
      "piratas": 5488,
      "avergon": 5489,
      "reflexiones": 5490,
      "regiones": 5491,
      "términos": 5492,
      "público": 5493,
      "monstruo": 5494,
      "humilde": 5495,
      "precaución": 5496,
      "desdichado": 5497,
      "Pronto": 5498,
      "Zoraida": 5499,
      "Del": 5500,
      "St": 5501,
      "cár": 5502,
      "cál": 5503,
      "edifi": 5504,
      "hen": 5505,
      "ñaba": 5506,
      "enero": 5507,
      "dete": 5508,
      "doña": 5509,
      "abe": 5510,
      "alba": 5511,
      "cidas": 5512,
      "rein": 5513,
      "conviene": 5514,
      "sudor": 5515,
      "cuentas": 5516,
      "viera": 5517,
      "persua": 5518,
      "multi": 5519,
      "liza": 5520,
      "isa": 5521,
      "serán": 5522,
      "trozo": 5523,
      "sentarse": 5524,
      "dejaban": 5525,
      "seguí": 5526,
      "interesa": 5527,
      "barbas": 5528,
      "trigo": 5529,
      "cional": 5530,
      "propias": 5531,
      "Ante": 5532,
      "explicó": 5533,
      "recorrer": 5534,
      "permitía": 5535,
      "obstin": 5536,
      "invitados": 5537,
      "simpat": 5538,
      "temores": 5539,
      "propietario": 5540,
      "Rivers": 5541,
      "vulgar": 5542,
      "sobrina": 5543,
      "zapatos": 5544,
      "documento": 5545,
      "travesía": 5546,
      "húme": 5547,
      "Is": 5548,
      "aparecía": 5549,
      "cío": 5550,
      "dales": 5551,
      "odi": 5552,
      "prado": 5553,
      "rás": 5554,
      "reros": 5555,
      "ciles": 5556,
      "reales": 5557,
      "tex": 5558,
      "desas": 5559,
      "pozo": 5560,
      "deció": 5561,
      "disponía": 5562,
      "sabemos": 5563,
      "respondía": 5564,
      "dís": 5565,
      "admirar": 5566,
      "queriendo": 5567,
      "ciembre": 5568,
      "gustaba": 5569,
      "mayordo": 5570,
      "táculos": 5571,
      "pensativo": 5572,
      "servicios": 5573,
      "historias": 5574,
      "pantan": 5575,
      "igualmente": 5576,
      "escuchado": 5577,
      "asegurar": 5578,
      "sufrimientos": 5579,
      "marchado": 5580,
      "suficientemente": 5581,
      "Nuestro": 5582,
      "dormitorio": 5583,
      "presidiarios": 5584,
      "espon": 5585,
      "ansie": 5586,
      "repri": 5587,
      "entado": 5588,
      "mia": 5589,
      "cocin": 5590,
      "cua": 5591,
      "pide": 5592,
      "istas": 5593,
      "cedes": 5594,
      "pedido": 5595,
      "llamada": 5596,
      "meno": 5597,
      "hoja": 5598,
      "gica": 5599,
      "gigante": 5600,
      "tormenta": 5601,
      "ruidos": 5602,
      "mercedes": 5603,
      "sable": 5604,
      "...»": 5605,
      "hermanos": 5606,
      "facciones": 5607,
      "entregar": 5608,
      "dencias": 5609,
      "adminis": 5610,
      "acero": 5611,
      "brisa": 5612,
      "vosotros": 5613,
      "plaza": 5614,
      "siguieron": 5615,
      "Cierto": 5616,
      "levantarse": 5617,
      "anoche": 5618,
      "viembre": 5619,
      "justa": 5620,
      "amabilidad": 5621,
      "hallarse": 5622,
      "cumplido": 5623,
      "precipitó": 5624,
      "dijera": 5625,
      "ignoraba": 5626,
      "Saint": 5627,
      "señalando": 5628,
      "pronunciar": 5629,
      "jornada": 5630,
      "pérdida": 5631,
      "sacerdote": 5632,
      "mayordomo": 5633,
      "Aún": 5634,
      "Abra": 5635,
      "Cal": 5636,
      "dándole": 5637,
      "it": 5638,
      "ty": 5639,
      "zon": 5640,
      "red": 5641,
      "seca": 5642,
      "diciembre": 5643,
      "leía": 5644,
      "tré": 5645,
      "noviembre": 5646,
      "mete": 5647,
      "vidu": 5648,
      "tumb": 5649,
      "bibli": 5650,
      "usar": 5651,
      "casar": 5652,
      "duró": 5653,
      "llegamos": 5654,
      "giendo": 5655,
      "ford": 5656,
      "rostros": 5657,
      "heridas": 5658,
      "aclar": 5659,
      "barcos": 5660,
      "escudos": 5661,
      "ademán": 5662,
      "comporta": 5663,
      "aparición": 5664,
      "oyeron": 5665,
      "título": 5666,
      "enviar": 5667,
      "dirigir": 5668,
      "extendía": 5669,
      "dijese": 5670,
      "poseía": 5671,
      "penetrar": 5672,
      "huéspedes": 5673,
      "cabezas": 5674,
      "educación": 5675,
      "resuelto": 5676,
      "indudable": 5677,
      "quinientos": 5678,
      "terráneo": 5679,
      "ansiedad": 5680,
      "Bro": 5681,
      "ave": 5682,
      "ible": 5683,
      "xión": 5684,
      "óse": 5685,
      "encontra": 5686,
      "eses": 5687,
      "archi": 5688,
      "docena": 5689,
      "uncia": 5690,
      "intri": 5691,
      "retor": 5692,
      "didamente": 5693,
      "supongo": 5694,
      "rama": 5695,
      "rito": 5696,
      "pere": 5697,
      "maquin": 5698,
      "tuoso": 5699,
      "poeta": 5700,
      "pista": 5701,
      "manio": 5702,
      "propuso": 5703,
      "taré": 5704,
      "fiesta": 5705,
      "marca": 5706,
      "testigo": 5707,
      "furia": 5708,
      "decidí": 5709,
      "posesión": 5710,
      "miraban": 5711,
      "jumento": 5712,
      "necesito": 5713,
      "gastos": 5714,
      "volverse": 5715,
      "individu": 5716,
      "saberlo": 5717,
      "hermosos": 5718,
      "resultó": 5719,
      "sombras": 5720,
      "imaginaba": 5721,
      "apoderado": 5722,
      "Tampoco": 5723,
      "próximo": 5724,
      "encantador": 5725,
      "acontecimientos": 5726,
      "nervios": 5727,
      "periódico": 5728,
      "cuidadosamente": 5729,
      "atorment": 5730,
      "práctica": 5731,
      "vestíbulo": 5732,
      "garganta": 5733,
      "Ch": 5734,
      "Mal": 5735,
      "fos": 5736,
      "ómetro": 5737,
      "quedaban": 5738,
      "abel": 5739,
      "cible": 5740,
      "informar": 5741,
      "suyas": 5742,
      "chura": 5743,
      "sifi": 5744,
      "parse": 5745,
      "habido": 5746,
      "mpe": 5747,
      "mula": 5748,
      "sinu": 5749,
      "seren": 5750,
      "ángel": 5751,
      "sacando": 5752,
      "rastro": 5753,
      "menes": 5754,
      "fusil": 5755,
      "señoritas": 5756,
      "creyendo": 5757,
      "dísimo": 5758,
      "monseñor": 5759,
      "trabaja": 5760,
      "personal": 5761,
      "compara": 5762,
      "situado": 5763,
      "Anton": 5764,
      "confieso": 5765,
      "origen": 5766,
      "personaje": 5767,
      "quisiere": 5768,
      "estuvieron": 5769,
      "especies": 5770,
      "besó": 5771,
      "entrañas": 5772,
      "diversos": 5773,
      "intenciones": 5774,
      "contemplar": 5775,
      "detalle": 5776,
      "estrella": 5777,
      "estrellas": 5778,
      "hospi": 5779,
      "Providencia": 5780,
      "reflexionar": 5781,
      "excursión": 5782,
      "riesgo": 5783,
      "bibliote": 5784,
      "Cas": 5785,
      "Ey": 5786,
      "Iba": 5787,
      "Kata": 5788,
      "Mañ": 5789,
      "aciones": 5790,
      "cén": 5791,
      "fis": 5792,
      "gros": 5793,
      "hallá": 5794,
      "áles": 5795,
      "oscura": 5796,
      "artí": 5797,
      "ancia": 5798,
      "ono": 5799,
      "invent": 5800,
      "inexpli": 5801,
      "recla": 5802,
      "tamento": 5803,
      "ración": 5804,
      "ropas": 5805,
      "sopla": 5806,
      "guada": 5807,
      "lis": 5808,
      "mensa": 5809,
      "pendiente": 5810,
      "comprar": 5811,
      "bul": 5812,
      "tinas": 5813,
      "tinie": 5814,
      "nega": 5815,
      "miré": 5816,
      "milord": 5817,
      "ladrón": 5818,
      "indicaba": 5819,
      "bebi": 5820,
      "India": 5821,
      "arrojó": 5822,
      "imagino": 5823,
      "Será": 5824,
      "cogí": 5825,
      "escuchó": 5826,
      "Perdón": 5827,
      "sospechas": 5828,
      "abundan": 5829,
      "inclinación": 5830,
      "colegio": 5831,
      "vasov": 5832,
      "indiferente": 5833,
      "Atlán": 5834,
      "agregó": 5835,
      "comportamiento": 5836,
      "Katavasov": 5837,
      "Mañana": 5838,
      "tinieblas": 5839,
      "Baz": 5840,
      "Hemos": 5841,
      "agar": 5842,
      "fro": 5843,
      "fina": 5844,
      "nado": 5845,
      "sano": 5846,
      "vá": 5847,
      "vé": 5848,
      "ñe": 5849,
      "ons": 5850,
      "redes": 5851,
      "reza": 5852,
      "rayo": 5853,
      "chel": 5854,
      "café": 5855,
      "estú": 5856,
      "eración": 5857,
      "muerta": 5858,
      "bia": 5859,
      "mantes": 5860,
      "verte": 5861,
      "verdes": 5862,
      "patio": 5863,
      "cebo": 5864,
      "tercio": 5865,
      "sustancia": 5866,
      "vados": 5867,
      "empla": 5868,
      "lumb": 5869,
      "hipó": 5870,
      "dispuestos": 5871,
      "jau": 5872,
      "saben": 5873,
      "sabían": 5874,
      "criada": 5875,
      "contrar": 5876,
      "actual": 5877,
      "finca": 5878,
      "impru": 5879,
      "trecho": 5880,
      "encontraban": 5881,
      "necesidades": 5882,
      "estuve": 5883,
      "vuelva": 5884,
      "dineros": 5885,
      "felices": 5886,
      "importantes": 5887,
      "recordando": 5888,
      "ocurre": 5889,
      "Ahí": 5890,
      "acudió": 5891,
      "fuertemente": 5892,
      "marcharse": 5893,
      "ejér": 5894,
      "agitación": 5895,
      "lograr": 5896,
      "intentar": 5897,
      "adivinar": 5898,
      "fresca": 5899,
      "brillaba": 5900,
      "orejas": 5901,
      "--,": 5902,
      "15": 5903,
      "Tene": 5904,
      "clar": 5905,
      "crí": 5906,
      "ésa": 5907,
      "enca": 5908,
      "ensan": 5909,
      "dom": 5910,
      "inver": 5911,
      "dilig": 5912,
      "conforme": 5913,
      "rope": 5914,
      "mate": 5915,
      "malas": 5916,
      "trajo": 5917,
      "tudes": 5918,
      "verdu": 5919,
      "fiebre": 5920,
      "marina": 5921,
      "llegando": 5922,
      "venida": 5923,
      "gram": 5924,
      "sabues": 5925,
      "facul": 5926,
      "cenas": 5927,
      "encontrarse": 5928,
      "jurado": 5929,
      "espanto": 5930,
      "partió": 5931,
      "María": 5932,
      "alegres": 5933,
      "kaya": 5934,
      "muchachas": 5935,
      "poderoso": 5936,
      "sombrío": 5937,
      "ocurría": 5938,
      "colonia": 5939,
      "etc": 5940,
      "físi": 5941,
      "acompañar": 5942,
      "brock": 5943,
      "pasear": 5944,
      "solución": 5945,
      "escuchando": 5946,
      "Geor": 5947,
      "cienda": 5948,
      "recob": 5949,
      "apetito": 5950,
      "suavemente": 5951,
      "rompió": 5952,
      "Donde": 5953,
      "ruedas": 5954,
      "sobresal": 5955,
      "primavera": 5956,
      "marineros": 5957,
      "demonio": 5958,
      "crédito": 5959,
      "Franklin": 5960,
      "Veamos": 5961,
      "Bazin": 5962,
      "Ga": 5963,
      "fes": 5964,
      "enro": 5965,
      "eren": 5966,
      "lana": 5967,
      "arreba": 5968,
      "incon": 5969,
      "entan": 5970,
      "cote": 5971,
      "loca": 5972,
      "sober": 5973,
      "mantenía": 5974,
      "mandíbu": 5975,
      "llamas": 5976,
      "pasando": 5977,
      "estatura": 5978,
      "lance": 5979,
      "saltar": 5980,
      "prestar": 5981,
      "merece": 5982,
      "crey": 5983,
      "denbrock": 5984,
      "seguían": 5985,
      "Mire": 5986,
      "tadora": 5987,
      "Rojo": 5988,
      "espejo": 5989,
      "ponerme": 5990,
      "Ingram": 5991,
      "entendido": 5992,
      "llevaron": 5993,
      "demasia": 5994,
      "pálida": 5995,
      "permitir": 5996,
      "permitido": 5997,
      "flexi": 5998,
      "distinto": 5999,
      "oficiales": 6000,
      "Lidenbrock": 6001,
      "estrope": 6002,
      "Mosque": 6003,
      "Rich": 6004,
      "afli": 6005,
      "encantadores": 6006,
      "veinticinco": 6007,
      "ballena": 6008,
      "Antonio": 6009,
      "17": 6010,
      "Bo": 6011,
      "Jus": 6012,
      "Sne": 6013,
      "Tur": 6014,
      "York": 6015,
      "ile": 6016,
      "icor": 6017,
      "quete": 6018,
      "astu": 6019,
      "citos": 6020,
      "inven": 6021,
      "infa": 6022,
      "conseguido": 6023,
      "lector": 6024,
      "cubría": 6025,
      "cuantas": 6026,
      "vivos": 6027,
      "desprecio": 6028,
      "murió": 6029,
      "tendió": 6030,
      "popa": 6031,
      "pio": 6032,
      "pida": 6033,
      "nacido": 6034,
      "veis": 6035,
      "uela": 6036,
      "trope": 6037,
      "cabras": 6038,
      "corto": 6039,
      "pasión": 6040,
      "pasados": 6041,
      "humilla": 6042,
      "teníamos": 6043,
      "mone": 6044,
      "piezas": 6045,
      "levantaba": 6046,
      "mayoría": 6047,
      "borra": 6048,
      "indicó": 6049,
      "ctoria": 6050,
      "asimismo": 6051,
      "alivio": 6052,
      "fragata": 6053,
      "acompañado": 6054,
      "extensión": 6055,
      "Sois": 6056,
      "maravillas": 6057,
      "pruebas": 6058,
      "explos": 6059,
      "acostumbrada": 6060,
      "fatiga": 6061,
      "describir": 6062,
      "procurar": 6063,
      "bóve": 6064,
      "practi": 6065,
      "pájaro": 6066,
      "alimento": 6067,
      "gloria": 6068,
      "hazañas": 6069,
      "Steele": 6070,
      "Aga": 6071,
      "Ig": 6072,
      "Imp": 6073,
      "Tran": 6074,
      "aisla": 6075,
      "bel": 6076,
      "iciones": 6077,
      "jaron": 6078,
      "pabel": 6079,
      "rones": 6080,
      "ñó": 6081,
      "enis": 6082,
      "declara": 6083,
      "regu": 6084,
      "setenta": 6085,
      "mio": 6086,
      "chvin": 6087,
      "cate": 6088,
      "rier": 6089,
      "tana": 6090,
      "bigo": 6091,
      "mandado": 6092,
      "manchas": 6093,
      "istes": 6094,
      "quitado": 6095,
      "cetáce": 6096,
      "serlo": 6097,
      "mistress": 6098,
      "corral": 6099,
      "ponga": 6100,
      "fuente": 6101,
      "peni": 6102,
      "salí": 6103,
      "forz": 6104,
      "moros": 6105,
      "tabaco": 6106,
      "Según": 6107,
      "haberlo": 6108,
      "Medi": 6109,
      "deseado": 6110,
      "piedad": 6111,
      "desaparecer": 6112,
      "gustos": 6113,
      "osible": 6114,
      "visitante": 6115,
      "situada": 6116,
      "convenía": 6117,
      "viejos": 6118,
      "españo": 6119,
      "iguales": 6120,
      "acudir": 6121,
      "invitación": 6122,
      "junio": 6123,
      "empleado": 6124,
      "molus": 6125,
      "concluyó": 6126,
      "gravedad": 6127,
      "abundante": 6128,
      "proceder": 6129,
      "Natur": 6130,
      "prisioneros": 6131,
      "infinita": 6132,
      "azotes": 6133,
      "beneficio": 6134,
      "triunfo": 6135,
      "cadena": 6136,
      "razonable": 6137,
      "confusión": 6138,
      "exploración": 6139,
      "fenómeno": 6140,
      "biblioteca": 6141,
      "Her": 6142,
      "Or": 6143,
      "Preci": 6144,
      "Rusi": 6145,
      "acar": 6146,
      "gasta": 6147,
      "gale": 6148,
      "gáis": 6149,
      "rú": 6150,
      "vasta": 6151,
      "yer": 6152,
      "defec": 6153,
      "debilidad": 6154,
      "detenerse": 6155,
      "ert": 6156,
      "arre": 6157,
      "andado": 6158,
      "quedé": 6159,
      "abas": 6160,
      "recomp": 6161,
      "tocado": 6162,
      "perío": 6163,
      "despedir": 6164,
      "estal": 6165,
      "sobra": 6166,
      "guera": 6167,
      "pié": 6168,
      "patria": 6169,
      "sustent": 6170,
      "tardó": 6171,
      "niñ": 6172,
      "llevan": 6173,
      "llegue": 6174,
      "vagón": 6175,
      "fusi": 6176,
      "dormía": 6177,
      "obrar": 6178,
      "sabios": 6179,
      "rosas": 6180,
      "medidas": 6181,
      "vistos": 6182,
      "alemán": 6183,
      "debería": 6184,
      "ill": 6185,
      "vari": 6186,
      "amores": 6187,
      "ficios": 6188,
      "comienzo": 6189,
      "abiertos": 6190,
      "Podría": 6191,
      "regresó": 6192,
      "ríos": 6193,
      "desgraciada": 6194,
      "central": 6195,
      "funcion": 6196,
      "digna": 6197,
      "misericor": 6198,
      "pertenecía": 6199,
      "simplemente": 6200,
      "repetía": 6201,
      "aplas": 6202,
      "ivamente": 6203,
      "american": 6204,
      "baronet": 6205,
      "concili": 6206,
      "cajón": 6207,
      "campesinos": 6208,
      "melancó": 6209,
      "naufragio": 6210,
      "simpatía": 6211,
      "pabellón": 6212,
      "Ama": 6213,
      "Hoy": 6214,
      "Helen": 6215,
      "opri": 6216,
      "delan": 6217,
      "laciones": 6218,
      "onía": 6219,
      "alber": 6220,
      "retras": 6221,
      "conmo": 6222,
      "mirado": 6223,
      "temiendo": 6224,
      "cobar": 6225,
      "notaba": 6226,
      "culti": 6227,
      "chaque": 6228,
      "modales": 6229,
      "lasti": 6230,
      "maestro": 6231,
      "desple": 6232,
      "sofo": 6233,
      "lia": 6234,
      "lice": 6235,
      "pausa": 6236,
      "balas": 6237,
      "zamos": 6238,
      "pefa": 6239,
      "sada": 6240,
      "landa": 6241,
      "rublos": 6242,
      "cansan": 6243,
      "grafía": 6244,
      "callar": 6245,
      "cintura": 6246,
      "estupefa": 6247,
      "habitada": 6248,
      "diamantes": 6249,
      "palos": 6250,
      "abril": 6251,
      "bonita": 6252,
      "Mucho": 6253,
      "cuadro": 6254,
      "retiró": 6255,
      "pusiera": 6256,
      "alegremente": 6257,
      "conclusión": 6258,
      "estudiar": 6259,
      "Puedo": 6260,
      "riquezas": 6261,
      "refugi": 6262,
      "investigación": 6263,
      "consideración": 6264,
      "periódicos": 6265,
      "telegrama": 6266,
      "poniéndose": 6267,
      "formidable": 6268,
      "abertura": 6269,
      "domés": 6270,
      "sabueso": 6271,
      "Rusia": 6272,
      "acarici": 6273,
      "Blan": 6274,
      "Cer": 6275,
      "Da": 6276,
      "Hong": 6277,
      "Kong": 6278,
      "clas": 6279,
      "mones": 6280,
      "use": 6281,
      "separar": 6282,
      "divin": 6283,
      "convir": 6284,
      "tisi": 6285,
      "desvi": 6286,
      "hacienda": 6287,
      "mus": 6288,
      "tuosa": 6289,
      "pago": 6290,
      "papá": 6291,
      "comodidad": 6292,
      "vemos": 6293,
      "cables": 6294,
      "mineral": 6295,
      "derra": 6296,
      "cantar": 6297,
      "sabi": 6298,
      "presteza": 6299,
      "Altisi": 6300,
      "escuderos": 6301,
      "bastón": 6302,
      "ándolos": 6303,
      "pesado": 6304,
      "volveré": 6305,
      "confiar": 6306,
      "sentidos": 6307,
      "minuto": 6308,
      "obstáculos": 6309,
      "desgracias": 6310,
      "engañado": 6311,
      "secretos": 6312,
      "intereses": 6313,
      "ordinario": 6314,
      "Mason": 6315,
      "Carras": 6316,
      "examinó": 6317,
      "resistencia": 6318,
      "Ferrier": 6319,
      "descansar": 6320,
      "Baker": 6321,
      "europe": 6322,
      "huevos": 6323,
      "contestación": 6324,
      "renegado": 6325,
      "ferrocarril": 6326,
      "caverna": 6327,
      "Mosquetón": 6328,
      "Bomb": 6329,
      "Dreb": 6330,
      "Vase": 6331,
      "bla": 6332,
      "dental": 6333,
      "fren": 6334,
      "tones": 6335,
      "encomen": 6336,
      "decia": 6337,
      "ardiente": 6338,
      "almo": 6339,
      "uncio": 6340,
      "incompren": 6341,
      "reca": 6342,
      "reempla": 6343,
      "lección": 6344,
      "tadamente": 6345,
      "cuchi": 6346,
      "mover": 6347,
      "caña": 6348,
      "roja": 6349,
      "riles": 6350,
      "perfecto": 6351,
      "perdida": 6352,
      "haz": 6353,
      "parajes": 6354,
      "manes": 6355,
      "proponía": 6356,
      "sincer": 6357,
      "tardar": 6358,
      "fil": 6359,
      "empali": 6360,
      "corrían": 6361,
      "pasé": 6362,
      "pasillo": 6363,
      "vendrá": 6364,
      "toria": 6365,
      "formando": 6366,
      "Quiere": 6367,
      "gancia": 6368,
      "Mari": 6369,
      "volvería": 6370,
      "Habría": 6371,
      "origin": 6372,
      "derechos": 6373,
      "favorable": 6374,
      "sirve": 6375,
      "opiniones": 6376,
      "ataque": 6377,
      "bondados": 6378,
      "llanura": 6379,
      "dirigirse": 6380,
      "sillón": 6381,
      "comprobar": 6382,
      "ciertamente": 6383,
      "consecuencias": 6384,
      "prisionero": 6385,
      "occi": 6386,
      "investigaciones": 6387,
      "relá": 6388,
      "constantemente": 6389,
      "billete": 6390,
      "aproximadamente": 6391,
      "Robert": 6392,
      "Louvre": 6393,
      "alcoba": 6394,
      "terrestre": 6395,
      "fisono": 6396,
      "Agafia": 6397,
      "Altisidora": 6398,
      "Bombay": 6399,
      "Drebber": 6400,
      "20": 6401,
      "Bos": 6402,
      "Dese": 6403,
      "Gre": 6404,
      "Lla": 6405,
      "Venga": 6406,
      "gí": 6407,
      "gesti": 6408,
      "hus": 6409,
      "jal": 6410,
      "jera": 6411,
      "vando": 6412,
      "–:": 6413,
      "dele": 6414,
      "escru": 6415,
      "esquina": 6416,
      "arreci": 6417,
      "anchura": 6418,
      "almor": 6419,
      "insignifi": 6420,
      "inconveniente": 6421,
      "semos": 6422,
      "diá": 6423,
      "conje": 6424,
      "portero": 6425,
      "rogó": 6426,
      "ridí": 6427,
      "destro": 6428,
      "haces": 6429,
      "resolvió": 6430,
      "pito": 6431,
      "bada": 6432,
      "bata": 6433,
      "predi": 6434,
      "prece": 6435,
      "mina": 6436,
      "disfru": 6437,
      "preguntado": 6438,
      "impasi": 6439,
      "montón": 6440,
      "agudo": 6441,
      "libres": 6442,
      "ganas": 6443,
      "conoció": 6444,
      "comprendí": 6445,
      "febr": 6446,
      "comenzado": 6447,
      "pectos": 6448,
      "Comen": 6449,
      "campanilla": 6450,
      "mático": 6451,
      "ocurrir": 6452,
      "quinas": 6453,
      "fantás": 6454,
      "sorprender": 6455,
      "sueños": 6456,
      "Mister": 6457,
      "marchó": 6458,
      "aloja": 6459,
      "Perman": 6460,
      "rodeado": 6461,
      "menores": 6462,
      "equivocado": 6463,
      "utilidad": 6464,
      "Grant": 6465,
      "particularmente": 6466,
      "carreras": 6467,
      "lacayos": 6468,
      "Cuánto": 6469,
      "ambiente": 6470,
      "sacrifi": 6471,
      "huesos": 6472,
      "sollozos": 6473,
      "depósitos": 6474,
      "Golenis": 6475,
      "edificio": 6476,
      "Eyre": 6477,
      "Vaseñka": 6478,
      "Golenischev": 6479,
      "Dun": 6480,
      "For": 6481,
      "Volvió": 6482,
      "avent": 6483,
      "fron": 6484,
      "ibu": 6485,
      "pár": 6486,
      "ági": 6487,
      "”,": 6488,
      "ereza": 6489,
      "alter": 6490,
      "rec": 6491,
      "semi": 6492,
      "severa": 6493,
      "consa": 6494,
      "tomas": 6495,
      "comis": 6496,
      "raí": 6497,
      "paró": 6498,
      "hala": 6499,
      "respiración": 6500,
      "prot": 6501,
      "prohi": 6502,
      "cabía": 6503,
      "corteza": 6504,
      "luces": 6505,
      "torpe": 6506,
      "chada": 6507,
      "cales": 6508,
      "ilus": 6509,
      "mirándole": 6510,
      "cuerdas": 6511,
      "desafi": 6512,
      "Cuándo": 6513,
      "necesarias": 6514,
      "añadir": 6515,
      "nube": 6516,
      "llenas": 6517,
      "resultados": 6518,
      "verdaderos": 6519,
      "militar": 6520,
      "encantadora": 6521,
      "segundos": 6522,
      "emplear": 6523,
      "observaba": 6524,
      "absoluta": 6525,
      "sospechar": 6526,
      "miserables": 6527,
      "excelentes": 6528,
      "explor": 6529,
      "limpio": 6530,
      "anciana": 6531,
      "descanso": 6532,
      "plumas": 6533,
      "impertin": 6534,
      "impulso": 6535,
      "magnífica": 6536,
      "confuso": 6537,
      "americano": 6538,
      "fijamente": 6539,
      "resolver": 6540,
      "galope": 6541,
      "contacto": 6542,
      "improvi": 6543,
      "hospital": 6544,
      "cansancio": 6545,
      "Carrasco": 6546,
      "almoha": 6547,
      "relámpa": 6548,
      "febrero": 6549,
      "Ly": 6550,
      "Somb": 6551,
      "Temple": 6552,
      "XIII": 6553,
      "apas": 6554,
      "econo": 6555,
      "igo": 6556,
      "imiento": 6557,
      "jándose": 6558,
      "op": 6559,
      "oje": 6560,
      "deposi": 6561,
      "erre": 6562,
      "absur": 6563,
      "almuer": 6564,
      "unión": 6565,
      "into": 6566,
      "remedi": 6567,
      "reconocido": 6568,
      "seda": 6569,
      "conjunto": 6570,
      "leal": 6571,
      "leta": 6572,
      "legua": 6573,
      "rap": 6574,
      "chu": 6575,
      "mou": 6576,
      "sier": 6577,
      "porvenir": 6578,
      "perdía": 6579,
      "perdió": 6580,
      "podremos": 6581,
      "mandar": 6582,
      "choque": 6583,
      "sintiendo": 6584,
      "filos": 6585,
      "trozos": 6586,
      "ponían": 6587,
      "nosotras": 6588,
      "tonto": 6589,
      "contribu": 6590,
      "acciones": 6591,
      "auxi": 6592,
      "podéis": 6593,
      "radamente": 6594,
      "valía": 6595,
      "levantando": 6596,
      "comenzar": 6597,
      "genio": 6598,
      "mentira": 6599,
      "Coquen": 6600,
      "dentemente": 6601,
      "expresar": 6602,
      "brían": 6603,
      "ocurri": 6604,
      "sucedía": 6605,
      "gallar": 6606,
      "Polo": 6607,
      "aviso": 6608,
      "negras": 6609,
      "descubrimiento": 6610,
      "reflexión": 6611,
      "molino": 6612,
      "atrevía": 6613,
      "grupos": 6614,
      "avanzaba": 6615,
      "pesada": 6616,
      "peligroso": 6617,
      "vinieron": 6618,
      "sentados": 6619,
      "reserva": 6620,
      "efectos": 6621,
      "apresuró": 6622,
      "emperador": 6623,
      "serenidad": 6624,
      "hallábamos": 6625,
      "Atlántico": 6626,
      "almuerzo": 6627,
      "Coquenard": 6628,
      ").": 6629,
      "ilu": 6630,
      "izó": 6631,
      "lun": 6632,
      "ny": 6633,
      "udas": 6634,
      "espu": 6635,
      "art": 6636,
      "els": 6637,
      "inti": 6638,
      "indí": 6639,
      "contenido": 6640,
      "trar": 6641,
      "teme": 6642,
      "culares": 6643,
      "chalu": 6644,
      "viese": 6645,
      "siti": 6646,
      "publi": 6647,
      "macho": 6648,
      "destos": 6649,
      "verás": 6650,
      "exclu": 6651,
      "usse": 6652,
      "prefi": 6653,
      "llegaban": 6654,
      "vaga": 6655,
      "tese": 6656,
      "coro": 6657,
      "–––": 6658,
      "doras": 6659,
      "quélla": 6660,
      "ruso": 6661,
      "conocí": 6662,
      "dígame": 6663,
      "varon": 6664,
      "tánea": 6665,
      "gosto": 6666,
      "elevada": 6667,
      "siguientes": 6668,
      "imagen": 6669,
      "levanté": 6670,
      "comprende": 6671,
      "comprendiendo": 6672,
      "Inc": 6673,
      "presentar": 6674,
      "puntas": 6675,
      "Sería": 6676,
      "frialdad": 6677,
      "juntas": 6678,
      "broma": 6679,
      "sospecha": 6680,
      "dominio": 6681,
      "intentó": 6682,
      "landés": 6683,
      "autoridad": 6684,
      "preguntarle": 6685,
      "ofender": 6686,
      "discutir": 6687,
      "obedecer": 6688,
      "despidió": 6689,
      "hábil": 6690,
      "animado": 6691,
      "impaciente": 6692,
      "reposo": 6693,
      "castigar": 6694,
      "emprender": 6695,
      "eléctrica": 6696,
      "Mijailovna": 6697,
      "institutriz": 6698,
      "vecino": 6699,
      "hidalgo": 6700,
      "umbral": 6701,
      "columna": 6702,
      "infierno": 6703,
      "encuentran": 6704,
      "solemne": 6705,
      "texto": 6706,
      "encontramos": 6707,
      "período": 6708,
      "Evi": 6709,
      "Stan": 6710,
      "Sue": 6711,
      "Stiva": 6712,
      "Tres": 6713,
      "apuesta": 6714,
      "bron": 6715,
      "dal": 6716,
      "déis": 6717,
      "idio": 6718,
      "izas": 6719,
      "tables": 6720,
      "vs": 6721,
      "ñol": 6722,
      "aspectos": 6723,
      "albar": 6724,
      "altera": 6725,
      "tame": 6726,
      "trado": 6727,
      "tez": 6728,
      "coinci": 6729,
      "nove": 6730,
      "vientre": 6731,
      "simos": 6732,
      "parado": 6733,
      "robus": 6734,
      "rival": 6735,
      "riendas": 6736,
      "desgar": 6737,
      "despren": 6738,
      "gues": 6739,
      "mbres": 6740,
      "muros": 6741,
      "lidos": 6742,
      "licen": 6743,
      "ecí": 6744,
      "maneras": 6745,
      "paga": 6746,
      "vehe": 6747,
      "carn": 6748,
      "seré": 6749,
      "tarla": 6750,
      "dudar": 6751,
      "pecu": 6752,
      "llaves": 6753,
      "hechas": 6754,
      "fué": 6755,
      "vender": 6756,
      "cansado": 6757,
      "herrami": 6758,
      "moro": 6759,
      "alejó": 6760,
      "impi": 6761,
      "bastaba": 6762,
      "espesa": 6763,
      "Cuanto": 6764,
      "sostenía": 6765,
      "sensa": 6766,
      "estóma": 6767,
      "explicaciones": 6768,
      "Hacía": 6769,
      "español": 6770,
      "apare": 6771,
      "tomaron": 6772,
      "experim": 6773,
      "cambió": 6774,
      "rerero": 6775,
      "gentle": 6776,
      "perfecta": 6777,
      "XXV": 6778,
      "contemplaba": 6779,
      "dirigieron": 6780,
      "univer": 6781,
      "Petro": 6782,
      "fríamente": 6783,
      "cristiana": 6784,
      "afirmar": 6785,
      "exactitud": 6786,
      "admitir": 6787,
      "manifestar": 6788,
      "repentina": 6789,
      "facili": 6790,
      "suplico": 6791,
      "espantosa": 6792,
      "plomo": 6793,
      "ternura": 6794,
      "procuraba": 6795,
      "combate": 6796,
      "procuradora": 6797,
      "mármol": 6798,
      "náufragos": 6799,
      "teoría": 6800,
      "alfombra": 6801,
      "Abraham": 6802,
      "Imposible": 6803,
      "indígen": 6804,
      "Casi": 6805,
      "Do": 6806,
      "Neces": 6807,
      "War": 6808,
      "amon": 6809,
      "vaban": 6810,
      "»––¿": 6811,
      "ancha": 6812,
      "información": 6813,
      "dila": 6814,
      "concre": 6815,
      "notas": 6816,
      "cuáles": 6817,
      "tidas": 6818,
      "mbas": 6819,
      "mutu": 6820,
      "extin": 6821,
      "sini": 6822,
      "tareas": 6823,
      "dones": 6824,
      "vacío": 6825,
      "furor": 6826,
      "vencer": 6827,
      "hilo": 6828,
      "salían": 6829,
      "discur": 6830,
      "graves": 6831,
      "entrevista": 6832,
      "debes": 6833,
      "feras": 6834,
      "Contin": 6835,
      "ventud": 6836,
      "estaré": 6837,
      "posiciones": 6838,
      "municiones": 6839,
      "cuerpos": 6840,
      "levantaron": 6841,
      "haremos": 6842,
      "tista": 6843,
      "intento": 6844,
      "reyes": 6845,
      "orificio": 6846,
      "enojo": 6847,
      "oyendo": 6848,
      "Pobre": 6849,
      "conducía": 6850,
      "figuras": 6851,
      "distingu": 6852,
      "hallaron": 6853,
      "viviendo": 6854,
      "comprome": 6855,
      "satisfacer": 6856,
      "pesadumbre": 6857,
      "arrancar": 6858,
      "irritación": 6859,
      "riqueza": 6860,
      "brillaban": 6861,
      "preparativos": 6862,
      "desnudo": 6863,
      "numerosos": 6864,
      "sirvió": 6865,
      "cliente": 6866,
      "Mirad": 6867,
      "procurando": 6868,
      "plática": 6869,
      "hélice": 6870,
      "inexplicable": 6871,
      "diligencia": 6872,
      "Iglesia": 6873,
      "Sombrerero": 6874,
      "Adónde": 6875,
      "Pien": 6876,
      "emi": 6877,
      "eter": 6878,
      "flan": 6879,
      "ivo": 6880,
      "mm": 6881,
      "ácido": 6882,
      "erna": 6883,
      "ablo": 6884,
      "reparar": 6885,
      "reconcili": 6886,
      "tamiento": 6887,
      "susur": 6888,
      "mica": 6889,
      "temi": 6890,
      "novi": 6891,
      "timo": 6892,
      "rigu": 6893,
      "pulos": 6894,
      "descontento": 6895,
      "tración": 6896,
      "nadas": 6897,
      "sados": 6898,
      "cabra": 6899,
      "lleg": 6900,
      "llevo": 6901,
      "yada": 6902,
      "vengo": 6903,
      "disponer": 6904,
      "volvían": 6905,
      "clasifi": 6906,
      "adre": 6907,
      "mesti": 6908,
      "Debe": 6909,
      "juventud": 6910,
      "aul": 6911,
      "regalo": 6912,
      "gritar": 6913,
      "precioso": 6914,
      "conocidas": 6915,
      "extraños": 6916,
      "acercándose": 6917,
      "guardado": 6918,
      "formada": 6919,
      "alegro": 6920,
      "consciente": 6921,
      "causado": 6922,
      "decír": 6923,
      "jesu": 6924,
      "víos": 6925,
      "ligereza": 6926,
      "Podía": 6927,
      "condujo": 6928,
      "Señores": 6929,
      "interesaba": 6930,
      "dueñas": 6931,
      "colocado": 6932,
      "Perdon": 6933,
      "Obser": 6934,
      "afirmó": 6935,
      "ocupaciones": 6936,
      "viniese": 6937,
      "morada": 6938,
      "determinación": 6939,
      "asesina": 6940,
      "aprovechar": 6941,
      "pedazo": 6942,
      "Verdad": 6943,
      "convicción": 6944,
      "Tortuga": 6945,
      "honestidad": 6946,
      "consistía": 6947,
      "hablemos": 6948,
      "accidente": 6949,
      "persecu": 6950,
      "ejército": 6951,
      "chalupa": 6952,
      "Bur": 6953,
      "Blanche": 6954,
      "Cro": 6955,
      "Fru": 6956,
      "Figu": 6957,
      "Wil": 6958,
      "ite": 6959,
      "deza": 6960,
      "involuntariamente": 6961,
      "diéndose": 6962,
      "concierto": 6963,
      "tocaba": 6964,
      "lectura": 6965,
      "trin": 6966,
      "supe": 6967,
      "novia": 6968,
      "timos": 6969,
      "chis": 6970,
      "chica": 6971,
      "mozos": 6972,
      "vile": 6973,
      "vidri": 6974,
      "sia": 6975,
      "cayeron": 6976,
      "rojos": 6977,
      "mati": 6978,
      "desto": 6979,
      "hacha": 6980,
      "tene": 6981,
      "pilo": 6982,
      "paciente": 6983,
      "promon": 6984,
      "tarlo": 6985,
      "dudo": 6986,
      "sonreía": 6987,
      "decido": 6988,
      "disparar": 6989,
      "hacerla": 6990,
      "impon": 6991,
      "emba": 6992,
      "trescientos": 6993,
      "cómodo": 6994,
      "faltaban": 6995,
      "vuelvo": 6996,
      "gascón": 6997,
      "honrada": 6998,
      "diamante": 6999,
      "conversaciones": 7000,
      "hermosas": 7001,
      "verdaderas": 7002,
      "permitió": 7003,
      "quedará": 7004,
      "decí": 7005,
      "oscuras": 7006,
      "secretario": 7007,
      "vivienda": 7008,
      "violento": 7009,
      "cuestiones": 7010,
      "soportable": 7011,
      "tempor": 7012,
      "abogado": 7013,
      "muebles": 7014,
      "criaturas": 7015,
      "cañones": 7016,
      "marinero": 7017,
      "disparates": 7018,
      "franceses": 7019,
      "radiante": 7020,
      "huracán": 7021,
      "soplaba": 7022,
      "bóveda": 7023,
      "Mediterráneo": 7024,
      "moluscos": 7025,
      "Precisamente": 7026,
      "defectos": 7027,
      "empalizada": 7028,
      "aventur": 7029,
      "Ab": 7030,
      "Austria": 7031,
      "bando": 7032,
      "centes": 7033,
      "eme": 7034,
      "gall": 7035,
      "jan": 7036,
      "lver": 7037,
      "lus": 7038,
      "sario": 7039,
      "vuelo": 7040,
      "ála": 7041,
      "—.": 7042,
      "devolver": 7043,
      "quedan": 7044,
      "cié": 7045,
      "cient": 7046,
      "incre": 7047,
      "diario": 7048,
      "taza": 7049,
      "taño": 7050,
      "suavi": 7051,
      "ramente": 7052,
      "chosa": 7053,
      "destas": 7054,
      "desventu": 7055,
      "desconocida": 7056,
      "pis": 7057,
      "pipa": 7058,
      "ecos": 7059,
      "pados": 7060,
      "proced": 7061,
      "saco": 7062,
      "llado": 7063,
      "mencia": 7064,
      "lanzar": 7065,
      "rosos": 7066,
      "sentaba": 7067,
      "imes": 7068,
      "conocen": 7069,
      "cualidades": 7070,
      "dejase": 7071,
      "haberla": 7072,
      "Debo": 7073,
      "brio": 7074,
      "fecha": 7075,
      "osiego": 7076,
      "Roque": 7077,
      "izaba": 7078,
      "arrojado": 7079,
      "presentado": 7080,
      "iencias": 7081,
      "linos": 7082,
      "abandonó": 7083,
      "transpar": 7084,
      "alcanzado": 7085,
      "envió": 7086,
      "equipaje": 7087,
      "obligada": 7088,
      "submarino": 7089,
      "empleo": 7090,
      "nari": 7091,
      "observando": 7092,
      "colocó": 7093,
      "Excel": 7094,
      "separaba": 7095,
      "Grifo": 7096,
      "desesperado": 7097,
      "descender": 7098,
      "permanecido": 7099,
      "fresco": 7100,
      "repetir": 7101,
      "tablas": 7102,
      "satisfecha": 7103,
      "excepción": 7104,
      "adelantó": 7105,
      "interroga": 7106,
      "subieron": 7107,
      "límite": 7108,
      "fabricar": 7109,
      "principalmente": 7110,
      "azules": 7111,
      "súbitamente": 7112,
      "hábito": 7113,
      "instinto": 7114,
      "licenciado": 7115,
      "10": 7116,
      "Adiós": 7117,
      "Dis": 7118,
      "Fan": 7119,
      "Je": 7120,
      "West": 7121,
      "aquélla": 7122,
      "cándole": 7123,
      "edi": 7124,
      "efica": 7125,
      "igua": 7126,
      "oto": 7127,
      "tun": 7128,
      "yan": 7129,
      "arpón": 7130,
      "ancla": 7131,
      "ansí": 7132,
      "alterna": 7133,
      "repuse": 7134,
      "dación": 7135,
      "tomo": 7136,
      "tamb": 7137,
      "trá": 7138,
      "lobos": 7139,
      "logrado": 7140,
      "viuda": 7141,
      "cató": 7142,
      "rogar": 7143,
      "mados": 7144,
      "desmay": 7145,
      "despecho": 7146,
      "gozar": 7147,
      "bis": 7148,
      "usos": 7149,
      "cedió": 7150,
      "teria": 7151,
      "bajaba": 7152,
      "balance": 7153,
      "fila": 7154,
      "marinas": 7155,
      "dudaba": 7156,
      "pecado": 7157,
      "cortado": 7158,
      "Estás": 7159,
      "claras": 7160,
      "mori": 7161,
      "conocían": 7162,
      "aletas": 7163,
      "esperado": 7164,
      "jurar": 7165,
      "andando": 7166,
      "falso": 7167,
      "inocente": 7168,
      "consiste": 7169,
      "frun": 7170,
      "escrita": 7171,
      "descubrí": 7172,
      "agradables": 7173,
      "onamiento": 7174,
      "campaña": 7175,
      "ordenado": 7176,
      "máis": 7177,
      "ariamente": 7178,
      "existen": 7179,
      "céle": 7180,
      "miraron": 7181,
      "preocupado": 7182,
      "atacar": 7183,
      "despertado": 7184,
      "subía": 7185,
      "prometió": 7186,
      "molestar": 7187,
      "dulz": 7188,
      "Karenina": 7189,
      "cubiertas": 7190,
      "violenta": 7191,
      "logró": 7192,
      "discreta": 7193,
      "experimentar": 7194,
      "niebla": 7195,
      "güe": 7196,
      "estudios": 7197,
      "frases": 7198,
      "ocupación": 7199,
      "izquierdo": 7200,
      "meterse": 7201,
      "reproche": 7202,
      "precauciones": 7203,
      "milagro": 7204,
      "desdichada": 7205,
      "mínimo": 7206,
      "detecti": 7207,
      "abundancia": 7208,
      "explosión": 7209,
      "fusiles": 7210,
      "gentleman": 7211,
      "Clu": 7212,
      "Viendo": 7213,
      "ctivo": 7214,
      "cáni": 7215,
      "renta": 7216,
      "tte": 7217,
      "”.": 7218,
      "enre": 7219,
      "eri": 7220,
      "lavas": 7221,
      "arco": 7222,
      "ondu": 7223,
      "abs": 7224,
      "abu": 7225,
      "civi": 7226,
      "ciosos": 7227,
      "inco": 7228,
      "rebu": 7229,
      "representa": 7230,
      "secas": 7231,
      "contor": 7232,
      "convul": 7233,
      "cator": 7234,
      "perros": 7235,
      "maci": 7236,
      "doscientas": 7237,
      "resta": 7238,
      "tanes": 7239,
      "potencia": 7240,
      "pagado": 7241,
      "rasa": 7242,
      "tesinos": 7243,
      "cordi": 7244,
      "landia": 7245,
      "tores": 7246,
      "jadas": 7247,
      "esperó": 7248,
      "mond": 7249,
      "ferencia": 7250,
      "elevaba": 7251,
      "grises": 7252,
      "gustan": 7253,
      "falsa": 7254,
      "árselo": 7255,
      "cionar": 7256,
      "visitas": 7257,
      "sensible": 7258,
      "corrieron": 7259,
      "aires": 7260,
      "palma": 7261,
      "foto": 7262,
      "encantada": 7263,
      "siglo": 7264,
      "cogía": 7265,
      "habilidad": 7266,
      "ticamente": 7267,
      "sorprendente": 7268,
      "Cree": 7269,
      "simpá": 7270,
      "cuántas": 7271,
      "colocar": 7272,
      "cauti": 7273,
      "precipitadamente": 7274,
      "impedía": 7275,
      "discusión": 7276,
      "ocupada": 7277,
      "Montesinos": 7278,
      "debili": 7279,
      "egoís": 7280,
      "bolsillos": 7281,
      "negocios": 7282,
      "veinticuatro": 7283,
      "efectu": 7284,
      "electri": 7285,
      "recuperar": 7286,
      "refiero": 7287,
      "ejecución": 7288,
      "exceso": 7289,
      "apreciar": 7290,
      "industria": 7291,
      "plena": 7292,
      "residencia": 7293,
      "quinientas": 7294,
      "Norland": 7295,
      "Seguramente": 7296,
      "bruscamente": 7297,
      "consolar": 7298,
      "angustia": 7299,
      "prodigi": 7300,
      "sistema": 7301,
      "herramientas": 7302,
      "Wardes": 7303,
      "dulzura": 7304,
      "Otra": 7305,
      "Oeste": 7306,
      "Tanto": 7307,
      "aca": 7308,
      "aya": 7309,
      "bé": 7310,
      "fío": 7311,
      "jen": 7312,
      "ose": 7313,
      "ablos": 7314,
      "abru": 7315,
      "allas": 7316,
      "ciosamente": 7317,
      "inun": 7318,
      "incen": 7319,
      "inquisi": 7320,
      "rego": 7321,
      "retes": 7322,
      "remon": 7323,
      "sex": 7324,
      "convento": 7325,
      "sufría": 7326,
      "nobles": 7327,
      "mode": 7328,
      "sivo": 7329,
      "cador": 7330,
      "perfu": 7331,
      "desconcer": 7332,
      "sopa": 7333,
      "mulo": 7334,
      "licor": 7335,
      "manta": 7336,
      "mantuvo": 7337,
      "quite": 7338,
      "bación": 7339,
      "fico": 7340,
      "fijado": 7341,
      "cosecha": 7342,
      "humanos": 7343,
      "darles": 7344,
      "decidida": 7345,
      "cantes": 7346,
      "grata": 7347,
      "crip": 7348,
      "dejarse": 7349,
      "Dev": 7350,
      "autén": 7351,
      "elementos": 7352,
      "volviese": 7353,
      "trabajaba": 7354,
      "llevé": 7355,
      "ffels": 7356,
      "vasto": 7357,
      "llegara": 7358,
      "Roche": 7359,
      "ingenu": 7360,
      "compor": 7361,
      "planta": 7362,
      "comiendo": 7363,
      "apartado": 7364,
      "escapado": 7365,
      "alcanzó": 7366,
      "probabilidad": 7367,
      "fondos": 7368,
      "Estamos": 7369,
      "Rochelle": 7370,
      "apoyo": 7371,
      "Muchas": 7372,
      "infla": 7373,
      "cubiertos": 7374,
      "centí": 7375,
      "perdonar": 7376,
      "funda": 7377,
      "atravesado": 7378,
      "pronunció": 7379,
      "botellas": 7380,
      "comunicar": 7381,
      "tronco": 7382,
      "Algunas": 7383,
      "tornó": 7384,
      "desayun": 7385,
      "sintiera": 7386,
      "caprichos": 7387,
      "carretera": 7388,
      "hurst": 7389,
      "demonios": 7390,
      "Mijailov": 7391,
      "política": 7392,
      "orgulloso": 7393,
      "perspec": 7394,
      "verdugo": 7395,
      "Sneffels": 7396,
      "misericordia": 7397,
      "occidental": 7398,
      "Duncan": 7399,
      "narices": 7400,
      "rebuz": 7401,
      "apu": 7402,
      "apel": 7403,
      "agosto": 7404,
      "bían": 7405,
      "bello": 7406,
      "dy": 7407,
      "fante": 7408,
      "heno": 7409,
      "ich": 7410,
      "séis": 7411,
      "vér": 7412,
      "úju": 7413,
      "—;": 7414,
      "detenía": 7415,
      "dezco": 7416,
      "estru": 7417,
      "anuncio": 7418,
      "cieron": 7419,
      "inútiles": 7420,
      "remor": 7421,
      "reanu": 7422,
      "datos": 7423,
      "tome": 7424,
      "tomé": 7425,
      "lehurst": 7426,
      "mico": 7427,
      "tición": 7428,
      "viven": 7429,
      "habér": 7430,
      "perju": 7431,
      "socorro": 7432,
      "erado": 7433,
      "pica": 7434,
      "veré": 7435,
      "navíos": 7436,
      "tercero": 7437,
      "sereno": 7438,
      "ándonos": 7439,
      "fijos": 7440,
      "llamo": 7441,
      "niñas": 7442,
      "cortina": 7443,
      "luchar": 7444,
      "ful": 7445,
      "penoso": 7446,
      "buj": 7447,
      "talones": 7448,
      "preso": 7449,
      "deno": 7450,
      "alejar": 7451,
      "acceso": 7452,
      "barón": 7453,
      "podíamos": 7454,
      "Confi": 7455,
      "Debía": 7456,
      "hayas": 7457,
      "considerado": 7458,
      "Rod": 7459,
      "continuamente": 7460,
      "cuartos": 7461,
      "convertir": 7462,
      "urs": 7463,
      "profundas": 7464,
      "Reed": 7465,
      "cepción": 7466,
      "brúju": 7467,
      "linda": 7468,
      "escapó": 7469,
      "misterioso": 7470,
      "leyendo": 7471,
      "dulces": 7472,
      "ocultaba": 7473,
      "rodeaban": 7474,
      "arreglado": 7475,
      "murmullo": 7476,
      "intensa": 7477,
      "experimentado": 7478,
      "separarse": 7479,
      "avanzó": 7480,
      "oficina": 7481,
      "Sabe": 7482,
      "temblar": 7483,
      "abrirse": 7484,
      "hallamos": 7485,
      "acordó": 7486,
      "Veo": 7487,
      "anunció": 7488,
      "Hubo": 7489,
      "agradecimiento": 7490,
      "pública": 7491,
      "subiendo": 7492,
      "sobresalto": 7493,
      "respirar": 7494,
      "declaró": 7495,
      "drés": 7496,
      "Sentía": 7497,
      "Respon": 7498,
      "francesa": 7499,
      "vecinos": 7500,
      "testimon": 7501,
      "informes": 7502,
      "Falsa": 7503,
      "serpiente": 7504,
      "cálculos": 7505,
      "Brock": 7506,
      "archipié": 7507,
      "peregr": 7508,
      "artículo": 7509,
      "clases": 7510,
      "sinceridad": 7511,
      "fisonomía": 7512,
      "alojamiento": 7513,
      "estómago": 7514,
      "Fanny": 7515,
      "Club": 7516,
      "Be": 7517,
      "Far": 7518,
      "Hor": 7519,
      "Lord": 7520,
      "Stal": 7521,
      "ater": 7522,
      "calló": 7523,
      "efe": 7524,
      "ks": 7525,
      "males": 7526,
      "rera": 7527,
      "ída": 7528,
      "enes": 7529,
      "deton": 7530,
      "deprisa": 7531,
      "detuvieron": 7532,
      "queso": 7533,
      "arpon": 7534,
      "inevi": 7535,
      "revó": 7536,
      "entrando": 7537,
      "midos": 7538,
      "tej": 7539,
      "copi": 7540,
      "tiros": 7541,
      "vias": 7542,
      "vientos": 7543,
      "cay": 7544,
      "rida": 7545,
      "ricas": 7546,
      "billa": 7547,
      "manidad": 7548,
      "cerra": 7549,
      "tardanza": 7550,
      "duros": 7551,
      "breves": 7552,
      "penosa": 7553,
      "compade": 7554,
      "Quería": 7555,
      "decidir": 7556,
      "posada": 7557,
      "entregado": 7558,
      "cali": 7559,
      "dejara": 7560,
      "Santa": 7561,
      "agujero": 7562,
      "cinto": 7563,
      "Cuatro": 7564,
      "personalmente": 7565,
      "habríamos": 7566,
      "indicar": 7567,
      "ponerle": 7568,
      "atento": 7569,
      "importaba": 7570,
      "Andrés": 7571,
      "escala": 7572,
      "alivi": 7573,
      "Ayer": 7574,
      "sirven": 7575,
      "acompañaba": 7576,
      "Duquesa": 7577,
      "Aquellos": 7578,
      "Arkadievna": 7579,
      "doloroso": 7580,
      "teles": 7581,
      "recogi": 7582,
      "instrucciones": 7583,
      "logía": 7584,
      "repito": 7585,
      "separado": 7586,
      "desesperada": 7587,
      "arrastra": 7588,
      "Grace": 7589,
      "encendido": 7590,
      "defensa": 7591,
      "refería": 7592,
      "Nosotros": 7593,
      "materias": 7594,
      "amistos": 7595,
      "enteramente": 7596,
      "gruesa": 7597,
      "espantoso": 7598,
      "generosidad": 7599,
      "ballenas": 7600,
      "Dígame": 7601,
      "maravilloso": 7602,
      "Todavía": 7603,
      "provincia": 7604,
      "bestias": 7605,
      "seriamente": 7606,
      "alquiler": 7607,
      "proseguir": 7608,
      "centenares": 7609,
      "criminal": 7610,
      "juramento": 7611,
      "reinaba": 7612,
      "individuo": 7613,
      "hipótesis": 7614,
      "Tenemos": 7615,
      "incomprensible": 7616,
      "ojeada": 7617,
      "Suez": 7618,
      "peculiar": 7619,
      "moribun": 7620,
      "catorce": 7621,
      "Rochefort": 7622,
      "brújula": 7623,
      "Brocklehurst": 7624,
      "revólver": 7625,
      "30": 7626,
      "Bus": 7627,
      "Bah": 7628,
      "aparecían": 7629,
      "dalo": 7630,
      "emer": 7631,
      "eterna": 7632,
      "gestos": 7633,
      "uñas": 7634,
      "dejo": 7635,
      "decla": 7636,
      "qual": 7637,
      "quede": 7638,
      "quedo": 7639,
      "ores": 7640,
      "aspi": 7641,
      "insinu": 7642,
      "insoportable": 7643,
      "sedu": 7644,
      "dimen": 7645,
      "tocó": 7646,
      "mire": 7647,
      "mitri": 7648,
      "notar": 7649,
      "notado": 7650,
      "curar": 7651,
      "cubrían": 7652,
      "tión": 7653,
      "medía": 7654,
      "perple": 7655,
      "delici": 7656,
      "hama": 7657,
      "lista": 7658,
      "tradu": 7659,
      "picos": 7660,
      "volar": 7661,
      "verifi": 7662,
      "quise": 7663,
      "proxi": 7664,
      "terren": 7665,
      "pez": 7666,
      "cabrero": 7667,
      "vengar": 7668,
      "ruina": 7669,
      "talle": 7670,
      "formal": 7671,
      "jeme": 7672,
      "cómpli": 7673,
      "puedan": 7674,
      "Leon": 7675,
      "colinas": 7676,
      "feros": 7677,
      "cintur": 7678,
      "turbado": 7679,
      "elegancia": 7680,
      "plato": 7681,
      "ándoles": 7682,
      "Lowood": 7683,
      "cillos": 7684,
      "naturalidad": 7685,
      "felici": 7686,
      "compuesto": 7687,
      "arrojar": 7688,
      "abriendo": 7689,
      "llenaba": 7690,
      "resultar": 7691,
      "silencioso": 7692,
      "tuvimos": 7693,
      "permite": 7694,
      "existir": 7695,
      "extremos": 7696,
      "preocupaba": 7697,
      "aseguró": 7698,
      "dirigí": 7699,
      "significaba": 7700,
      "gruñ": 7701,
      "pareja": 7702,
      "gravemente": 7703,
      "propiedades": 7704,
      "superiores": 7705,
      "peores": 7706,
      "manifestó": 7707,
      "navegación": 7708,
      "firmeza": 7709,
      "gerson": 7710,
      "cogiendo": 7711,
      "efectivamente": 7712,
      "generoso": 7713,
      "kov": 7714,
      "liberal": 7715,
      "retroceder": 7716,
      "Triste": 7717,
      "erupción": 7718,
      "sobren": 7719,
      "advirtió": 7720,
      "castle": 7721,
      "Primero": 7722,
      "Islandia": 7723,
      "chaqueta": 7724,
      "comisario": 7725,
      "Evidentemente": 7726,
      "Stangerson": 7727,
      "promontorio": 7728,
      "regoci": 7729,
      "11": 7730,
      "Dmitri": 7731,
      "Ea": 7732,
      "Go": 7733,
      "IV": 7734,
      "Imag": 7735,
      "LA": 7736,
      "Sil": 7737,
      "Tien": 7738,
      "XL": 7739,
      "ajus": 7740,
      "acogi": 7741,
      "ctur": 7742,
      "gro": 7743,
      "jese": 7744,
      "opuesto": 7745,
      "sosiego": 7746,
      "vero": 7747,
      "Ésta": 7748,
      "deri": 7749,
      "devo": 7750,
      "demostr": 7751,
      "quero": 7752,
      "arnos": 7753,
      "andu": 7754,
      "asper": 7755,
      "alzando": 7756,
      "insol": 7757,
      "increí": 7758,
      "redonde": 7759,
      "contiene": 7760,
      "concent": 7761,
      "tristes": 7762,
      "subido": 7763,
      "teatro": 7764,
      "tiera": 7765,
      "metal": 7766,
      "rios": 7767,
      "rigor": 7768,
      "habrán": 7769,
      "jovi": 7770,
      "gotas": 7771,
      "lienzo": 7772,
      "proposición": 7773,
      "provisión": 7774,
      "oración": 7775,
      "pedí": 7776,
      "nichev": 7777,
      "pretexto": 7778,
      "costó": 7779,
      "fuga": 7780,
      "lantes": 7781,
      "vence": 7782,
      "huella": 7783,
      "deciros": 7784,
      "distra": 7785,
      "oló": 7786,
      "fortal": 7787,
      "zov": 7788,
      "herretes": 7789,
      "antemano": 7790,
      "calcular": 7791,
      "advi": 7792,
      "impre": 7793,
      "Conejo": 7794,
      "estima": 7795,
      "cinas": 7796,
      "jugue": 7797,
      "turb": 7798,
      "conocimientos": 7799,
      "feo": 7800,
      "pecta": 7801,
      "volverá": 7802,
      "indicio": 7803,
      "táis": 7804,
      "cuarta": 7805,
      "ficial": 7806,
      "espadas": 7807,
      "causas": 7808,
      "sombría": 7809,
      "atraer": 7810,
      "sucede": 7811,
      "transmi": 7812,
      "capacidad": 7813,
      "envidia": 7814,
      "ciudades": 7815,
      "madame": 7816,
      "retirar": 7817,
      "adversario": 7818,
      "alrededores": 7819,
      "desierta": 7820,
      "peligrosa": 7821,
      "Juan": 7822,
      "afirma": 7823,
      "Jachvin": 7824,
      "Monseñor": 7825,
      "asustado": 7826,
      "prisionera": 7827,
      "aparatos": 7828,
      "186": 7829,
      "ización": 7830,
      "asistir": 7831,
      "pastores": 7832,
      "espiritu": 7833,
      "cubrir": 7834,
      "Sentí": 7835,
      "supiera": 7836,
      "caracterís": 7837,
      "líquido": 7838,
      "paisaje": 7839,
      "feroz": 7840,
      "cigarro": 7841,
      "meridional": 7842,
      "enamorados": 7843,
      "disimular": 7844,
      "entiende": 7845,
      "redonda": 7846,
      "argumentos": 7847,
      "enroje": 7848,
      "impasible": 7849,
      "improviso": 7850,
      "apasion": 7851,
      "Figura": 7852,
      "piloto": 7853,
      "electricidad": 7854,
      "inevitable": 7855,
      "cinturón": 7856,
      "!...": 7857,
      "?,": 7858,
      "Acab": 7859,
      "Globo": 7860,
      "Pla": 7861,
      "Spe": 7862,
      "Sam": 7863,
      "Unos": 7864,
      "api": 7865,
      "atado": 7866,
      "amada": 7867,
      "dantes": 7868,
      "fó": 7869,
      "graba": 7870,
      "lía": 7871,
      "lino": 7872,
      "rest": 7873,
      "santo": 7874,
      "vu": 7875,
      "zuela": 7876,
      "ensar": 7877,
      "estran": 7878,
      "ardor": 7879,
      "quebran": 7880,
      "ciales": 7881,
      "entor": 7882,
      "entab": 7883,
      "dif": 7884,
      "dian": 7885,
      "condado": 7886,
      "suponía": 7887,
      "suminis": 7888,
      "cobre": 7889,
      "notó": 7890,
      "tiró": 7891,
      "timón": 7892,
      "vidas": 7893,
      "simpli": 7894,
      "rota": 7895,
      "roji": 7896,
      "hacéis": 7897,
      "ismos": 7898,
      "pata": 7899,
      "cejo": 7900,
      "cerraba": 7901,
      "dudos": 7902,
      "sac": 7903,
      "llamaban": 7904,
      "previsto": 7905,
      "rasgos": 7906,
      "coral": 7907,
      "cortinas": 7908,
      "pendientes": 7909,
      "gracioso": 7910,
      "formes": 7911,
      "privado": 7912,
      "sentándose": 7913,
      "tonela": 7914,
      "calcu": 7915,
      "vistas": 7916,
      "seguros": 7917,
      "interna": 7918,
      "fines": 7919,
      "insensa": 7920,
      "till": 7921,
      "elevado": 7922,
      "desapar": 7923,
      "valent": 7924,
      "genes": 7925,
      "extrañas": 7926,
      "descuido": 7927,
      "justamente": 7928,
      "puntu": 7929,
      "mostrarse": 7930,
      "relacion": 7931,
      "encontraría": 7932,
      "cruz": 7933,
      "quedarme": 7934,
      "frica": 7935,
      "galeras": 7936,
      "inmediata": 7937,
      "obligados": 7938,
      "obligación": 7939,
      "paseaba": 7940,
      "silbido": 7941,
      "inquieto": 7942,
      "pedirle": 7943,
      "perteneci": 7944,
      "inclinado": 7945,
      "desigu": 7946,
      "solitario": 7947,
      "ofendido": 7948,
      "material": 7949,
      "iluminado": 7950,
      "proteger": 7951,
      "conocemos": 7952,
      "bailar": 7953,
      "animación": 7954,
      "lamentable": 7955,
      "arrastrado": 7956,
      "Termin": 7957,
      "rebaño": 7958,
      "transcurrido": 7959,
      "sujeto": 7960,
      "magníficos": 7961,
      "campesino": 7962,
      "contraste": 7963,
      "temblorosa": 7964,
      "renunciar": 7965,
      "Preguntó": 7966,
      "armario": 7967,
      "torrente": 7968,
      "sinceramente": 7969,
      "persuadir": 7970,
      "comparación": 7971,
      "terciopelo": 7972,
      "albarda": 7973,
      "efeto": 7974,
      "Acu": 7975,
      "Bras": 7976,
      "DE": 7977,
      "Dentro": 7978,
      "Mc": 7979,
      "Mag": 7980,
      "Val": 7981,
      "amiento": 7982,
      "imos": 7983,
      "mel": 7984,
      "mén": 7985,
      "otor": 7986,
      "sun": 7987,
      "um": 7988,
      "yes": 7989,
      "íbamos": 7990,
      "endere": 7991,
      "determinado": 7992,
      "aran": 7993,
      "asal": 7994,
      "doeste": 7995,
      "alcal": 7996,
      "selas": 7997,
      "diesen": 7998,
      "diván": 7999,
      "comedi": 8000,
      "locomo": 8001,
      "tirar": 8002,
      "mela": 8003,
      "moza": 8004,
      "rilla": 8005,
      "abate": 8006,
      "persi": 8007,
      "mpas": 8008,
      "destre": 8009,
      "lios": 8010,
      "tua": 8011,
      "tuosamente": 8012,
      "ecas": 8013,
      "patr": 8014,
      "quita": 8015,
      "exca": 8016,
      "serena": 8017,
      "filó": 8018,
      "peñas": 8019,
      "llaba": 8020,
      "cabel": 8021,
      "llegase": 8022,
      "gala": 8023,
      "vag": 8024,
      "lanzado": 8025,
      "sales": 8026,
      "humedad": 8027,
      "sonar": 8028,
      "sonro": 8029,
      "torios": 8030,
      "merecía": 8031,
      "crees": 8032,
      "bode": 8033,
      "entrecejo": 8034,
      "respondido": 8035,
      "callado": 8036,
      "thy": 8037,
      "Sea": 8038,
      "interval": 8039,
      "interlocu": 8040,
      "cenizas": 8041,
      "julio": 8042,
      "caminando": 8043,
      "uelos": 8044,
      "valientes": 8045,
      "árbara": 8046,
      "incidentes": 8047,
      "guardó": 8048,
      "harto": 8049,
      "terminaba": 8050,
      "izándose": 8051,
      "agravio": 8052,
      "campana": 8053,
      "dejarme": 8054,
      "poderosa": 8055,
      "estremo": 8056,
      "moviendo": 8057,
      "olvido": 8058,
      "máquinas": 8059,
      "cruj": 8060,
      "oroeste": 8061,
      "tendían": 8062,
      "edy": 8063,
      "física": 8064,
      "guez": 8065,
      "misterios": 8066,
      "perderse": 8067,
      "correo": 8068,
      "corredores": 8069,
      "cuántos": 8070,
      "examen": 8071,
      "marchaba": 8072,
      "ofrece": 8073,
      "extendió": 8074,
      "gruta": 8075,
      "linaje": 8076,
      "dignidad": 8077,
      "regimiento": 8078,
      "lenguaje": 8079,
      "posee": 8080,
      "tentri": 8081,
      "países": 8082,
      "inclinada": 8083,
      "acontecimiento": 8084,
      "destruir": 8085,
      "ident": 8086,
      "Nuestra": 8087,
      "amplia": 8088,
      "capricho": 8089,
      "recebir": 8090,
      "durmiendo": 8091,
      "durmió": 8092,
      "Francisco": 8093,
      "jaula": 8094,
      "españoles": 8095,
      "recompensa": 8096,
      "bronce": 8097,
      "persecución": 8098,
      "Leonela": 8099,
      "Speedy": 8100,
      "Brasil": 8101,
      "21": 8102,
      "Afortuna": 8103,
      "Bra": 8104,
      "Cri": 8105,
      "Che": 8106,
      "Dor": 8107,
      "apres": 8108,
      "aprob": 8109,
      "adiós": 8110,
      "iremos": 8111,
      "nece": 8112,
      "opuesta": 8113,
      "tentes": 8114,
      "insul": 8115,
      "innumer": 8116,
      "dime": 8117,
      "conchas": 8118,
      "consiguió": 8119,
      "midez": 8120,
      "noctur": 8121,
      "timidez": 8122,
      "chal": 8123,
      "molido": 8124,
      "vita": 8125,
      "catal": 8126,
      "robo": 8127,
      "rillo": 8128,
      "rillos": 8129,
      "hablo": 8130,
      "desorden": 8131,
      "some": 8132,
      "delito": 8133,
      "mane": 8134,
      "veros": 8135,
      "casita": 8136,
      "cería": 8137,
      "cerrados": 8138,
      "sustitu": 8139,
      "señala": 8140,
      "duques": 8141,
      "llez": 8142,
      "llegan": 8143,
      "vacía": 8144,
      "península": 8145,
      "hoguera": 8146,
      "humanidad": 8147,
      "Entró": 8148,
      "darte": 8149,
      "obtenido": 8150,
      "bienestar": 8151,
      "sabría": 8152,
      "masas": 8153,
      "faz": 8154,
      "fatal": 8155,
      "interpre": 8156,
      "trescientas": 8157,
      "posibles": 8158,
      "escudo": 8159,
      "escuad": 8160,
      "bano": 8161,
      "trabajando": 8162,
      "soltó": 8163,
      "considero": 8164,
      "mental": 8165,
      "acerqué": 8166,
      "acertado": 8167,
      "sostener": 8168,
      "continuo": 8169,
      "método": 8170,
      "tranquilos": 8171,
      "sonriente": 8172,
      "Diego": 8173,
      "mostrando": 8174,
      "máximo": 8175,
      "Laska": 8176,
      "apartar": 8177,
      "cruzar": 8178,
      "acumu": 8179,
      "chico": 8180,
      "sorprendida": 8181,
      "cautivo": 8182,
      "gobernar": 8183,
      "violentamente": 8184,
      "parezca": 8185,
      "inquieta": 8186,
      "contemplando": 8187,
      "temeroso": 8188,
      "cariñ": 8189,
      "bajando": 8190,
      "elección": 8191,
      "agradecido": 8192,
      "aprender": 8193,
      "apoyado": 8194,
      "repugnan": 8195,
      "problemas": 8196,
      "atrevido": 8197,
      "extraordinariamente": 8198,
      "lejano": 8199,
      "bestia": 8200,
      "audaz": 8201,
      "ceremonia": 8202,
      "espuma": 8203,
      "Incluso": 8204,
      "amonton": 8205,
      "jesuita": 8206,
      "célebre": 8207,
      "arponero": 8208,
      "sobrenatur": 8209,
      "Dmitrievich": 8210,
      "toneladas": 8211,
      "desaparición": 8212,
      "13": 8213,
      "14": 8214,
      "?...": 8215,
      "Miré": 8216,
      "afr": 8217,
      "fér": 8218,
      "koy": 8219,
      "lló": 8220,
      "otes": 8221,
      "ph": 8222,
      "tún": 8223,
      "zgo": 8224,
      "armon": 8225,
      "arbus": 8226,
      "ancas": 8227,
      "inte": 8228,
      "retener": 8229,
      "revés": 8230,
      "reuni": 8231,
      "recinto": 8232,
      "seo": 8233,
      "dic": 8234,
      "diéndole": 8235,
      "miga": 8236,
      "tie": 8237,
      "tidi": 8238,
      "tiese": 8239,
      "med": 8240,
      "metá": 8241,
      "vivían": 8242,
      "sillas": 8243,
      "paral": 8244,
      "persu": 8245,
      "perdidos": 8246,
      "puño": 8247,
      "desventura": 8248,
      "sofá": 8249,
      "listo": 8250,
      "trage": 8251,
      "tengan": 8252,
      "bilidades": 8253,
      "veres": 8254,
      "nah": 8255,
      "promesas": 8256,
      "terías": 8257,
      "saque": 8258,
      "irresis": 8259,
      "gato": 8260,
      "tesoro": 8261,
      "pondría": 8262,
      "pasara": 8263,
      "estades": 8264,
      "estacas": 8265,
      "tasen": 8266,
      "tortu": 8267,
      "discí": 8268,
      "granos": 8269,
      "prescin": 8270,
      "raras": 8271,
      "crecer": 8272,
      "...!": 8273,
      "senté": 8274,
      "dísima": 8275,
      "elieu": 8276,
      "elemento": 8277,
      "compañera": 8278,
      "escucha": 8279,
      "banda": 8280,
      "gritando": 8281,
      "precisión": 8282,
      "faltan": 8283,
      "viajero": 8284,
      "Pensaba": 8285,
      "femen": 8286,
      "ársela": 8287,
      "pudiesen": 8288,
      "táron": 8289,
      "seno": 8290,
      "bebido": 8291,
      "éndoles": 8292,
      "Habían": 8293,
      "entendió": 8294,
      "palpi": 8295,
      "palide": 8296,
      "oriental": 8297,
      "apartó": 8298,
      "quedaría": 8299,
      "escapaba": 8300,
      "Tenéis": 8301,
      "Señora": 8302,
      "víveres": 8303,
      "antiguas": 8304,
      "obligaciones": 8305,
      "extremidad": 8306,
      "amarillo": 8307,
      "incesante": 8308,
      "ríguez": 8309,
      "sufrimiento": 8310,
      "ventajas": 8311,
      "observé": 8312,
      "agitaba": 8313,
      "manifi": 8314,
      "dominaba": 8315,
      "apretó": 8316,
      "avanzar": 8317,
      "desembara": 8318,
      "estré": 8319,
      "Sabes": 8320,
      "encendida": 8321,
      "Sak": 8322,
      "tierna": 8323,
      "aguardar": 8324,
      "troncos": 8325,
      "miembro": 8326,
      "nobleza": 8327,
      "separación": 8328,
      "ajena": 8329,
      "flujo": 8330,
      "fingir": 8331,
      "turbación": 8332,
      "Escucha": 8333,
      "Rucastle": 8334,
      "septentri": 8335,
      "rabia": 8336,
      "generalmente": 8337,
      "Ninguna": 8338,
      "multitud": 8339,
      "negativa": 8340,
      "onshire": 8341,
      "Georgi": 8342,
      "Richelieu": 8343,
      "Trans": 8344,
      "Amadís": 8345,
      "cobarde": 8346,
      "indígenas": 8347,
      "Devonshire": 8348,
      "Rodríguez": 8349,
      "increíble": 8350,
      "destreza": 8351,
      "Afortunadamente": 8352,
      "repugnancia": 8353,
      "Abri": 8354,
      "Bi": 8355,
      "Eh": 8356,
      "Ol": 8357,
      "Pon": 8358,
      "dáis": 8359,
      "eto": 8360,
      "jab": 8361,
      "nusse": 8362,
      "ófi": 8363,
      "encio": 8364,
      "depar": 8365,
      "deba": 8366,
      "quino": 8367,
      "doc": 8368,
      "abre": 8369,
      "alturas": 8370,
      "invisible": 8371,
      "reda": 8372,
      "reconocía": 8373,
      "date": 8374,
      "cuero": 8375,
      "cuentan": 8376,
      "raza": 8377,
      "chuelo": 8378,
      "moverse": 8379,
      "vió": 8380,
      "riéndose": 8381,
      "persis": 8382,
      "joyas": 8383,
      "jovs": 8384,
      "delgado": 8385,
      "delgada": 8386,
      "much": 8387,
      "poetas": 8388,
      "mosa": 8389,
      "expuesto": 8390,
      "cela": 8391,
      "ceño": 8392,
      "carecía": 8393,
      "servían": 8394,
      "lleve": 8395,
      "gadores": 8396,
      "Escri": 8397,
      "Estaban": 8398,
      "compa": 8399,
      "saltando": 8400,
      "discul": 8401,
      "canón": 8402,
      "mercero": 8403,
      "jame": 8404,
      "mítame": 8405,
      "bota": 8406,
      "sentían": 8407,
      "sentaron": 8408,
      "Levan": 8409,
      "pregunto": 8410,
      "iló": 8411,
      "mont": 8412,
      "desempe": 8413,
      "tillos": 8414,
      "estaremos": 8415,
      "pareciera": 8416,
      "regla": 8417,
      "contentos": 8418,
      "espeso": 8419,
      "bandidos": 8420,
      "gritaba": 8421,
      "quieras": 8422,
      "ándolas": 8423,
      "Yoko": 8424,
      "continentes": 8425,
      "pronuncia": 8426,
      "sordo": 8427,
      "frí": 8428,
      "sensi": 8429,
      "agravi": 8430,
      "pali": 8431,
      "Puesto": 8432,
      "acabo": 8433,
      "acababan": 8434,
      "agre": 8435,
      "presentarse": 8436,
      "pág": 8437,
      "causaba": 8438,
      "abilidades": 8439,
      "podríamos": 8440,
      "frac": 8441,
      "pobreza": 8442,
      "razonamiento": 8443,
      "mirad": 8444,
      "imaginarse": 8445,
      "oscuros": 8446,
      "prometo": 8447,
      "recogió": 8448,
      "señaló": 8449,
      "Gregson": 8450,
      "miseria": 8451,
      "ausente": 8452,
      "averigu": 8453,
      "asombrado": 8454,
      "bendición": 8455,
      "debiera": 8456,
      "preocupaciones": 8457,
      "depende": 8458,
      "protección": 8459,
      "inútilmente": 8460,
      "resplandeci": 8461,
      "limitó": 8462,
      "nerviosa": 8463,
      "atender": 8464,
      "inferiores": 8465,
      "bruma": 8466,
      "estremeció": 8467,
      "adoptar": 8468,
      "desarrollo": 8469,
      "hueco": 8470,
      "amanecer": 8471,
      "complacer": 8472,
      "Unión": 8473,
      "locuras": 8474,
      "definitivamente": 8475,
      "Kosnichev": 8476,
      "estrépito": 8477,
      "Saknusse": 8478,
      "Saknussemm": 8479,
      "Cara": 8480,
      "Hall": 8481,
      "Lor": 8482,
      "Otro": 8483,
      "Pes": 8484,
      "Simon": 8485,
      "Vene": 8486,
      "apri": 8487,
      "bús": 8488,
      "gá": 8489,
      "yar": 8490,
      "devora": 8491,
      "escasa": 8492,
      "latín": 8493,
      "elmo": 8494,
      "alfor": 8495,
      "severo": 8496,
      "dieran": 8497,
      "digas": 8498,
      "contando": 8499,
      "leo": 8500,
      "tibur": 8501,
      "pujovs": 8502,
      "mata": 8503,
      "jole": 8504,
      "mbri": 8505,
      "gota": 8506,
      "trayec": 8507,
      "tena": 8508,
      "pool": 8509,
      "mananti": 8510,
      "mantenerse": 8511,
      "vomi": 8512,
      "verpool": 8513,
      "nados": 8514,
      "exal": 8515,
      "celada": 8516,
      "cargado": 8517,
      "carnes": 8518,
      "mare": 8519,
      "marty": 8520,
      "samo": 8521,
      "nidos": 8522,
      "vadas": 8523,
      "cortó": 8524,
      "mene": 8525,
      "pasan": 8526,
      "lumbre": 8527,
      "vendría": 8528,
      "Encontr": 8529,
      "buques": 8530,
      "gicas": 8531,
      "talia": 8532,
      "grandísimo": 8533,
      "form": 8534,
      "forman": 8535,
      "voltura": 8536,
      "ciocho": 8537,
      "necio": 8538,
      "Quisi": 8539,
      "Quiteria": 8540,
      "calmar": 8541,
      "enetr": 8542,
      "deberes": 8543,
      "hubieron": 8544,
      "ferio": 8545,
      "dieciocho": 8546,
      "Sire": 8547,
      "pareciese": 8548,
      "andra": 8549,
      "gano": 8550,
      "cómoda": 8551,
      "necesarios": 8552,
      "adere": 8553,
      "pesaba": 8554,
      "indios": 8555,
      "escritorio": 8556,
      "senci": 8557,
      "prendas": 8558,
      "entendía": 8559,
      "explica": 8560,
      "estrechó": 8561,
      "Dijo": 8562,
      "ceptible": 8563,
      "Buenos": 8564,
      "Serpujovs": 8565,
      "quedara": 8566,
      "habiéndose": 8567,
      "firma": 8568,
      "director": 8569,
      "comerci": 8570,
      "invitado": 8571,
      "estuvieran": 8572,
      "brome": 8573,
      "Creía": 8574,
      "piensas": 8575,
      "preocuparse": 8576,
      "Habíamos": 8577,
      "prometida": 8578,
      "narración": 8579,
      "retiro": 8580,
      "centine": 8581,
      "honorable": 8582,
      "dominar": 8583,
      "Liverpool": 8584,
      "reunir": 8585,
      "sembrar": 8586,
      "exacta": 8587,
      "suspiros": 8588,
      "suspiró": 8589,
      "irritado": 8590,
      "despacio": 8591,
      "encerrado": 8592,
      "asesino": 8593,
      "reservado": 8594,
      "Guar": 8595,
      "grueso": 8596,
      "repugn": 8597,
      "ocuparse": 8598,
      "residente": 8599,
      "Hope": 8600,
      "población": 8601,
      "sacrificio": 8602,
      "melancol": 8603,
      "pelea": 8604,
      "dieciséis": 8605,
      "recursos": 8606,
      "sivamente": 8607,
      "independiente": 8608,
      "cetáceo": 8609,
      "forzoso": 8610,
      "sitios": 8611,
      "Yokohama": 8612,
      "Serpujovskoy": 8613,
      "12": 8614,
      "Farra": 8615,
      "Lirón": 8616,
      "Oí": 8617,
      "apor": 8618,
      "aparecieron": 8619,
      "beso": 8620,
      "ete": 8621,
      "glo": 8622,
      "oían": 8623,
      "rándose": 8624,
      "uten": 8625,
      "yelmo": 8626,
      "zás": 8627,
      "enfri": 8628,
      "escen": 8629,
      "escán": 8630,
      "later": 8631,
      "inar": 8632,
      "indis": 8633,
      "informado": 8634,
      "repuesto": 8635,
      "entaba": 8636,
      "entré": 8637,
      "dimientos": 8638,
      "cones": 8639,
      "coches": 8640,
      "pariente": 8641,
      "ritos": 8642,
      "despos": 8643,
      "desconocidos": 8644,
      "deslumb": 8645,
      "esten": 8646,
      "gut": 8647,
      "gura": 8648,
      "guantes": 8649,
      "podamos": 8650,
      "mancebo": 8651,
      "islandés": 8652,
      "quito": 8653,
      "caro": 8654,
      "sincero": 8655,
      "durar": 8656,
      "tesor": 8657,
      "fur": 8658,
      "ellano": 8659,
      "distribu": 8660,
      "meras": 8661,
      "talento": 8662,
      "olvida": 8663,
      "volcáni": 8664,
      "primi": 8665,
      "fato": 8666,
      "elocu": 8667,
      "algas": 8668,
      "varse": 8669,
      "censu": 8670,
      "montar": 8671,
      "colgado": 8672,
      "lenguas": 8673,
      "malicia": 8674,
      "plica": 8675,
      "elegir": 8676,
      "valer": 8677,
      "viajar": 8678,
      "Cierta": 8679,
      "bore": 8680,
      "guardaba": 8681,
      "honesta": 8682,
      "ingenioso": 8683,
      "muchachos": 8684,
      "circular": 8685,
      "llevarla": 8686,
      "produce": 8687,
      "Dime": 8688,
      "abiertas": 8689,
      "almacén": 8690,
      "capaces": 8691,
      "rápidos": 8692,
      "conductor": 8693,
      "secreta": 8694,
      "apoyó": 8695,
      "encargo": 8696,
      "Carthy": 8697,
      "naturalista": 8698,
      "gorra": 8699,
      "entrambos": 8700,
      "infun": 8701,
      "gentiles": 8702,
      "intenso": 8703,
      "experimentó": 8704,
      "frecuentes": 8705,
      "pertenece": 8706,
      "pertenecían": 8707,
      "ofrecido": 8708,
      "propósitos": 8709,
      "millares": 8710,
      "admirado": 8711,
      "manifestaba": 8712,
      "camaradas": 8713,
      "hundió": 8714,
      "descripción": 8715,
      "traicion": 8716,
      "adelantado": 8717,
      "estanque": 8718,
      "ocasion": 8719,
      "pistola": 8720,
      "tándome": 8721,
      "infinito": 8722,
      "cargamento": 8723,
      "recibieron": 8724,
      "disparo": 8725,
      "adquirir": 8726,
      "reputación": 8727,
      "avisar": 8728,
      "ruborizándose": 8729,
      "actuar": 8730,
      "cañón": 8731,
      "teniéndose": 8732,
      "pleno": 8733,
      "pescadores": 8734,
      "madru": 8735,
      "arrepentimiento": 8736,
      "reverencia": 8737,
      "acometer": 8738,
      "caracteres": 8739,
      "inspiraba": 8740,
      "apoderarse": 8741,
      "sepultura": 8742,
      "enamorada": 8743,
      "septie": 8744,
      "furioso": 8745,
      "cárcel": 8746,
      "Bosque": 8747,
      "Cromarty": 8748,
      "dimensiones": 8749,
      "McCarthy": 8750,
      "canónigo": 8751,
      "sencillez": 8752,
      "Farragut": 8753,
      "septiembre": 8754,
      "Au": 8755,
      "Aus": 8756,
      "Adelante": 8757,
      "Ben": 8758,
      "Emp": 8759,
      "Eres": 8760,
      "Sco": 8761,
      "adu": 8762,
      "afe": 8763,
      "bue": 8764,
      "grá": 8765,
      "júbi": 8766,
      "ove": 8767,
      "prados": 8768,
      "üben": 8769,
      "envía": 8770,
      "deuda": 8771,
      "esenci": 8772,
      "aná": 8773,
      "queb": 8774,
      "asió": 8775,
      "indeci": 8776,
      "diencia": 8777,
      "consentir": 8778,
      "tom": 8779,
      "copa": 8780,
      "puñ": 8781,
      "mapa": 8782,
      "guí": 8783,
      "mudo": 8784,
      "tensión": 8785,
      "tumba": 8786,
      "pique": 8787,
      "mástil": 8788,
      "ecé": 8789,
      "paño": 8790,
      "ved": 8791,
      "vehí": 8792,
      "provisto": 8793,
      "ceder": 8794,
      "carca": 8795,
      "cargar": 8796,
      "fiera": 8797,
      "duelo": 8798,
      "tropa": 8799,
      "gatos": 8800,
      "empi": 8801,
      "fuentes": 8802,
      "landes": 8803,
      "éntese": 8804,
      "hilera": 8805,
      "saliendo": 8806,
      "ruinas": 8807,
      "canto": 8808,
      "sabor": 8809,
      "sabrá": 8810,
      "herir": 8811,
      "crito": 8812,
      "guida": 8813,
      "Quieres": 8814,
      "tona": 8815,
      "alejado": 8816,
      "adme": 8817,
      "varia": 8818,
      "plie": 8819,
      "aumento": 8820,
      "posibilidades": 8821,
      "turcos": 8822,
      "pareciéndole": 8823,
      "preciosa": 8824,
      "Cual": 8825,
      "falle": 8826,
      "Cide": 8827,
      "fea": 8828,
      "gencias": 8829,
      "extrañ": 8830,
      "lín": 8831,
      "escribe": 8832,
      "escribía": 8833,
      "médicos": 8834,
      "mérito": 8835,
      "ather": 8836,
      "dejarle": 8837,
      "urgo": 8838,
      "Reform": 8839,
      "blanda": 8840,
      "confiado": 8841,
      "expresaba": 8842,
      "signo": 8843,
      "empezado": 8844,
      "familias": 8845,
      "transformar": 8846,
      "murallas": 8847,
      "echaba": 8848,
      "aproxi": 8849,
      "misteriosa": 8850,
      "dirigida": 8851,
      "sentirme": 8852,
      "apagado": 8853,
      "apacible": 8854,
      "ignorancia": 8855,
      "Graüben": 8856,
      "encendió": 8857,
      "»––¡": 8858,
      "limpia": 8859,
      "James": 8860,
      "procedía": 8861,
      "lluvias": 8862,
      "delicado": 8863,
      "preparada": 8864,
      "aumentar": 8865,
      "aumentaba": 8866,
      "atenciones": 8867,
      "yegua": 8868,
      "vigilan": 8869,
      "clima": 8870,
      "humildad": 8871,
      "gigantesco": 8872,
      "provocar": 8873,
      "aceite": 8874,
      "destinado": 8875,
      "billetes": 8876,
      "adecuado": 8877,
      "oidor": 8878,
      "meridiano": 8879,
      "indignación": 8880,
      "ceremonias": 8881,
      "Ningún": 8882,
      "Calcu": 8883,
      "zonas": 8884,
      "China": 8885,
      "moneda": 8886,
      "borracho": 8887,
      "declaración": 8888,
      "archipiélago": 8889,
      "proximidad": 8890,
      "Silencio": 8891,
      "innumerables": 8892,
      "irresistible": 8893,
      "Georgiana": 8894,
      "Quisiera": 8895,
      "melancolía": 8896,
      "júbilo": 8897,
      "Cleve": 8898,
      "Eliza": 8899,
      "Fe": 8900,
      "IX": 8901,
      "Ran": 8902,
      "elas": 8903,
      "fado": 8904,
      "imb": 8905,
      "ital": 8906,
      "izo": 8907,
      "já": 8908,
      "ox": 8909,
      "rin": 8910,
      "enseguida": 8911,
      "demostrar": 8912,
      "deudas": 8913,
      "erro": 8914,
      "ostras": 8915,
      "aro": 8916,
      "almi": 8917,
      "inqui": 8918,
      "rehus": 8919,
      "diciones": 8920,
      "dijer": 8921,
      "diéron": 8922,
      "conti": 8923,
      "tate": 8924,
      "supre": 8925,
      "sudoeste": 8926,
      "codo": 8927,
      "cuesta": 8928,
      "tira": 8929,
      "raya": 8930,
      "chón": 8931,
      "charse": 8932,
      "moment": 8933,
      "vido": 8934,
      "viéndose": 8935,
      "victoria": 8936,
      "sire": 8937,
      "habian": 8938,
      "majestad": 8939,
      "gués": 8940,
      "hagan": 8941,
      "litera": 8942,
      "trataban": 8943,
      "tenia": 8944,
      "tenidos": 8945,
      "tuyo": 8946,
      "bili": 8947,
      "usas": 8948,
      "velar": 8949,
      "casó": 8950,
      "cascos": 8951,
      "progres": 8952,
      "fijar": 8953,
      "yacía": 8954,
      "estaciones": 8955,
      "Estado": 8956,
      "venas": 8957,
      "compra": 8958,
      "prínci": 8959,
      "tortuga": 8960,
      "dispuso": 8961,
      "graciosa": 8962,
      "mase": 8963,
      "tinta": 8964,
      "Porte": 8965,
      "califi": 8966,
      "decirte": 8967,
      "impenetr": 8968,
      "zara": 8969,
      "lenar": 8970,
      "insen": 8971,
      "horri": 8972,
      "Siento": 8973,
      "regal": 8974,
      "andaban": 8975,
      "librar": 8976,
      "plano": 8977,
      "place": 8978,
      "platos": 8979,
      "falda": 8980,
      "faltó": 8981,
      "particulares": 8982,
      "cillas": 8983,
      "Pensé": 8984,
      "ladridos": 8985,
      "extrava": 8986,
      "pudiendo": 8987,
      "visitantes": 8988,
      "frunci": 8989,
      "descubría": 8990,
      "vestres": 8991,
      "cabaña": 8992,
      "dejaré": 8993,
      "tiende": 8994,
      "productos": 8995,
      "Hamete": 8996,
      "tuvieran": 8997,
      "focas": 8998,
      "hayamos": 8999,
      "echando": 9000,
      "considerando": 9001,
      "ochocientos": 9002,
      "Aquellas": 9003,
      "pasamos": 9004,
      "despertaba": 9005,
      "subí": 9006,
      "subterrán": 9007,
      "interesado": 9008,
      "objetivo": 9009,
      "ignora": 9010,
      "silvestres": 9011,
      "oculto": 9012,
      "cuadra": 9013,
      "cuadril": 9014,
      "retirada": 9015,
      "recobrar": 9016,
      "rodeaba": 9017,
      "correspondía": 9018,
      "perdone": 9019,
      "examinando": 9020,
      "Vuestro": 9021,
      "alum": 9022,
      "alumb": 9023,
      "ignorante": 9024,
      "Hannah": 9025,
      "encender": 9026,
      "mezc": 9027,
      "sembrado": 9028,
      "anteriormente": 9029,
      "adivinaba": 9030,
      "confesión": 9031,
      "pronunciado": 9032,
      "Morton": 9033,
      "iluminó": 9034,
      "Pasé": 9035,
      "inclinaciones": 9036,
      "animada": 9037,
      "músi": 9038,
      "idén": 9039,
      "gruesas": 9040,
      "refiere": 9041,
      "cadenas": 9042,
      "temperamento": 9043,
      "monstruos": 9044,
      "alimentos": 9045,
      "oreja": 9046,
      "amantes": 9047,
      "nordeste": 9048,
      "Hizo": 9049,
      "Decididamente": 9050,
      "héro": 9051,
      "combus": 9052,
      "escondido": 9053,
      "XIV": 9054,
      "aproximó": 9055,
      "espesor": 9056,
      "Kostia": 9057,
      "administra": 9058,
      "facultades": 9059,
      "mandíbulas": 9060,
      "infame": 9061,
      "despedirse": 9062,
      "Blanco": 9063,
      "cuchilla": 9064,
      "jalá": 9065,
      "arrecifes": 9066,
      "ilustre": 9067,
      "Confieso": 9068,
      "bodega": 9069,
      "utensi": 9070,
      "Cleveland": 9071,
      "príncipes": 9072,
      "cuadrill": 9073,
      "Dio": 9074,
      "Desa": 9075,
      "Presidente": 9076,
      "aparecido": 9077,
      "dén": 9078,
      "fest": 9079,
      "ffer": 9080,
      "llé": 9081,
      "yen": 9082,
      "zu": 9083,
      "áce": 9084,
      "úcar": 9085,
      "endu": 9086,
      "enju": 9087,
      "engan": 9088,
      "envuelto": 9089,
      "espo": 9090,
      "laridad": 9091,
      "queja": 9092,
      "quejas": 9093,
      "docenas": 9094,
      "abrían": 9095,
      "altar": 9096,
      "cimas": 9097,
      "indio": 9098,
      "informe": 9099,
      "revo": 9100,
      "recta": 9101,
      "contro": 9102,
      "toque": 9103,
      "suger": 9104,
      "cobrar": 9105,
      "logo": 9106,
      "chale": 9107,
      "simi": 9108,
      "capítulo": 9109,
      "desma": 9110,
      "muelle": 9111,
      "tratan": 9112,
      "traza": 9113,
      "tratos": 9114,
      "tratarse": 9115,
      "trampa": 9116,
      "moslo": 9117,
      "piano": 9118,
      "pajar": 9119,
      "exquisi": 9120,
      "veamos": 9121,
      "ceñ": 9122,
      "dulidad": 9123,
      "llano": 9124,
      "mista": 9125,
      "cabina": 9126,
      "testamento": 9127,
      "head": 9128,
      "futura": 9129,
      "lanzando": 9130,
      "Estados": 9131,
      "compe": 9132,
      "compasi": 9133,
      "garet": 9134,
      "darla": 9135,
      "darnos": 9136,
      "gia": 9137,
      "canes": 9138,
      "canalla": 9139,
      "old": 9140,
      "postura": 9141,
      "sentencia": 9142,
      "conoces": 9143,
      "laber": 9144,
      "inac": 9145,
      "adora": 9146,
      "jeras": 9147,
      "intervino": 9148,
      "barra": 9149,
      "montes": 9150,
      "Algo": 9151,
      "ráfa": 9152,
      "Media": 9153,
      "parecida": 9154,
      "bastión": 9155,
      "espesas": 9156,
      "ciego": 9157,
      "ganso": 9158,
      "exclamación": 9159,
      "Tomó": 9160,
      "viajes": 9161,
      "soltar": 9162,
      "Margaret": 9163,
      "trueno": 9164,
      "pudimos": 9165,
      "volveremos": 9166,
      "agradezco": 9167,
      "atenta": 9168,
      "dejará": 9169,
      "Inmedia": 9170,
      "blando": 9171,
      "producían": 9172,
      "comidas": 9173,
      "recorrió": 9174,
      "pensarlo": 9175,
      "atractivo": 9176,
      "coge": 9177,
      "pulso": 9178,
      "tendrían": 9179,
      "obscu": 9180,
      "alcanza": 9181,
      "quisiese": 9182,
      "portezuela": 9183,
      "profesion": 9184,
      "acudieron": 9185,
      "probabilidades": 9186,
      "eché": 9187,
      "invitó": 9188,
      "burlas": 9189,
      "regresé": 9190,
      "Aquello": 9191,
      "dolores": 9192,
      "últimamente": 9193,
      "llanto": 9194,
      "ofrecían": 9195,
      "comprometer": 9196,
      "significado": 9197,
      "retirarse": 9198,
      "llamaron": 9199,
      "pusiese": 9200,
      "luminoso": 9201,
      "logré": 9202,
      "lograba": 9203,
      "Temo": 9204,
      "domingo": 9205,
      "placeres": 9206,
      "austral": 9207,
      "concluir": 9208,
      "lloraba": 9209,
      "inclinándose": 9210,
      "aniqui": 9211,
      "reunión": 9212,
      "reunidos": 9213,
      "Prob": 9214,
      "Pasó": 9215,
      "traición": 9216,
      "Hubi": 9217,
      "elecciones": 9218,
      "labradora": 9219,
      "ejecutar": 9220,
      "excesiva": 9221,
      "excitación": 9222,
      "tenimiento": 9223,
      "fantasma": 9224,
      "percibir": 9225,
      "Trifal": 9226,
      "adecuada": 9227,
      "testigos": 9228,
      "honesto": 9229,
      "náufrago": 9230,
      "franqueza": 9231,
      "cercana": 9232,
      "trabajadores": 9233,
      "físico": 9234,
      "demasiada": 9235,
      "Naturalmente": 9236,
      "almorzar": 9237,
      "táneamente": 9238,
      "vehemencia": 9239,
      "decírselo": 9240,
      "otoño": 9241,
      "difunto": 9242,
      "cabellera": 9243,
      "túnel": 9244,
      "arbustos": 9245,
      "discípu": 9246,
      "doctr": 9247,
      "escándalo": 9248,
      "Ciertamente": 9249,
      "Basta": 9250,
      "Kor": 9251,
      "Lis": 9252,
      "Lie": 9253,
      "Mala": 9254,
      "aga": 9255,
      "agui": 9256,
      "atras": 9257,
      "bellas": 9258,
      "evas": 9259,
      "evna": 9260,
      "icos": 9261,
      "kiló": 9262,
      "leras": 9263,
      "mían": 9264,
      "rales": 9265,
      "tabi": 9266,
[...]
